[PAD]	0
[UNK]	0
[BOS]	0
[EOS]	0
▁t	-0
▁a	-1
he	-2
in	-3
re	-4
▁w	-5
▁the	-6
▁.	-7
▁s	-8
▁o	-9
▁,	-10
▁c	-11
ou	-12
er	-13
nd	-14
▁b	-15
▁m	-16
is	-17
ha	-18
▁f	-19
it	-20
▁to	-21
▁p	-22
or	-23
ing	-24
on	-25
▁I	-26
en	-27
es	-28
an	-29
▁and	-30
le	-31
▁in	-32
▁d	-33
ll	-34
▁of	-35
ar	-36
ed	-37
at	-38
▁n	-39
▁l	-40
ve	-41
ic	-42
om	-43
▁y	-44
▁be	-45
as	-46
▁is	-47
▁ha	-48
us	-49
▁g	-50
▁you	-51
▁e	-52
al	-53
ion	-54
hat	-55
ot	-56
ent	-57
▁T	-58
▁re	-59
ay	-60
ld	-61
ver	-62
▁that	-63
▁th	-64
im	-65
ut	-66
▁h	-67
▁for	-68
▁it	-69
et	-70
op	-71
ow	-72
ac	-73
ly	-74
st	-75
▁on	-76
ort	-77
▁he	-78
▁we	-79
▁st	-80
ir	-81
ur	-82
am	-83
oo	-84
id	-85
▁are	-86
ke	-87
▁tr	-88
ro	-89
▁li	-90
ith	-91
port	-92
▁have	-93
▁'	-94
ec	-95
▁The	-96
▁my	-97
▁mo	-98
▁with	-99
▁A	-100
▁was	-101
ill	-102
ad	-103
ould	-104
se	-105
all	-106
her	-107
use	-108
▁S	-109
ri	-110
ce	-111
ation	-112
▁as	-113
▁do	-114
▁an	-115
▁wh	-116
gh	-117
if	-118
eop	-119
ant	-120
ch	-121
eople	-122
very	-123
ter	-124
▁can	-125
▁not	-126
▁M	-127
▁people	-128
ome	-129
▁so	-130
▁ne	-131
ul	-132
▁ex	-133
un	-134
▁me	-135
ble	-136
▁con	-137
▁al	-138
▁bec	-139
▁or	-140
▁this	-141
▁at	-142
▁wor	-143
ge	-144
▁pl	-145
▁will	-146
▁k	-147
out	-148
ause	-149
▁they	-150
nt	-151
ain	-152
ity	-153
il	-154
▁W	-155
▁su	-156
ans	-157
ers	-158
▁H	-159
end	-160
ally	-161
▁ab	-162
▁pro	-163
▁sh	-164
▁because	-165
est	-166
▁but	-167
el	-168
our	-169
ment	-170
▁F	-171
fe	-172
▁more	-173
▁tim	-174
▁com	-175
▁go	-176
ol	-177
ess	-178
han	-179
▁en	-180
ct	-181
ood	-182
▁le	-183
art	-184
▁all	-185
rom	-186
▁whe	-187
▁j	-188
▁your	-189
ate	-190
ear	-191
ub	-192
king	-193
ies	-194
▁B	-195
▁im	-196
▁like	-197
▁by	-198
▁It	-199
▁time	-200
▁about	-201
▁In	-202
ure	-203
▁trans	-204
ght	-205
th	-206
▁their	-207
▁from	-208
ake	-209
▁r	-210
▁am	-211
ther	-212
▁v	-213
▁transport	-214
lic	-215
▁there	-216
ud	-217
▁very	-218
ive	-219
▁car	-220
▁se	-221
ust	-222
▁us	-223
ays	-224
▁C	-225
so	-226
ist	-227
▁-	-228
▁would	-229
pp	-230
▁sp	-231
▁"	-232
ast	-233
ind	-234
qu	-235
▁some	-236
▁kn	-237
▁our	-238
ect	-239
os	-240
▁E	-241
ore	-242
one	-243
▁man	-244
▁te	-245
are	-246
ublic	-247
▁one	-248
ag	-249
▁P	-250
▁de	-251
▁has	-252
ich	-253
▁had	-254
ink	-255
▁other	-256
ous	-257
▁ch	-258
and	-259
▁u	-260
ave	-261
▁public	-262
▁ad	-263
ie	-264
▁them	-265
ig	-266
um	-267
▁which	-268
▁also	-269
▁know	-270
▁every	-271
▁if	-272
ven	-273
▁exp	-274
ide	-275
▁lo	-276
▁when	-277
▁year	-278
act	-279
▁D	-280
▁who	-281
▁good	-282
▁O	-283
rou	-284
ice	-285
ite	-286
▁cl	-287
▁think	-288
ish	-289
▁his	-290
▁work	-291
ame	-292
ace	-293
▁lot	-294
▁want	-295
res	-296
iv	-297
te	-298
riend	-299
able	-300
ng	-301
ong	-302
ci	-303
ild	-304
▁sport	-305
age	-306
▁could	-307
▁stud	-308
▁N	-309
▁fe	-310
▁many	-311
ount	-312
▁op	-313
▁comp	-314
▁friend	-315
▁most	-316
ap	-317
▁dif	-318
▁get	-319
ob	-320
▁L	-321
ook	-322
▁her	-323
▁?	-324
ff	-325
▁life	-326
▁she	-327
irst	-328
▁play	-329
ak	-330
oy	-331
ings	-332
▁need	-333
ult	-334
ence	-335
▁Y	-336
▁new	-337
▁!	-338
reat	-339
em	-340
▁should	-341
ry	-342
wn	-343
ond	-344
ard	-345
▁pr	-346
▁un	-347
▁than	-348
▁Th	-349
fere	-350
lp	-351
▁help	-352
▁up	-353
▁any	-354
▁dis	-355
ach	-356
▁use	-357
ight	-358
ily	-359
od	-360
eri	-361
▁He	-362
▁fam	-363
▁what	-364
▁day	-365
ities	-366
▁were	-367
ving	-368
▁really	-369
▁import	-370
▁years	-371
ool	-372
▁way	-373
ass	-374
ning	-375
ep	-376
▁out	-377
▁trave	-378
▁chan	-379
ree	-380
▁We	-381
ition	-382
▁only	-383
▁qu	-384
▁sa	-385
▁ag	-386
▁act	-387
other	-388
ine	-389
led	-390
▁been	-391
uc	-392
ents	-393
▁how	-394
▁res	-395
▁part	-396
▁child	-397
ip	-398
ack	-399
▁differe	-400
iz	-401
▁po	-402
▁important	-403
▁bet	-404
red	-405
og	-406
▁There	-407
▁imp	-408
▁make	-409
ren	-410
▁1	-411
fter	-412
ise	-413
amp	-414
omet	-415
▁ar	-416
▁count	-417
cc	-418
▁start	-419
ue	-420
▁lear	-421
ves	-422
▁:	-423
▁best	-424
▁R	-425
▁pre	-426
▁fa	-427
▁On	-428
ways	-429
▁pers	-430
▁fo	-431
blem	-432
chool	-433
ever	-434
▁world	-435
uch	-436
▁problem	-437
▁wat	-438
▁just	-439
▁take	-440
▁different	-441
▁friends	-442
ful	-443
▁ro	-444
ions	-445
▁This	-446
▁much	-447
ical	-448
▁My	-449
▁always	-450
si	-451
▁no	-452
ough	-453
orm	-454
▁city	-455
▁J	-456
▁bu	-457
▁cont	-458
▁person	-459
▁rec	-460
▁school	-461
▁job	-462
hen	-463
ang	-464
ile	-465
▁too	-466
▁wr	-467
ab	-468
▁find	-469
▁G	-470
ated	-471
uture	-472
ose	-473
cl	-474
hing	-475
ance	-476
▁see	-477
▁love	-478
▁him	-479
▁happ	-480
▁2	-481
▁future	-482
ary	-483
▁somet	-484
mer	-485
▁children	-486
▁where	-487
vel	-488
ason	-489
fore	-490
▁place	-491
▁bus	-492
▁great	-493
joy	-494
lish	-495
round	-496
▁If	-497
▁co	-498
▁enjoy	-499
▁app	-500
ations	-501
▁cons	-502
ert	-503
▁How	-504
ved	-505
▁old	-506
▁Eng	-507
▁U	-508
▁tw	-509
iting	-510
▁going	-511
▁things	-512
▁feel	-513
▁int	-514
▁pos	-515
▁dec	-516
▁But	-517
▁even	-518
ber	-519
▁Al	-520
▁first	-521
vir	-522
sel	-523
▁well	-524
ress	-525
▁gr	-526
onment	-527
▁br	-528
▁You	-529
▁did	-530
vironment	-531
itt	-532
ens	-533
▁rel	-534
▁experi	-535
▁They	-536
▁own	-537
▁shop	-538
▁environment	-539
▁family	-540
▁English	-541
ark	-542
▁As	-543
▁inte	-544
rest	-545
▁For	-546
▁now	-547
▁such	-548
ball	-549
ade	-550
▁reason	-551
hes	-552
ince	-553
ick	-554
▁care	-555
aking	-556
form	-557
ial	-558
▁sm	-559
▁hand	-560
tern	-561
ces	-562
▁ca	-563
▁may	-564
int	-565
▁att	-566
▁look	-567
▁sk	-568
▁interest	-569
▁big	-570
du	-571
▁adv	-572
▁travel	-573
▁comm	-574
▁better	-575
▁ke	-576
ope	-577
der	-578
▁)	-579
▁home	-580
▁after	-581
▁cha	-582
pt	-583
▁So	-584
▁off	-585
▁these	-586
▁eas	-587
▁fav	-588
▁sum	-589
▁When	-590
ra	-591
▁country	-592
▁vis	-593
olog	-594
▁two	-595
lling	-596
hn	-597
▁Mic	-598
▁impro	-599
▁cars	-600
ase	-601
thing	-602
vers	-603
▁live	-604
▁food	-605
▁learn	-606
▁soci	-607
ign	-608
oney	-609
▁und	-610
▁per	-611
ody	-612
akes	-613
▁bel	-614
▁cour	-615
get	-616
ire	-617
▁long	-618
xt	-619
▁har	-620
▁money	-621
alth	-622
▁something	-623
ia	-624
alk	-625
▁inc	-626
▁kind	-627
▁However	-628
▁same	-629
▁examp	-630
ually	-631
▁experience	-632
ying	-633
hael	-634
ages	-635
▁First	-636
▁young	-637
▁students	-638
▁(	-639
▁made	-640
ory	-641
▁Michael	-642
▁rest	-643
▁say	-644
ient	-645
ru	-646
igh	-647
▁last	-648
▁fact	-649
▁must	-650
▁used	-651
▁read	-652
▁over	-653
▁into	-654
▁example	-655
ew	-656
▁main	-657
▁went	-658
▁watch	-659
▁under	-660
▁K	-661
econd	-662
ieve	-663
▁des	-664
we	-665
echn	-666
self	-667
les	-668
velop	-669
▁activ	-670
▁;	-671
▁She	-672
ound	-673
ution	-674
hed	-675
ets	-676
▁train	-677
▁health	-678
als	-679
ull	-680
▁sc	-681
ather	-682
angu	-683
own	-684
gan	-685
▁che	-686
ular	-687
▁mat	-688
▁then	-689
ram	-690
▁acc	-691
ooking	-692
ors	-693
▁And	-694
▁give	-695
ting	-696
▁ed	-697
▁since	-698
▁town	-699
▁inst	-700
▁col	-701
▁wee	-702
ious	-703
ours	-704
▁spe	-705
▁langu	-706
▁real	-707
▁inv	-708
▁sports	-709
▁develop	-710
▁fun	-711
▁ser	-712
ied	-713
ping	-714
ouse	-715
▁opin	-716
ward	-717
▁fin	-718
arent	-719
▁eff	-720
▁around	-721
▁techn	-722
omm	-723
▁visit	-724
fort	-725
▁thing	-726
▁class	-727
▁To	-728
▁its	-729
uring	-730
▁An	-731
sible	-732
▁spend	-733
▁str	-734
▁Dear	-735
00	-736
ating	-737
▁cent	-738
▁being	-739
▁educ	-740
▁aw	-741
▁show	-742
▁inform	-743
day	-744
▁fil	-745
▁let	-746
▁never	-747
▁plan	-748
▁cal	-749
▁mom	-750
ought	-751
be	-752
▁add	-753
▁spec	-754
ety	-755
▁back	-756
▁ph	-757
arents	-758
az	-759
▁able	-760
▁problems	-761
▁opinion	-762
▁improve	-763
▁ent	-764
▁sur	-765
ments	-766
▁em	-767
▁foot	-768
▁keep	-769
▁lives	-770
▁summer	-771
▁working	-772
▁ind	-773
▁still	-774
oc	-775
▁travelling	-776
aur	-777
▁before	-778
ks	-779
▁mon	-780
▁cle	-781
ittle	-782
riv	-783
▁without	-784
▁change	-785
ational	-786
pect	-787
oth	-788
▁dri	-789
▁those	-790
any	-791
▁cr	-792
▁hard	-793
ost	-794
aut	-795
▁doing	-796
▁little	-797
▁reg	-798
▁sit	-799
▁film	-800
▁course	-801
▁prog	-802
aces	-803
▁ri	-804
▁Now	-805
▁house	-806
fic	-807
adays	-808
ian	-809
▁hope	-810
▁ide	-811
▁high	-812
▁got	-813
iew	-814
ivers	-815
▁wa	-816
▁next	-817
▁fl	-818
llow	-819
▁bas	-820
ision	-821
▁conc	-822
▁try	-823
▁while	-824
▁book	-825
▁team	-826
▁started	-827
ject	-828
rough	-829
▁using	-830
▁become	-831
▁believe	-832
▁parents	-833
▁shopping	-834
▁less	-835
ax	-836
▁why	-837
▁each	-838
▁met	-839
▁disc	-840
aurant	-841
▁organ	-842
ord	-843
▁beaut	-844
▁chang	-845
esp	-846
▁mus	-847
▁run	-848
▁does	-849
urn	-850
▁end	-851
▁pop	-852
▁favour	-853
fer	-854
ific	-855
▁restaurant	-856
▁sha	-857
▁said	-858
ail	-859
▁sw	-860
▁num	-861
▁conven	-862
ides	-863
ility	-864
▁football	-865
ries	-866
yp	-867
▁rem	-868
▁another	-869
▁bad	-870
▁come	-871
▁poll	-872
ys	-873
hip	-874
▁order	-875
..	-876
▁meet	-877
▁gl	-878
ming	-879
over	-880
ology	-881
▁teac	-882
pl	-883
▁bl	-884
ider	-885
lect	-886
▁again	-887
ention	-888
▁information	-889
ommend	-890
▁incre	-891
▁through	-892
▁loc	-893
though	-894
▁mov	-895
▁language	-896
ided	-897
ills	-898
imes	-899
▁both	-900
▁thought	-901
ked	-902
▁build	-903
▁writing	-904
▁hum	-905
▁teacher	-906
▁favourite	-907
▁everyone	-908
iful	-909
ately	-910
▁activities	-911
vert	-912
▁commun	-913
▁transportation	-914
▁soon	-915
▁recommend	-916
▁That	-917
▁everything	-918
▁stre	-919
▁during	-920
▁program	-921
alking	-922
▁After	-923
▁few	-924
lev	-925
▁small	-926
▁places	-927
here	-928
▁art	-929
▁makes	-930
▁called	-931
▁consider	-932
▁tell	-933
▁famous	-934
▁prov	-935
▁beautiful	-936
ual	-937
▁typ	-938
ially	-939
▁gen	-940
▁talk	-941
iversity	-942
aff	-943
▁choo	-944
▁follow	-945
ates	-946
ream	-947
▁happy	-948
▁point	-949
▁V	-950
gin	-951
▁priv	-952
ween	-953
stand	-954
▁Also	-955
▁stop	-956
▁looking	-957
▁sy	-958
▁char	-959
▁free	-960
▁between	-961
ues	-962
▁cult	-963
▁knew	-964
▁three	-965
▁What	-966
▁moment	-967
▁nat	-968
ficult	-969
▁difficult	-970
ten	-971
▁water	-972
irl	-973
▁pass	-974
▁ev	-975
▁learning	-976
▁gu	-977
ists	-978
▁dep	-979
▁serv	-980
▁pract	-981
▁skills	-982
▁situ	-983
▁5	-984
▁Un	-985
ertain	-986
duct	-987
▁girl	-988
▁month	-989
ict	-990
▁Sp	-991
▁ob	-992
▁sol	-993
▁camp	-994
▁buy	-995
▁right	-996
erm	-997
its	-998
gest	-999
less	-1000
▁addition	-1001
▁door	-1002
▁convenient	-1003
▁pres	-1004
ited	-1005
▁exc	-1006
▁swim	-1007
▁music	-1008
▁number	-1009
▁20	-1010
▁At	-1011
ised	-1012
▁intern	-1013
▁happen	-1014
▁...	-1015
ality	-1016
▁comfort	-1017
▁days	-1018
▁hear	-1019
ier	-1020
▁inter	-1021
▁prefer	-1022
▁study	-1023
▁special	-1024
▁concl	-1025
▁countries	-1026
▁sub	-1027
▁mind	-1028
▁ins	-1029
▁sup	-1030
▁enough	-1031
portun	-1032
▁having	-1033
▁av	-1034
▁name	-1035
▁found	-1036
▁opportun	-1037
stem	-1038
▁One	-1039
▁ec	-1040
▁resp	-1041
▁means	-1042
▁St	-1043
ics	-1044
aster	-1045
▁playing	-1046
cept	-1047
▁choose	-1048
▁others	-1049
▁sim	-1050
gy	-1051
▁put	-1052
▁saw	-1053
ures	-1054
▁ac	-1055
ness	-1056
▁Every	-1057
▁week	-1058
▁pollution	-1059
▁understand	-1060
▁dr	-1061
▁down	-1062
▁open	-1063
▁advert	-1064
▁result	-1065
▁air	-1066
ledge	-1067
▁expl	-1068
▁might	-1069
▁3	-1070
▁night	-1071
roup	-1072
▁near	-1073
▁i	-1074
ural	-1075
▁sure	-1076
▁comple	-1077
▁mem	-1078
▁far	-1079
▁gover	-1080
levision	-1081
▁society	-1082
iss	-1083
▁idea	-1084
▁knowledge	-1085
ared	-1086
▁technology	-1087
▁interesting	-1088
ully	-1089
▁clot	-1090
▁fore	-1091
▁clean	-1092
▁partic	-1093
ecially	-1094
▁private	-1095
▁here	-1096
▁system	-1097
osed	-1098
ently	-1099
read	-1100
ron	-1101
aper	-1102
▁second	-1103
▁group	-1104
▁govern	-1105
▁reasons	-1106
wor	-1107
▁esp	-1108
▁possible	-1109
land	-1110
▁dist	-1111
▁forward	-1112
ced	-1113
ative	-1114
▁social	-1115
▁living	-1116
ene	-1117
ple	-1118
▁TV	-1119
▁room	-1120
▁teach	-1121
▁ple	-1122
▁traff	-1123
▁pol	-1124
▁easy	-1125
▁People	-1126
ds	-1127
ft	-1128
▁effect	-1129
▁Wh	-1130
▁aff	-1131
▁decided	-1132
▁More	-1133
▁gener	-1134
antages	-1135
▁ener	-1136
▁traffic	-1137
▁All	-1138
ices	-1139
▁ext	-1140
usion	-1141
▁ever	-1142
▁stay	-1143
▁cities	-1144
ident	-1145
urther	-1146
▁especially	-1147
ensive	-1148
▁speak	-1149
duce	-1150
▁Second	-1151
▁view	-1152
▁Nowadays	-1153
▁body	-1154
▁strong	-1155
ars	-1156
▁ago	-1157
▁dest	-1158
▁seem	-1159
▁respon	-1160
au	-1161
▁hist	-1162
▁prof	-1163
▁ve	-1164
▁hours	-1165
ize	-1166
▁eat	-1167
ater	-1168
ract	-1169
▁Then	-1170
ames	-1171
▁min	-1172
▁cur	-1173
▁fast	-1174
▁comfortable	-1175
▁cost	-1176
▁took	-1177
ilities	-1178
▁clothes	-1179
▁Ch	-1180
▁mother	-1181
▁education	-1182
ives	-1183
▁taking	-1184
pr	-1185
ower	-1186
▁mist	-1187
▁told	-1188
ourn	-1189
▁ass	-1190
▁conf	-1191
▁times	-1192
ences	-1193
▁requ	-1194
▁often	-1195
▁boy	-1196
br	-1197
erc	-1198
▁human	-1199
ute	-1200
ecess	-1201
▁ear	-1202
fully	-1203
▁news	-1204
▁Fin	-1205
▁hu	-1206
▁dream	-1207
▁hot	-1208
ead	-1209
ising	-1210
▁comput	-1211
▁face	-1212
body	-1213
▁lead	-1214
▁rep	-1215
ty	-1216
ove	-1217
▁kid	-1218
▁television	-1219
duc	-1220
fect	-1221
▁game	-1222
▁product	-1223
▁interested	-1224
▁myself	-1225
up	-1226
▁opportunity	-1227
ters	-1228
▁list	-1229
▁usually	-1230
cess	-1231
▁ban	-1232
▁mor	-1233
▁relax	-1234
▁communic	-1235
▁war	-1236
gether	-1237
▁together	-1238
▁wo	-1239
▁turn	-1240
▁getting	-1241
▁service	-1242
▁favor	-1243
▁present	-1244
more	-1245
▁away	-1246
▁expensive	-1247
sib	-1248
iness	-1249
▁Some	-1250
inking	-1251
▁movie	-1252
▁sometimes	-1253
▁prep	-1254
▁creat	-1255
ner	-1256
▁popular	-1257
clud	-1258
▁walk	-1259
▁conclusion	-1260
ired	-1261
▁begin	-1262
elt	-1263
med	-1264
▁compet	-1265
▁Finally	-1266
▁increas	-1267
▁pur	-1268
▁came	-1269
▁necess	-1270
way	-1271
▁past	-1272
▁exerc	-1273
▁someone	-1274
▁def	-1275
▁pay	-1276
▁Do	-1277
ized	-1278
onom	-1279
▁201	-1280
▁swimming	-1281
▁Although	-1282
▁Moreover	-1283
most	-1284
▁bene	-1285
▁whole	-1286
▁bo	-1287
ange	-1288
▁quest	-1289
▁sl	-1290
oice	-1291
▁fac	-1292
▁iss	-1293
▁quality	-1294
▁favorite	-1295
ath	-1296
ruct	-1297
▁med	-1298
▁var	-1299
▁university	-1300
ern	-1301
ric	-1302
▁healthy	-1303
▁perfect	-1304
▁opt	-1305
▁trip	-1306
▁park	-1307
▁quite	-1308
▁nice	-1309
▁ways	-1310
▁wanted	-1311
▁brother	-1312
ket	-1313
▁sci	-1314
▁arri	-1315
▁move	-1316
▁includ	-1317
ines	-1318
▁anim	-1319
▁watching	-1320
ash	-1321
reen	-1322
▁Therefore	-1323
▁government	-1324
▁lar	-1325
▁Intern	-1326
ons	-1327
▁making	-1328
▁company	-1329
ably	-1330
hic	-1331
irect	-1332
ination	-1333
den	-1334
▁mag	-1335
▁area	-1336
enn	-1337
▁sug	-1338
▁wait	-1339
▁journ	-1340
▁running	-1341
▁remem	-1342
▁support	-1343
▁anything	-1344
▁save	-1345
▁true	-1346
▁level	-1347
astic	-1348
ix	-1349
▁process	-1350
▁situation	-1351
▁del	-1352
▁felt	-1353
▁tour	-1354
eter	-1355
▁Than	-1356
▁known	-1357
▁morning	-1358
▁energy	-1359
▁wom	-1360
selves	-1361
▁agree	-1362
▁story	-1363
▁complete	-1364
uss	-1365
▁aut	-1366
itive	-1367
▁Ital	-1368
▁road	-1369
▁local	-1370
▁econom	-1371
ories	-1372
▁amaz	-1373
▁prot	-1374
▁charac	-1375
anc	-1376
rib	-1377
ished	-1378
rol	-1379
▁ma	-1380
▁needs	-1381
▁useful	-1382
me	-1383
▁profess	-1384
side	-1385
onder	-1386
▁almost	-1387
bers	-1388
▁suit	-1389
▁sever	-1390
▁waste	-1391
▁personal	-1392
av	-1393
▁chance	-1394
tc	-1395
▁full	-1396
▁due	-1397
▁studying	-1398
▁pleas	-1399
▁shops	-1400
▁several	-1401
ike	-1402
▁ce	-1403
▁caus	-1404
▁mark	-1405
▁allow	-1406
▁necessary	-1407
mp	-1408
▁unt	-1409
▁suggest	-1410
▁Tr	-1411
ional	-1412
▁contin	-1413
▁ans	-1414
▁today	-1415
ird	-1416
▁Jo	-1417
▁cond	-1418
▁rese	-1419
▁val	-1420
▁discuss	-1421
▁thinking	-1422
▁kids	-1423
ubb	-1424
esides	-1425
▁benef	-1426
▁kinds	-1427
▁listen	-1428
▁resear	-1429
▁amazing	-1430
▁building	-1431
▁sing	-1432
▁instead	-1433
▁Secondly	-1434
▁ey	-1435
▁short	-1436
iet	-1437
▁bit	-1438
ield	-1439
▁top	-1440
▁depend	-1441
▁explain	-1442
utes	-1443
▁Mad	-1444
▁inf	-1445
▁sis	-1446
▁Yours	-1447
▁asked	-1448
▁win	-1449
▁position	-1450
app	-1451
uck	-1452
▁da	-1453
▁jo	-1454
▁bor	-1455
▁With	-1456
▁apply	-1457
▁worked	-1458
olid	-1459
ready	-1460
osp	-1461
road	-1462
▁set	-1463
▁tre	-1464
▁moder	-1465
▁until	-1466
▁vehic	-1467
▁wonder	-1468
▁etc	-1469
▁lots	-1470
ital	-1471
orth	-1472
▁pain	-1473
▁Peter	-1474
aw	-1475
ts	-1476
▁walking	-1477
▁4	-1478
ases	-1479
▁deal	-1480
▁already	-1481
rent	-1482
▁call	-1483
▁least	-1484
▁easily	-1485
air	-1486
▁bre	-1487
▁sec	-1488
▁step	-1489
where	-1490
▁mistake	-1491
wer	-1492
▁large	-1493
▁advertise	-1494
▁seen	-1495
▁vill	-1496
▁looked	-1497
▁months	-1498
▁surpr	-1499
ny	-1500
sequ	-1501
▁ach	-1502
▁huge	-1503
ubbish	-1504
▁basket	-1505
▁modern	-1506
▁student	-1507
▁relations	-1508
▁grow	-1509
▁books	-1510
▁light	-1511
▁direct	-1512
▁protect	-1513
▁defin	-1514
▁stand	-1515
▁write	-1516
▁design	-1517
▁regard	-1518
▁Firstly	-1519
▁culture	-1520
▁imag	-1521
▁holid	-1522
▁letter	-1523
ey	-1524
▁age	-1525
▁advice	-1526
▁closed	-1527
▁remember	-1528
io	-1529
ense	-1530
▁eng	-1531
iving	-1532
▁ones	-1533
▁father	-1534
▁cat	-1535
▁attract	-1536
▁games	-1537
tain	-1538
▁Sir	-1539
▁done	-1540
▁changed	-1541
▁concert	-1542
▁rubbish	-1543
▁US	-1544
▁buses	-1545
▁animals	-1546
eng	-1547
▁Hi	-1548
ustom	-1549
▁role	-1550
▁These	-1551
▁colle	-1552
ycl	-1553
▁mot	-1554
ience	-1555
▁prop	-1556
▁project	-1557
▁attention	-1558
ront	-1559
▁daily	-1560
▁quick	-1561
▁cap	-1562
▁ess	-1563
▁cou	-1564
▁cre	-1565
▁entertain	-1566
ina	-1567
▁arg	-1568
▁bank	-1569
▁prev	-1570
▁Internet	-1571
oid	-1572
▁drink	-1573
▁words	-1574
urthermore	-1575
▁6	-1576
nce	-1577
medi	-1578
▁cor	-1579
▁det	-1580
▁succ	-1581
▁wind	-1582
▁cause	-1583
▁helps	-1584
▁notes	-1585
▁state	-1586
▁talking	-1587
▁nowadays	-1588
▁Many	-1589
▁drive	-1590
▁types	-1591
ude	-1592
elf	-1593
ground	-1594
▁success	-1595
▁basketball	-1596
und	-1597
ering	-1598
▁amount	-1599
▁advantages	-1600
▁19	-1601
ried	-1602
▁Bec	-1603
yle	-1604
▁exam	-1605
itions	-1606
▁maj	-1607
ically	-1608
work	-1609
erious	-1610
▁leave	-1611
▁though	-1612
▁club	-1613
▁reading	-1614
▁suitable	-1615
▁development	-1616
ery	-1617
ife	-1618
meric	-1619
▁sign	-1620
ulation	-1621
▁Americ	-1622
▁Because	-1623
▁driving	-1624
▁exercise	-1625
ivid	-1626
▁phys	-1627
▁maybe	-1628
▁centre	-1629
▁custom	-1630
▁stress	-1631
▁trying	-1632
▁10	-1633
rid	-1634
iven	-1635
▁hotel	-1636
▁concern	-1637
▁research	-1638
▁Mar	-1639
▁dem	-1640
▁four	-1641
▁glob	-1642
▁increase	-1643
ted	-1644
ploy	-1645
useum	-1646
▁Public	-1647
▁matter	-1648
▁Besides	-1649
▁activity	-1650
▁Furthermore	-1651
cle	-1652
▁price	-1653
▁easier	-1654
by	-1655
ible	-1656
view	-1657
▁sal	-1658
bably	-1659
▁land	-1660
▁field	-1661
▁played	-1662
▁although	-1663
▁friendly	-1664
▁ask	-1665
▁rece	-1666
▁Another	-1667
ime	-1668
raz	-1669
▁form	-1670
▁choice	-1671
erv	-1672
ison	-1673
▁thr	-1674
ential	-1675
▁avoid	-1676
▁provide	-1677
mediately	-1678
leep	-1679
▁aware	-1680
▁major	-1681
▁aspect	-1682
▁expect	-1683
▁reduce	-1684
▁sheets	-1685
▁subject	-1686
▁waiting	-1687
ee	-1688
cus	-1689
▁enc	-1690
▁mean	-1691
▁once	-1692
▁becom	-1693
▁common	-1694
▁rather	-1695
▁relationship	-1696
ins	-1697
ants	-1698
▁par	-1699
▁vol	-1700
anger	-1701
ources	-1702
sibility	-1703
▁weather	-1704
▁products	-1705
▁increasing	-1706
na	-1707
ral	-1708
ones	-1709
▁case	-1710
idered	-1711
▁const	-1712
▁tried	-1713
▁forget	-1714
▁street	-1715
ury	-1716
▁later	-1717
▁certain	-1718
▁particular	-1719
enc	-1720
▁prom	-1721
▁self	-1722
▁bring	-1723
▁heard	-1724
▁considered	-1725
kes	-1726
▁mod	-1727
▁Since	-1728
▁break	-1729
▁history	-1730
▁immediately	-1731
▁advertisement	-1732
iter	-1733
▁Tom	-1734
▁answer	-1735
▁members	-1736
▁themselves	-1737
▁Be	-1738
▁gives	-1739
▁green	-1740
▁takes	-1741
▁sister	-1742
adv	-1743
ock	-1744
▁mar	-1745
▁cook	-1746
▁space	-1747
▁foreign	-1748
aged	-1749
ring	-1750
▁ref	-1751
▁areas	-1752
▁elect	-1753
▁shows	-1754
▁contact	-1755
▁minutes	-1756
▁everybody	-1757
itc	-1758
que	-1759
▁50	-1760
cial	-1761
▁men	-1762
▁close	-1763
▁seems	-1764
▁movies	-1765
▁happened	-1766
▁Eur	-1767
▁pat	-1768
▁yourself	-1769
no	-1770
▁power	-1771
▁global	-1772
▁positive	-1773
ined	-1774
room	-1775
▁desc	-1776
▁grad	-1777
▁alone	-1778
▁avail	-1779
▁front	-1780
▁control	-1781
▁organiz	-1782
aken	-1783
▁disadv	-1784
rap	-1785
▁nature	-1786
▁report	-1787
▁internet	-1788
ism	-1789
line	-1790
▁tas	-1791
ances	-1792
itely	-1793
▁probably	-1794
▁May	-1795
▁sat	-1796
denly	-1797
antage	-1798
▁teachers	-1799
▁teaching	-1800
bs	-1801
hod	-1802
▁Re	-1803
anish	-1804
unately	-1805
▁business	-1806
ote	-1807
▁cit	-1808
▁ret	-1809
▁hous	-1810
▁changes	-1811
▁hearing	-1812
▁nothing	-1813
▁computer	-1814
▁wonderful	-1815
▁By	-1816
kend	-1817
▁late	-1818
▁left	-1819
▁finally	-1820
▁serious	-1821
▁Last	-1822
▁Spain	-1823
ret	-1824
▁option	-1825
▁international	-1826
old	-1827
▁fit	-1828
▁focus	-1829
▁affect	-1830
▁employ	-1831
▁faster	-1832
▁market	-1833
▁museum	-1834
▁mention	-1835
▁particip	-1836
▁facilities	-1837
▁Ar	-1838
▁fre	-1839
ennis	-1840
▁chall	-1841
▁danger	-1842
▁weekend	-1843
▁following	-1844
ains	-1845
wards	-1846
▁attend	-1847
▁Te	-1848
▁head	-1849
▁share	-1850
▁individ	-1851
▁completely	-1852
ib	-1853
nect	-1854
▁Con	-1855
▁Even	-1856
ording	-1857
▁sound	-1858
▁consum	-1859
▁200	-1860
▁mob	-1861
▁infl	-1862
▁tick	-1863
▁Thank	-1864
▁given	-1865
▁store	-1866
▁method	-1867
▁current	-1868
▁streets	-1869
▁instance	-1870
oor	-1871
▁faith	-1872
▁arrived	-1873
▁natural	-1874
▁studies	-1875
ck	-1876
let	-1877
▁citiz	-1878
▁heart	-1879
▁sleep	-1880
▁taken	-1881
▁village	-1882
▁definitely	-1883
ses	-1884
▁adm	-1885
▁norm	-1886
▁coming	-1887
▁physical	-1888
▁reach	-1889
▁respect	-1890
icient	-1891
▁clear	-1892
▁wants	-1893
▁evening	-1894
▁feeling	-1895
▁perform	-1896
ots	-1897
the	-1898
enty	-1899
ered	-1900
ycle	-1901
▁bed	-1902
▁offer	-1903
▁materi	-1904
▁classes	-1905
▁question	-1906
▁languages	-1907
▁population	-1908
ises	-1909
▁sea	-1910
▁teen	-1911
▁plane	-1912
▁became	-1913
▁whether	-1914
▁available	-1915
▁ap	-1916
▁Not	-1917
▁dam	-1918
▁wear	-1919
▁create	-1920
omp	-1921
▁Mr	-1922
▁From	-1923
▁exce	-1924
▁eyes	-1925
▁side	-1926
▁connect	-1927
oub	-1928
sing	-1929
ules	-1930
▁influ	-1931
▁invol	-1932
▁Europe	-1933
▁manage	-1934
lebr	-1935
▁bir	-1936
▁Cl	-1937
arth	-1938
▁hor	-1939
▁mil	-1940
▁neg	-1941
▁communication	-1942
▁Is	-1943
▁Rus	-1944
▁USA	-1945
▁deg	-1946
▁woman	-1947
▁ra	-1948
▁gar	-1949
▁ball	-1950
▁safe	-1951
▁trad	-1952
▁among	-1953
▁needed	-1954
▁achieve	-1955
▁cheaper	-1956
▁actually	-1957
▁University	-1958
▁professional	-1959
▁el	-1960
rely	-1961
itchen	-1962
▁comes	-1963
▁speaking	-1964
inem	-1965
▁type	-1966
▁celebr	-1967
▁issues	-1968
▁consequ	-1969
▁faithfully	-1970
ros	-1971
▁equ	-1972
▁ill	-1973
eriod	-1974
▁fall	-1975
ycling	-1976
▁invest	-1977
com	-1978
▁occ	-1979
▁solve	-1980
▁encour	-1981
▁period	-1982
▁related	-1983
ym	-1984
▁New	-1985
▁sun	-1986
▁Most	-1987
▁beha	-1988
▁purp	-1989
ashion	-1990
▁famil	-1991
▁disapp	-1992
ological	-1993
▁character	-1994
ger	-1995
▁Ad	-1996
▁Ind	-1997
▁cinem	-1998
▁phone	-1999
▁exciting	-2000
ane	-2001
ped	-2002
▁Of	-2003
▁hab	-2004
▁jam	-2005
iding	-2006
▁pool	-2007
▁Somet	-2008
▁beach	-2009
▁excell	-2010
▁tennis	-2011
▁journey	-2012
▁kitchen	-2013
▁din	-2014
▁lim	-2015
▁net	-2016
▁post	-2017
▁Russi	-2018
▁wrong	-2019
▁destro	-2020
▁Spanish	-2021
ug	-2022
els	-2023
outh	-2024
▁five	-2025
▁Madam	-2026
▁opened	-2027
▁cooking	-2028
▁outside	-2029
▁schools	-2030
▁benefits	-2031
par	-2032
ilar	-2033
▁ter	-2034
▁crow	-2035
▁afford	-2036
▁imagine	-2037
▁environmental	-2038
hor	-2039
▁aim	-2040
▁eating	-2041
ency	-2042
ature	-2043
ondon	-2044
▁London	-2045
▁abroad	-2046
▁accept	-2047
▁inside	-2048
▁developed	-2049
▁importance	-2050
co	-2051
▁pe	-2052
▁rob	-2053
▁vac	-2054
▁hour	-2055
▁sear	-2056
▁Italy	-2057
▁player	-2058
▁teenag	-2059
▁Br	-2060
itten	-2061
▁finish	-2062
▁histor	-2063
▁scient	-2064
▁collect	-2065
ara	-2066
llo	-2067
rast	-2068
▁mach	-2069
▁miss	-2070
▁suff	-2071
▁effort	-2072
▁mobile	-2073
▁office	-2074
▁general	-2075
ps	-2076
ental	-2077
▁term	-2078
▁impact	-2079
▁against	-2080
▁station	-2081
▁excellent	-2082
isf	-2083
▁six	-2084
▁argu	-2085
▁gave	-2086
▁supp	-2087
▁based	-2088
▁rules	-2089
▁anyone	-2090
ables	-2091
▁helped	-2092
▁beginning	-2093
▁statement	-2094
▁phot	-2095
▁lived	-2096
▁party	-2097
▁ability	-2098
▁quickly	-2099
lf	-2100
rop	-2101
▁No	-2102
▁vari	-2103
▁search	-2104
▁located	-2105
ai	-2106
vi	-2107
mosp	-2108
▁center	-2109
▁fashion	-2110
▁players	-2111
▁training	-2112
▁computers	-2113
▁Me	-2114
▁separ	-2115
▁atmosp	-2116
▁houses	-2117
▁simple	-2118
▁vehicles	-2119
ale	-2120
▁opp	-2121
▁rout	-2122
▁belie	-2123
▁works	-2124
▁express	-2125
▁enjoyable	-2126
▁responsible	-2127
gs	-2128
ley	-2129
▁Our	-2130
▁law	-2131
▁Sometimes	-2132
augh	-2133
come	-2134
▁Wor	-2135
▁Braz	-2136
▁goes	-2137
▁tast	-2138
▁While	-2139
▁cinema	-2140
▁continue	-2141
▁advantage	-2142
ush	-2143
▁clim	-2144
▁gain	-2145
▁learned	-2146
▁resources	-2147
▁cold	-2148
▁lose	-2149
friend	-2150
▁artic	-2151
▁worth	-2152
artment	-2153
▁engine	-2154
fortunately	-2155
▁atmosphere	-2156
▁Fr	-2157
▁sn	-2158
ccer	-2159
▁lif	-2160
aught	-2161
▁Maybe	-2162
▁ideas	-2163
▁newsp	-2164
▁Brazil	-2165
acy	-2166
resh	-2167
▁His	-2168
▁ori	-2169
itting	-2170
▁event	-2171
▁decision	-2172
▁disadvantages	-2173
▁tot	-2174
▁wide	-2175
▁along	-2176
▁compan	-2177
▁indust	-2178
▁changing	-2179
▁citizens	-2180
▁including	-2181
▁interview	-2182
▁educational	-2183
▁lost	-2184
▁cheap	-2185
▁media	-2186
▁spent	-2187
▁essential	-2188
ians	-2189
▁sent	-2190
▁above	-2191
▁crowd	-2192
▁decre	-2193
▁grand	-2194
iec	-2195
ands	-2196
oday	-2197
reci	-2198
▁hig	-2199
▁jobs	-2200
▁intro	-2201
▁issue	-2202
▁print	-2203
▁events	-2204
▁finished	-2205
▁practise	-2206
▁competition	-2207
▁restaurants	-2208
--	-2209
mes	-2210
▁12	-2211
ched	-2212
▁bar	-2213
▁Today	-2214
▁films	-2215
▁gradu	-2216
▁access	-2217
▁starting	-2218
▁effective	-2219
▁destination	-2220
▁low	-2221
▁extre	-2222
▁applic	-2223
▁career	-2224
▁descri	-2225
▁police	-2226
▁college	-2227
▁excited	-2228
▁programs	-2229
▁dangerous	-2230
▁questions	-2231
ER	-2232
▁Sw	-2233
apan	-2234
▁hob	-2235
▁hur	-2236
▁pet	-2237
▁exist	-2238
▁polit	-2239
▁satisf	-2240
▁however	-2241
▁aud	-2242
▁lack	-2243
▁webs	-2244
▁early	-2245
▁author	-2246
▁trains	-2247
▁appreci	-2248
▁af	-2249
aving	-2250
▁appro	-2251
▁aspects	-2252
▁century	-2253
▁helping	-2254
▁economic	-2255
▁experiences	-2256
book	-2257
▁harm	-2258
▁mount	-2259
theless	-2260
▁normal	-2261
▁seeing	-2262
▁enjoyed	-2263
▁towards	-2264
▁recently	-2265
har	-2266
ilt	-2267
▁Sh	-2268
ling	-2269
▁dev	-2270
▁sad	-2271
▁disp	-2272
▁taught	-2273
▁negative	-2274
▁tradition	-2275
ches	-2276
▁fant	-2277
▁join	-2278
▁send	-2279
▁song	-2280
idents	-2281
▁Never	-2282
▁older	-2283
▁tired	-2284
▁extreme	-2285
▁further	-2286
▁meeting	-2287
▁customers	-2288
raid	-2289
itary	-2290
▁else	-2291
▁Hello	-2292
▁began	-2293
▁dress	-2294
▁becoming	-2295
▁specific	-2296
▁efficient	-2297
▁gym	-2298
▁goal	-2299
▁fresh	-2300
▁colour	-2301
▁offers	-2302
oss	-2303
ires	-2304
duced	-2305
inary	-2306
obody	-2307
vious	-2308
▁Best	-2309
▁glad	-2310
utions	-2311
▁liked	-2312
▁destroy	-2313
▁science	-2314
▁maintain	-2315
▁community	-2316
▁abs	-2317
lease	-2318
▁test	-2319
▁adult	-2320
▁girls	-2321
▁afraid	-2322
▁season	-2323
▁similar	-2324
▁variety	-2325
▁American	-2326
adem	-2327
urity	-2328
▁soccer	-2329
▁effects	-2330
▁companies	-2331
▁therefore	-2332
raw	-2333
iver	-2334
rate	-2335
▁Mon	-2336
▁ann	-2337
▁tax	-2338
ograp	-2339
▁funny	-2340
▁impos	-2341
▁degree	-2342
▁account	-2343
cap	-2344
▁Pl	-2345
ross	-2346
▁pub	-2347
▁oper	-2348
▁Japan	-2349
▁loved	-2350
▁giving	-2351
▁purpose	-2352
▁teenagers	-2353
lex	-2354
ctor	-2355
rect	-2356
ached	-2357
istic	-2358
▁qual	-2359
▁camps	-2360
▁sense	-2361
▁planet	-2362
▁return	-2363
▁holiday	-2364
▁results	-2365
▁various	-2366
▁Everyone	-2367
▁realized	-2368
ogn	-2369
▁tou	-2370
▁pret	-2371
▁Trave	-2372
▁extra	-2373
▁hands	-2374
▁motiv	-2375
▁paper	-2376
▁behavi	-2377
▁visiting	-2378
ken	-2379
unch	-2380
epend	-2381
▁dram	-2382
▁star	-2383
▁warm	-2384
▁fight	-2385
▁press	-2386
▁volun	-2387
▁caused	-2388
▁communicate	-2389
ager	-2390
▁ord	-2391
▁comb	-2392
action	-2393
▁written	-2394
▁younger	-2395
▁holidays	-2396
ne	-2397
▁9	-2398
ighb	-2399
▁Any	-2400
▁Col	-2401
▁mid	-2402
▁ran	-2403
▁sud	-2404
▁swe	-2405
▁ten	-2406
▁fair	-2407
▁tend	-2408
▁attit	-2409
▁parts	-2410
▁action	-2411
▁turned	-2412
▁biggest	-2413
▁parking	-2414
▁surprise	-2415
▁tourists	-2416
za	-2417
acks	-2418
ived	-2419
illed	-2420
▁appear	-2421
cha	-2422
ique	-2423
▁ele	-2424
rench	-2425
▁John	-2426
▁Well	-2427
▁dark	-2428
▁trees	-2429
▁neighb	-2430
▁contrib	-2431
▁require	-2432
▁improved	-2433
▁military	-2434
▁practice	-2435
▁listening	-2436
▁characters	-2437
ph	-2438
oint	-2439
▁rain	-2440
▁wife	-2441
▁wish	-2442
▁glass	-2443
duction	-2444
▁During	-2445
▁points	-2446
▁Italian	-2447
▁courses	-2448
▁services	-2449
▁buildings	-2450
ese	-2451
▁Ne	-2452
ored	-2453
ented	-2454
▁born	-2455
▁birth	-2456
▁carry	-2457
▁sight	-2458
▁table	-2459
▁treat	-2460
▁French	-2461
▁prepar	-2462
▁cultural	-2463
▁programme	-2464
▁historical	-2465
▁entertainment	-2466
ats	-2467
hood	-2468
▁Let	-2469
▁emot	-2470
▁luck	-2471
▁mess	-2472
▁poor	-2473
▁task	-2474
icious	-2475
▁built	-2476
▁cases	-2477
▁roads	-2478
▁women	-2479
▁saying	-2480
▁signific	-2481
▁fantastic	-2482
ply	-2483
urb	-2484
▁fu	-2485
▁pict	-2486
ervous	-2487
▁ready	-2488
▁couple	-2489
▁decide	-2490
▁recent	-2491
▁plastic	-2492
▁individual	-2493
man	-2494
ork	-2495
▁Pa	-2496
▁Rec	-2497
▁earn	-2498
▁plays	-2499
▁dinner	-2500
▁journal	-2501
▁solution	-2502
▁background	-2503
▁Nevertheless	-2504
bo	-2505
▁z	-2506
tem	-2507
▁15	-2508
▁Why	-2509
▁bab	-2510
▁cut	-2511
enced	-2512
ption	-2513
▁line	-2514
▁origin	-2515
▁nervous	-2516
▁describe	-2517
▁discover	-2518
aim	-2519
ona	-2520
▁Ab	-2521
▁bi	-2522
▁lat	-2523
▁Once	-2524
▁dise	-2525
▁doub	-2526
▁forg	-2527
▁half	-2528
▁style	-2529
▁prepare	-2530
▁strongly	-2531
▁materials	-2532
▁Travelling	-2533
▁impossible	-2534
▁possibility	-2535
ails	-2536
ards	-2537
▁Act	-2538
▁gas	-2539
▁sho	-2540
cient	-2541
▁mall	-2542
▁article	-2543
▁helpful	-2544
dle	-2545
▁Le	-2546
hind	-2547
nces	-2548
ishes	-2549
▁range	-2550
▁window	-2551
▁challeng	-2552
▁independ	-2553
▁condition	-2554
ott	-2555
▁Am	-2556
iced	-2557
▁red	-2558
antly	-2559
▁draw	-2560
▁pack	-2561
▁earth	-2562
olution	-2563
▁forest	-2564
▁online	-2565
▁series	-2566
▁winter	-2567
▁spending	-2568
▁everywhere	-2569
▁friendship	-2570
▁situations	-2571
▁Se	-2572
ging	-2573
uted	-2574
iring	-2575
▁Germ	-2576
▁kill	-2577
▁third	-2578
▁worry	-2579
▁recogn	-2580
▁surround	-2581
cel	-2582
cip	-2583
row	-2584
▁Acc	-2585
▁sou	-2586
▁deep	-2587
▁pick	-2588
▁magaz	-2589
▁causes	-2590
▁please	-2591
▁single	-2592
▁himself	-2593
▁vehicle	-2594
▁visited	-2595
▁volunte	-2596
▁programmes	-2597
▁traditional	-2598
gry	-2599
▁bal	-2600
ization	-2601
▁active	-2602
▁behind	-2603
▁dishes	-2604
▁humans	-2605
▁longer	-2606
▁pretty	-2607
▁correct	-2608
▁lessons	-2609
▁feelings	-2610
▁concerned	-2611
ago	-2612
▁est	-2613
aches	-2614
▁Anna	-2615
▁busy	-2616
▁hold	-2617
▁match	-2618
▁weeks	-2619
▁assist	-2620
▁pleasure	-2621
▁provides	-2622
▁developing	-2623
cu	-2624
ffe	-2625
ils	-2626
bage	-2627
roud	-2628
▁bro	-2629
▁jum	-2630
ource	-2631
rible	-2632
▁cast	-2633
▁rich	-2634
idence	-2635
rought	-2636
▁Please	-2637
▁lifest	-2638
▁simply	-2639
▁passion	-2640
▁strange	-2641
▁tickets	-2642
▁families	-2643
▁application	-2644
orry	-2645
▁piec	-2646
▁magic	-2647
▁sales	-2648
▁impress	-2649
▁security	-2650
▁attractive	-2651
▁Paul	-2652
▁bike	-2653
▁fish	-2654
▁China	-2655
▁boring	-2656
▁contrast	-2657
▁previous	-2658
▁influence	-2659
rad	-2660
omes	-2661
▁pot	-2662
aging	-2663
▁Aust	-2664
▁mass	-2665
▁catch	-2666
▁claim	-2667
▁haven	-2668
▁speed	-2669
ability	-2670
▁regular	-2671
▁suddenly	-2672
hol	-2673
▁Pol	-2674
▁bag	-2675
▁rev	-2676
ither	-2677
▁Thus	-2678
▁anal	-2679
▁temp	-2680
▁basic	-2681
▁liter	-2682
▁smile	-2683
▁notice	-2684
▁repres	-2685
▁garbage	-2686
▁obvious	-2687
▁stopped	-2688
▁warming	-2689
▁everyday	-2690
▁subjects	-2691
▁opportunities	-2692
hy	-2693
pe	-2694
▁30	-2695
iest	-2696
ites	-2697
▁Hong	-2698
▁hosp	-2699
▁jams	-2700
▁word	-2701
▁floor	-2702
▁buying	-2703
▁groups	-2704
▁afterno	-2705
▁happens	-2706
▁totally	-2707
▁whatever	-2708
eal	-2709
ged	-2710
irt	-2711
ffee	-2712
▁Pro	-2713
▁ages	-2714
▁vide	-2715
▁knows	-2716
▁proud	-2717
▁Alison	-2718
▁except	-2719
▁created	-2720
▁prevent	-2721
▁regards	-2722
▁Unfortunately	-2723
key	-2724
▁fr	-2725
airs	-2726
erve	-2727
▁cru	-2728
▁spo	-2729
▁repl	-2730
▁surv	-2731
▁World	-2732
▁topic	-2733
▁voice	-2734
▁academ	-2735
▁networ	-2736
▁prices	-2737
▁depends	-2738
▁appreciate	-2739
ium	-2740
▁ru	-2741
iled	-2742
▁dad	-2743
▁ris	-2744
right	-2745
▁gets	-2746
▁scen	-2747
▁throw	-2748
▁coffee	-2749
▁refere	-2750
▁crowded	-2751
▁workers	-2752
▁compared	-2753
▁national	-2754
▁prepared	-2755
▁lifestyle	-2756
edd	-2757
ateg	-2758
▁Bar	-2759
▁Yes	-2760
▁gre	-2761
▁sex	-2762
apers	-2763
olute	-2764
▁cafe	-2765
▁calm	-2766
▁dead	-2767
▁wall	-2768
▁chann	-2769
▁thanks	-2770
▁thrill	-2771
▁typical	-2772
▁absolute	-2773
▁thoughts	-2774
▁extremely	-2775
▁conditions	-2776
aid	-2777
hel	-2778
atic	-2779
rist	-2780
▁cir	-2781
▁hon	-2782
ified	-2783
▁Stud	-2784
▁slow	-2785
▁likes	-2786
▁adults	-2787
▁streng	-2788
▁studied	-2789
▁electric	-2790
ON	-2791
apt	-2792
ips	-2793
▁guy	-2794
▁saf	-2795
ients	-2796
▁Desp	-2797
▁York	-2798
▁gard	-2799
▁sect	-2800
ducing	-2801
▁black	-2802
▁passed	-2803
▁benefit	-2804
▁construct	-2805
▁recycling	-2806
▁sincerely	-2807
sy	-2808
xic	-2809
▁TH	-2810
▁Can	-2811
▁Her	-2812
▁Sud	-2813
uable	-2814
▁Have	-2815
▁Just	-2816
▁band	-2817
▁kept	-2818
▁touch	-2819
▁bought	-2820
▁knowing	-2821
▁realize	-2822
▁attitude	-2823
▁convenience	-2824
ell	-2825
ned	-2826
ror	-2827
aced	-2828
ured	-2829
used	-2830
▁Kong	-2831
▁heav	-2832
▁ident	-2833
▁lunch	-2834
▁worse	-2835
▁higher	-2836
▁Despite	-2837
▁anymore	-2838
▁reality	-2839
▁sitting	-2840
▁progress	-2841
▁vacation	-2842
ov	-2843
▁Ap	-2844
▁Reg	-2845
▁See	-2846
▁Sum	-2847
▁yet	-2848
icket	-2849
ouble	-2850
▁Cent	-2851
▁crit	-2852
▁freed	-2853
▁laugh	-2854
▁stage	-2855
▁Thanks	-2856
▁highly	-2857
▁stories	-2858
▁birthday	-2859
▁scientific	-2860
▁consequences	-2861
▁responsibility	-2862
ees	-2863
erly	-2864
▁hun	-2865
▁smo	-2866
▁tal	-2867
▁fell	-2868
▁says	-2869
▁blood	-2870
▁moving	-2871
▁cultures	-2872
▁majority	-2873
▁according	-2874
▁delicious	-2875
▁destroyed	-2876
ma	-2877
gle	-2878
oud	-2879
ners	-2880
ropri	-2881
▁note	-2882
▁broad	-2883
▁staff	-2884
itation	-2885
ologies	-2886
▁actors	-2887
▁arrive	-2888
▁ground	-2889
▁mental	-2890
▁values	-2891
▁wishes	-2892
▁factors	-2893
▁freedom	-2894
▁inspect	-2895
▁management	-2896
▁successful	-2897
uff	-2898
atur	-2899
irty	-2900
▁box	-2901
▁bur	-2902
▁won	-2903
▁yes	-2904
▁brain	-2905
▁smart	-2906
▁Anyway	-2907
▁allows	-2908
▁demand	-2909
▁incred	-2910
▁nobody	-2911
▁object	-2912
▁contain	-2913
▁website	-2914
▁Suddenly	-2915
▁conclude	-2916
▁hospital	-2917
▁pleasant	-2918
▁whenever	-2919
▁afternoon	-2920
▁improving	-2921
eed	-2922
uth	-2923
▁pri	-2924
▁Sara	-2925
▁boat	-2926
▁cand	-2927
▁fuel	-2928
▁wedd	-2929
▁Sport	-2930
▁doubt	-2931
▁exact	-2932
▁terms	-2933
▁likely	-2934
▁Austral	-2935
▁Actually	-2936
▁According	-2937
▁absolutely	-2938
ges	-2939
iar	-2940
▁Fo	-2941
▁Pr	-2942
▁Tw	-2943
cious	-2944
▁Face	-2945
▁Sund	-2946
▁mult	-2947
▁prin	-2948
▁uses	-2949
▁costs	-2950
▁dance	-2951
▁stars	-2952
▁wrote	-2953
▁Russia	-2954
▁transl	-2955
▁confident	-2956
▁increased	-2957
▁advertising	-2958
mar	-2959
nov	-2960
uly	-2961
haps	-2962
▁Int	-2963
▁ens	-2964
iling	-2965
▁Comp	-2966
▁Good	-2967
▁conv	-2968
▁cous	-2969
ration	-2970
▁breat	-2971
▁moved	-2972
▁reply	-2973
▁truth	-2974
▁Madrid	-2975
▁School	-2976
▁entire	-2977
▁forgot	-2978
▁habits	-2979
▁master	-2980
▁within	-2981
▁keeping	-2982
▁appropri	-2983
▁provided	-2984
▁encourage	-2985
▁exercises	-2986
▁mentioned	-2987
▁significant	-2988
aiw	-2989
▁vi	-2990
▁flu	-2991
fered	-2992
itted	-2993
▁Brit	-2994
▁desp	-2995
▁Other	-2996
▁color	-2997
▁homes	-2998
▁shape	-2999
▁advent	-3000
▁damage	-3001
▁middle	-3002
▁concept	-3003
▁produce	-3004
▁willing	-3005
▁required	-3006
▁accidents	-3007
▁Sc	-3008
cape	-3009
▁feed	-3010
▁soft	-3011
ancing	-3012
▁thous	-3013
▁plenty	-3014
▁growing	-3015
▁tourist	-3016
▁weekends	-3017
▁happening	-3018
▁difference	-3019
ES	-3020
uan	-3021
urs	-3022
▁..	-3023
ator	-3024
▁100	-3025
▁arm	-3026
▁civ	-3027
▁unf	-3028
aiwan	-3029
erson	-3030
▁cool	-3031
▁coun	-3032
▁hurt	-3033
▁mill	-3034
lement	-3035
▁enter	-3036
▁Taiwan	-3037
▁native	-3038
▁continu	-3039
▁receive	-3040
▁Facebook	-3041
▁audience	-3042
▁underground	-3043
ior	-3044
▁En	-3045
hedu	-3046
ster	-3047
▁ice	-3048
▁wel	-3049
▁exha	-3050
▁Satur	-3051
▁goods	-3052
▁motor	-3053
▁peace	-3054
▁quiet	-3055
▁island	-3056
▁possib	-3057
▁schedu	-3058
▁airport	-3059
▁academic	-3060
▁industry	-3061
▁awareness	-3062
▁newspaper	-3063
mb	-3064
asc	-3065
band	-3066
▁key	-3067
▁text	-3068
▁angry	-3069
▁climb	-3070
▁lower	-3071
▁parks	-3072
▁taste	-3073
▁value	-3074
▁video	-3075
▁altern	-3076
▁brings	-3077
▁saving	-3078
▁talked	-3079
▁capital	-3080
▁decrease	-3081
▁separate	-3082
▁valuable	-3083
▁discussion	-3084
OU	-3085
ada	-3086
▁25	-3087
mint	-3088
▁Man	-3089
▁eye	-3090
▁fly	-3091
▁mis	-3092
anced	-3093
rated	-3094
▁2014	-3095
▁Mond	-3096
▁tool	-3097
▁sorry	-3098
▁trust	-3099
▁becomes	-3100
▁interact	-3101
▁involved	-3102
▁boyfriend	-3103
▁currently	-3104
▁surprised	-3105
▁organization	-3106
▁understanding	-3107
IN	-3108
▁Or	-3109
▁ir	-3110
▁Tur	-3111
▁arr	-3112
▁bic	-3113
▁inj	-3114
▁pup	-3115
▁Your	-3116
▁chur	-3117
▁fear	-3118
▁fine	-3119
▁port	-3120
atives	-3121
atures	-3122
ermark	-3123
minton	-3124
▁cheer	-3125
▁heavy	-3126
▁leads	-3127
▁plant	-3128
▁tasks	-3129
leyball	-3130
▁drinks	-3131
▁ticket	-3132
▁worried	-3133
▁European	-3134
▁distance	-3135
▁response	-3136
▁visitors	-3137
ops	-3138
▁Ph	-3139
abor	-3140
osal	-3141
▁bat	-3142
▁piz	-3143
▁Here	-3144
▁boys	-3145
▁woke	-3146
celona	-3147
▁essay	-3148
▁guide	-3149
▁white	-3150
▁instit	-3151
▁invent	-3152
▁spread	-3153
▁weight	-3154
▁advance	-3155
▁passeng	-3156
▁recycle	-3157
▁accident	-3158
▁received	-3159
▁governments	-3160
▁independent	-3161
▁participate	-3162
▁di	-3163
▁Car	-3164
▁pun	-3165
quare	-3166
▁Next	-3167
▁gone	-3168
▁ride	-3169
▁achie	-3170
▁disag	-3171
▁final	-3172
▁sides	-3173
▁songs	-3174
▁twice	-3175
ructure	-3176
▁Summer	-3177
▁United	-3178
▁stores	-3179
▁colleag	-3180
▁leaving	-3181
▁sharing	-3182
▁followed	-3183
▁mistakes	-3184
▁countryside	-3185
▁journalists	-3186
▁performance	-3187
▁Gr	-3188
▁cup	-3189
▁farm	-3190
▁sort	-3191
▁wake	-3192
ancial	-3193
▁eight	-3194
▁equip	-3195
▁habit	-3196
▁robot	-3197
▁States	-3198
▁lesson	-3199
▁member	-3200
▁safety	-3201
▁Russian	-3202
▁exhaust	-3203
▁options	-3204
▁request	-3205
▁ourselves	-3206
▁generation	-3207
▁appropriate	-3208
AN	-3209
cent	-3210
edic	-3211
fast	-3212
onst	-3213
ship	-3214
▁Egy	-3215
▁amb	-3216
itate	-3217
▁Club	-3218
▁Hope	-3219
▁Park	-3220
▁Those	-3221
▁novel	-3222
▁trend	-3223
▁France	-3224
▁Sunday	-3225
▁bigger	-3226
▁latest	-3227
▁twenty	-3228
▁educate	-3229
▁consideration	-3230
EN	-3231
ux	-3232
era	-3233
▁pm	-3234
▁Cha	-3235
▁leg	-3236
uting	-3237
▁Frid	-3238
▁acqu	-3239
▁blue	-3240
▁item	-3241
▁check	-3242
▁hobby	-3243
▁loves	-3244
▁river	-3245
▁usual	-3246
▁Monday	-3247
▁mainly	-3248
▁walked	-3249
▁methods	-3250
▁patient	-3251
sequently	-3252
▁homework	-3253
▁painting	-3254
▁Barcelona	-3255
▁relationships	-3256
MM	-3257
ze	-3258
ank	-3259
ify	-3260
osen	-3261
urer	-3262
▁Mos	-3263
▁ren	-3264
▁earl	-3265
▁gram	-3266
▁mood	-3267
▁Egypt	-3268
▁compl	-3269
▁seven	-3270
▁teams	-3271
▁promot	-3272
▁unique	-3273
▁ancient	-3274
▁bedroom	-3275
▁leaders	-3276
▁wedding	-3277
▁anywhere	-3278
▁planning	-3279
▁strength	-3280
▁behaviour	-3281
▁breakfast	-3282
▁certainly	-3283
▁incredible	-3284
erg	-3285
irm	-3286
enge	-3287
rain	-3288
wise	-3289
▁cry	-3290
▁dog	-3291
eared	-3292
getic	-3293
▁civil	-3294
▁lands	-3295
▁meals	-3296
▁model	-3297
▁thank	-3298
▁candid	-3299
▁details	-3300
▁mountain	-3301
▁disappear	-3302
▁energetic	-3303
▁happiness	-3304
▁technologies	-3305
ls	-3306
edy	-3307
iqu	-3308
amed	-3309
ased	-3310
hers	-3311
sych	-3312
▁199	-3313
▁Par	-3314
▁Ste	-3315
▁fru	-3316
board	-3317
▁fing	-3318
▁rush	-3319
▁surf	-3320
▁Third	-3321
▁argue	-3322
▁autom	-3323
▁death	-3324
▁frequ	-3325
isation	-3326
▁castle	-3327
▁source	-3328
▁brought	-3329
▁meaning	-3330
▁noticed	-3331
▁routine	-3332
▁argument	-3333
▁diseases	-3334
▁relaxing	-3335
▁situated	-3336
▁challenge	-3337
▁employees	-3338
▁equipment	-3339
kn	-3340
oun	-3341
rug	-3342
une	-3343
▁es	-3344
soci	-3345
▁Sep	-3346
▁THE	-3347
▁div	-3348
isure	-3349
▁Will	-3350
overed	-3351
usband	-3352
▁looks	-3353
▁metal	-3354
▁oppos	-3355
▁Christ	-3356
▁purcha	-3357
▁starts	-3358
▁married	-3359
▁watched	-3360
▁cheerful	-3361
▁disagree	-3362
▁enjoying	-3363
▁projects	-3364
▁financial	-3365
▁regarding	-3366
▁Everything	-3367
▁volleyball	-3368
ik	-3369
icy	-3370
▁13	-3371
▁UK	-3372
▁Triv	-3373
▁kiss	-3374
▁meal	-3375
▁path	-3376
▁sold	-3377
essert	-3378
▁chair	-3379
▁court	-3380
▁score	-3381
▁veget	-3382
▁chosen	-3383
▁driver	-3384
▁itself	-3385
▁actions	-3386
▁careful	-3387
▁cricket	-3388
▁limited	-3389
▁networks	-3390
▁pressure	-3391
▁terrible	-3392
▁considering	-3393
fs	-3394
bon	-3395
een	-3396
▁CV	-3397
▁Co	-3398
ceed	-3399
▁Sha	-3400
▁Who	-3401
▁fan	-3402
▁lux	-3403
atory	-3404
▁arch	-3405
▁libr	-3406
▁meas	-3407
▁sick	-3408
▁size	-3409
▁stat	-3410
▁weak	-3411
▁Their	-3412
▁psych	-3413
▁regret	-3414
▁scared	-3415
▁select	-3416
▁threat	-3417
▁concent	-3418
▁husband	-3419
▁requires	-3420
000	-3421
rem	-3422
▁fix	-3423
▁obs	-3424
▁rad	-3425
▁ste	-3426
ction	-3427
▁Swed	-3428
▁doll	-3429
▁hang	-3430
▁lect	-3431
▁paid	-3432
▁prim	-3433
▁tall	-3434
▁Mexic	-3435
▁adapt	-3436
inating	-3437
▁either	-3438
▁subway	-3439
▁Trivago	-3440
▁dessert	-3441
▁distrib	-3442
▁trouble	-3443
▁whereas	-3444
roduction	-3445
▁emotions	-3446
▁schedule	-3447
▁carefully	-3448
▁passengers	-3449
▁Consequently	-3450
unk	-3451
▁Mrs	-3452
▁hes	-3453
itect	-3454
mates	-3455
ommod	-3456
ously	-3457
▁circ	-3458
▁clos	-3459
▁sens	-3460
iction	-3461
ission	-3462
▁shoes	-3463
▁towns	-3464
▁users	-3465
▁Friday	-3466
▁assess	-3467
▁commer	-3468
▁garden	-3469
▁honest	-3470
▁secret	-3471
▁temper	-3472
▁politic	-3473
▁accommod	-3474
▁creative	-3475
▁features	-3476
▁advertised	-3477
▁personality	-3478
OR	-3479
▁14	-3480
▁De	-3481
----	-3482
teen	-3483
▁jog	-3484
aries	-3485
▁2012	-3486
▁Only	-3487
▁fail	-3488
▁fasc	-3489
▁email	-3490
▁worst	-3491
ertific	-3492
▁German	-3493
▁carbon	-3494
▁doctor	-3495
▁illust	-3496
▁photos	-3497
▁allowed	-3498
▁moments	-3499
▁skating	-3500
▁Saturday	-3501
▁material	-3502
▁connected	-3503
▁solutions	-3504
▁disappoint	-3505
▁engineering	-3506
hem	-3507
omb	-3508
▁Af	-3509
▁Bl	-3510
▁Em	-3511
▁ut	-3512
iant	-3513
▁imm	-3514
cohol	-3515
echan	-3516
itter	-3517
▁date	-3518
▁flow	-3519
▁plot	-3520
▁shad	-3521
tember	-3522
▁America	-3523
▁England	-3524
▁reached	-3525
▁survive	-3526
▁disaster	-3527
▁instruct	-3528
▁apartment	-3529
▁Television	-3530
▁colleagues	-3531
▁consumption	-3532
▁experienced	-3533
tle	-3534
usi	-3535
▁16	-3536
▁El	-3537
ival	-3538
▁Dan	-3539
▁City	-3540
▁keen	-3541
▁loud	-3542
▁menu	-3543
lished	-3544
▁Being	-3545
▁estab	-3546
▁timet	-3547
▁levels	-3548
▁raised	-3549
atically	-3550
▁complex	-3551
▁demonst	-3552
▁privacy	-3553
▁relaxed	-3554
▁director	-3555
▁expected	-3556
▁investig	-3557
▁organise	-3558
▁September	-3559
▁interests	-3560
▁introduce	-3561
▁discovered	-3562
▁generations	-3563
:00	-3564
▁11	-3565
▁Ex	-3566
▁Fl	-3567
bies	-3568
husi	-3569
imin	-3570
oper	-3571
▁Dis	-3572
▁die	-3573
▁oil	-3574
▁ski	-3575
▁chem	-3576
isions	-3577
▁cover	-3578
▁enhan	-3579
▁offic	-3580
▁asking	-3581
▁charge	-3582
▁lovely	-3583
▁alcohol	-3584
▁despite	-3585
▁finding	-3586
▁percent	-3587
▁electron	-3588
▁magazine	-3589
▁ordinary	-3590
▁preparing	-3591
▁providing	-3592
▁supermark	-3593
AT	-3594
alu	-3595
lly	-3596
▁Cr	-3597
▁Us	-3598
hest	-3599
hile	-3600
ught	-3601
▁Per	-3602
▁emp	-3603
▁hop	-3604
▁sus	-3605
▁2010	-3606
▁Like	-3607
▁aged	-3608
▁bott	-3609
▁cell	-3610
▁outd	-3611
▁sell	-3612
▁soap	-3613
▁whom	-3614
opping	-3615
▁About	-3616
▁bored	-3617
▁drawb	-3618
▁enorm	-3619
▁exams	-3620
▁medic	-3621
▁relig	-3622
▁renew	-3623
▁youth	-3624
▁acting	-3625
▁instru	-3626
▁petrol	-3627
▁pupils	-3628
▁British	-3629
▁dancing	-3630
▁invited	-3631
▁sources	-3632
▁univers	-3633
▁brothers	-3634
▁badminton	-3635
▁practical	-3636
▁improvement	-3637
▁Introduction	-3638
af	-3639
ex	-3640
ech	-3641
ids	-3642
ler	-3643
rif	-3644
aign	-3645
ancy	-3646
cean	-3647
erim	-3648
ille	-3649
razy	-3650
uals	-3651
▁Cur	-3652
▁fif	-3653
▁non	-3654
ching	-3655
▁Love	-3656
▁fund	-3657
▁rent	-3658
▁rock	-3659
▁till	-3660
▁unkn	-3661
▁Earth	-3662
▁items	-3663
▁sheet	-3664
▁shout	-3665
▁accomp	-3666
▁expert	-3667
▁mechan	-3668
▁Without	-3669
▁complic	-3670
▁convers	-3671
▁damaged	-3672
▁enthusi	-3673
▁hobbies	-3674
▁museums	-3675
▁picture	-3676
▁planned	-3677
▁reflect	-3678
▁campaign	-3679
▁newspapers	-3680
▁alternative	-3681
▁competitions	-3682
go	-3683
yd	-3684
gen	-3685
ipp	-3686
ula	-3687
ulf	-3688
▁Wr	-3689
▁Luc	-3690
▁cam	-3691
▁cho	-3692
▁fem	-3693
antic	-3694
ators	-3695
iable	-3696
while	-3697
▁baby	-3698
▁chat	-3699
▁diss	-3700
▁mine	-3701
▁monu	-3702
aining	-3703
▁Trans	-3704
▁alive	-3705
▁analy	-3706
▁cream	-3707
▁piece	-3708
▁pizza	-3709
working	-3710
▁determ	-3711
fortable	-3712
▁delight	-3713
▁manager	-3714
▁singing	-3715
▁sisters	-3716
▁choosing	-3717
▁memories	-3718
▁abilities	-3719
▁architect	-3720
▁distances	-3721
▁marketing	-3722
PS	-3723
ica	-3724
oph	-3725
▁Ho	-3726
▁IN	-3727
iles	-3728
omen	-3729
▁Fam	-3730
▁hit	-3731
▁rom	-3732
ellow	-3733
idden	-3734
iture	-3735
phone	-3736
▁Camp	-3737
▁Jack	-3738
▁docu	-3739
▁fame	-3740
▁wild	-3741
▁metro	-3742
▁steps	-3743
▁Sweden	-3744
▁dreams	-3745
▁exchan	-3746
▁learnt	-3747
▁review	-3748
▁slight	-3749
▁spring	-3750
▁exactly	-3751
▁experim	-3752
▁managed	-3753
▁familiar	-3754
▁overcome	-3755
▁standing	-3756
▁somewhere	-3757
▁confidence	-3758
▁hardworking	-3759
sp	-3760
cow	-3761
aves	-3762
▁Gen	-3763
▁bud	-3764
▁eld	-3765
▁unc	-3766
iques	-3767
oring	-3768
urban	-3769
▁bins	-3770
▁fire	-3771
▁flex	-3772
▁pair	-3773
▁risk	-3774
terday	-3775
▁annoy	-3776
▁dedic	-3777
▁goals	-3778
▁stuff	-3779
ception	-3780
▁Moscow	-3781
▁across	-3782
▁ensure	-3783
▁mostly	-3784
▁riding	-3785
▁drivers	-3786
▁offered	-3787
▁princip	-3788
▁believed	-3789
▁movement	-3790
▁represent	-3791
▁International	-3792
ah	-3793
ube	-3794
cipl	-3795
kesp	-3796
▁Asi	-3797
▁ign	-3798
▁rap	-3799
▁appl	-3800
▁card	-3801
▁hund	-3802
▁viol	-3803
▁named	-3804
▁paint	-3805
▁shown	-3806
▁theat	-3807
▁phones	-3808
▁seemed	-3809
▁suffer	-3810
▁climate	-3811
▁pleased	-3812
▁telling	-3813
▁accepted	-3814
▁cleaning	-3815
▁creating	-3816
▁original	-3817
▁somebody	-3818
▁thriller	-3819
▁mountains	-3820
▁organised	-3821
▁organized	-3822
▁constantly	-3823
▁revolution	-3824
abb	-3825
ume	-3826
▁Mo	-3827
ocol	-3828
rict	-3829
▁Met	-3830
▁Pat	-3831
▁Inst	-3832
▁Take	-3833
▁Apart	-3834
▁India	-3835
▁guess	-3836
▁lucky	-3837
▁broken	-3838
▁nearly	-3839
▁plants	-3840
▁plates	-3841
▁robots	-3842
▁beaches	-3843
▁hundred	-3844
▁respond	-3845
▁unknown	-3846
▁directly	-3847
▁enormous	-3848
▁includes	-3849
▁Sincerely	-3850
▁explained	-3851
▁implement	-3852
▁differences	-3853
▁improvements	-3854
▁technological	-3855
urg	-3856
▁hi	-3857
▁ok	-3858
▁Are	-3859
▁Sci	-3860
▁deb	-3861
▁sil	-3862
▁zoo	-3863
▁Arab	-3864
▁Educ	-3865
▁cris	-3866
▁race	-3867
▁tree	-3868
▁upon	-3869
▁wood	-3870
▁South	-3871
▁Techn	-3872
▁birds	-3873
▁decor	-3874
▁facts	-3875
▁innov	-3876
▁minds	-3877
▁whose	-3878
▁Before	-3879
▁Mexico	-3880
▁Poland	-3881
▁compar	-3882
▁forced	-3883
▁growth	-3884
▁hardly	-3885
▁images	-3886
▁obtain	-3887
▁cycling	-3888
▁earlier	-3889
▁grammar	-3890
▁leisure	-3891
▁library	-3892
▁Students	-3893
▁Australia	-3894
▁factories	-3895
▁neighbour	-3896
▁political	-3897
▁potential	-3898
▁suffering	-3899
▁department	-3900
▁motivation	-3901
:1	-3902
AM	-3903
EC	-3904
▁Ag	-3905
ades	-3906
oman	-3907
▁sty	-3908
icing	-3909
light	-3910
▁Viet	-3911
▁chec	-3912
▁coll	-3913
▁emer	-3914
▁furn	-3915
▁hair	-3916
▁hall	-3917
▁snow	-3918
otball	-3919
▁brand	-3920
▁champ	-3921
▁cross	-3922
▁raise	-3923
stances	-3924
▁beauty	-3925
▁breath	-3926
▁church	-3927
▁rights	-3928
▁showed	-3929
▁smiled	-3930
▁tiring	-3931
ulations	-3932
▁clearly	-3933
▁explore	-3934
▁harmful	-3935
▁include	-3936
▁printed	-3937
▁wearing	-3938
▁homeless	-3939
▁standard	-3940
▁wherever	-3941
▁vegetables	-3942
▁particularly	-3943
ana	-3944
arr	-3945
ton	-3946
orge	-3947
vent	-3948
▁dom	-3949
▁led	-3950
▁son	-3951
▁suc	-3952
▁wet	-3953
ended	-3954
inese	-3955
▁Hist	-3956
▁insp	-3957
▁jump	-3958
▁rule	-3959
▁chose	-3960
▁crazy	-3961
▁tells	-3962
▁Doctor	-3963
▁budget	-3964
▁crisis	-3965
▁machin	-3966
▁surely	-3967
▁economy	-3968
▁message	-3969
▁skilled	-3970
▁Japanese	-3971
▁affected	-3972
▁channels	-3973
▁hesitate	-3974
▁powerful	-3975
▁properly	-3976
▁invention	-3977
▁professor	-3978
▁regularly	-3979
▁searching	-3980
▁protection	-3981
▁scientists	-3982
▁difficulties	-3983
lin	-3984
osy	-3985
uct	-3986
uis	-3987
ung	-3988
▁Gu	-3989
cles	-3990
oses	-3991
unic	-3992
▁fig	-3993
▁jud	-3994
▁sky	-3995
▁tur	-3996
ively	-3997
▁bath	-3998
▁drop	-3999
▁fulf	-4000
▁hate	-4001
▁taxi	-4002
ension	-4003
urance	-4004
▁Later	-4005
▁board	-4006
▁evalu	-4007
▁horse	-4008
▁north	-4009
▁occup	-4010
▁plans	-4011
▁skate	-4012
▁south	-4013
▁sweet	-4014
▁urban	-4015
▁Friend	-4016
▁Person	-4017
▁commit	-4018
▁desire	-4019
▁flight	-4020
▁creates	-4021
▁entered	-4022
▁parties	-4023
▁smaller	-4024
▁speaker	-4025
▁Shopping	-4026
▁perspect	-4027
▁qualific	-4028
▁adventure	-4029
▁arguments	-4030
▁classroom	-4031
▁depending	-4032
▁volunteer	-4033
▁production	-4034
▁celebrities	-4035
AR	-4036
IS	-4037
hab	-4038
iev	-4039
▁Sm	-4040
eare	-4041
ests	-4042
▁Add	-4043
alace	-4044
erves	-4045
istry	-4046
▁Alex	-4047
▁boss	-4048
▁stra	-4049
ession	-4050
istics	-4051
mother	-4052
▁Using	-4053
▁capac	-4054
▁daugh	-4055
▁dirty	-4056
▁foods	-4057
▁prove	-4058
▁turns	-4059
▁advise	-4060
▁scream	-4061
▁screen	-4062
▁bicycle	-4063
▁decades	-4064
▁describ	-4065
▁forever	-4066
▁numbers	-4067
▁staying	-4068
▁strateg	-4069
▁Football	-4070
▁National	-4071
▁applying	-4072
▁included	-4073
▁machines	-4074
▁pictures	-4075
▁technical	-4076
▁connection	-4077
▁individuals	-4078
ift	-4079
ont	-4080
idge	-4081
itch	-4082
▁Mil	-4083
▁ast	-4084
▁kil	-4085
erous	-4086
▁Cars	-4087
▁Comm	-4088
▁Jane	-4089
▁Kore	-4090
▁flat	-4091
▁mode	-4092
▁myst	-4093
▁pets	-4094
▁rang	-4095
▁rely	-4096
▁sand	-4097
▁actor	-4098
▁occas	-4099
▁radio	-4100
▁uncom	-4101
▁belong	-4102
▁factor	-4103
▁salary	-4104
▁sexual	-4105
kespeare	-4106
▁address	-4107
▁choices	-4108
▁dealing	-4109
▁illness	-4110
▁machine	-4111
▁medical	-4112
▁million	-4113
▁primary	-4114
▁reduced	-4115
▁Recently	-4116
▁achieved	-4117
▁examples	-4118
▁location	-4119
▁opposite	-4120
ertificate	-4121
▁assistant	-4122
▁furniture	-4123
▁graduated	-4124
▁obviously	-4125
▁perfectly	-4126
▁stressful	-4127
▁contribute	-4128
▁organising	-4129
▁throughout	-4130
▁Shakespeare	-4131
▁construction	-4132
▁conversation	-4133
▁accommodation	-4134
ela	-4135
ham	-4136
ief	-4137
iny	-4138
ole	-4139
itan	-4140
oors	-4141
▁Lou	-4142
▁cop	-4143
▁pan	-4144
▁unw	-4145
ushed	-4146
▁Jenn	-4147
▁diet	-4148
▁meat	-4149
▁Vietn	-4150
▁admit	-4151
▁basis	-4152
▁drama	-4153
▁flood	-4154
▁rapid	-4155
▁associ	-4156
▁policy	-4157
▁besides	-4158
▁conflic	-4159
▁matches	-4160
▁approach	-4161
▁organize	-4162
▁candidate	-4163
▁Personally	-4164
▁ecological	-4165
▁profession	-4166
▁electricity	-4167
▁temperature	-4168
IL	-4169
het	-4170
orn	-4171
vey	-4172
▁Im	-4173
▁Uk	-4174
▁la	-4175
ears	-4176
time	-4177
uses	-4178
▁Aug	-4179
▁Cat	-4180
▁Red	-4181
▁War	-4182
▁van	-4183
duces	-4184
esome	-4185
uries	-4186
▁fest	-4187
▁held	-4188
▁susp	-4189
ateful	-4190
ortion	-4191
▁clock	-4192
▁stood	-4193
▁sunny	-4194
▁chocol	-4195
▁closer	-4196
▁female	-4197
▁shadow	-4198
▁jogging	-4199
▁letters	-4200
▁systems	-4201
▁customer	-4202
▁grateful	-4203
▁involves	-4204
▁produced	-4205
▁stronger	-4206
▁villages	-4207
▁secondary	-4208
▁politicians	-4209
▁disappointed	-4210
▁participants	-4211
▁possibilities	-4212
▁environmentally	-4213
cil	-4214
ode	-4215
▁nt	-4216
iers	-4217
▁Bas	-4218
ceres	-4219
house	-4220
ining	-4221
sters	-4222
▁fort	-4223
▁magn	-4224
▁spir	-4225
▁thus	-4226
ficial	-4227
▁Paris	-4228
▁emiss	-4229
▁occur	-4230
▁oppon	-4231
ionship	-4232
▁Ukrain	-4233
▁attack	-4234
▁comedy	-4235
▁contro	-4236
▁fields	-4237
▁killed	-4238
▁lights	-4239
▁region	-4240
▁unless	-4241
▁Chinese	-4242
▁affects	-4243
▁overall	-4244
▁succeed	-4245
▁greatest	-4246
▁opinions	-4247
▁reliable	-4248
▁Transport	-4249
▁disasters	-4250
▁emissions	-4251
▁reference	-4252
▁classmates	-4253
▁techniques	-4254
▁entertaining	-4255
▁uncomfortable	-4256
AS	-4257
ef	-4258
gr	-4259
ji	-4260
ka	-4261
ena	-4262
men	-4263
reg	-4264
▁Fe	-4265
viet	-4266
▁Dav	-4267
▁God	-4268
▁Rel	-4269
▁rid	-4270
achel	-4271
ember	-4272
vered	-4273
▁Each	-4274
▁bags	-4275
▁fare	-4276
▁summ	-4277
▁vict	-4278
▁weap	-4279
▁noise	-4280
▁relev	-4281
▁saves	-4282
▁spite	-4283
▁track	-4284
▁admire	-4285
▁convin	-4286
▁joined	-4287
▁packed	-4288
▁remark	-4289
▁secure	-4290
▁Usually	-4291
▁artwork	-4292
▁awesome	-4293
▁balance	-4294
▁crucial	-4295
▁depress	-4296
▁discipl	-4297
▁welcome	-4298
itionally	-4299
▁behavior	-4300
▁climbing	-4301
▁educated	-4302
▁exchange	-4303
▁printing	-4304
▁sleeping	-4305
▁straight	-4306
▁Everybody	-4307
▁forgotten	-4308
▁healthier	-4309
▁traveling	-4310
▁treatment	-4311
▁girlfriend	-4312
▁challenging	-4313
▁competitive	-4314
lo	-4315
oga	-4316
▁eg	-4317
ague	-4318
life	-4319
umes	-4320
▁Dec	-4321
▁ath	-4322
▁den	-4323
▁fro	-4324
▁mix	-4325
▁voc	-4326
bered	-4327
esity	-4328
rance	-4329
venir	-4330
▁King	-4331
▁Mart	-4332
▁bull	-4333
▁cart	-4334
▁guys	-4335
▁male	-4336
▁pros	-4337
▁repe	-4338
▁rise	-4339
▁tele	-4340
ograph	-4341
▁Afric	-4342
▁Gener	-4343
▁Green	-4344
▁labor	-4345
▁spect	-4346
▁trash	-4347
▁views	-4348
▁vital	-4349
ultural	-4350
▁cooper	-4351
▁curric	-4352
▁horror	-4353
▁muscles	-4354
▁opening	-4355
▁appeared	-4356
▁distract	-4357
▁graduate	-4358
▁medicine	-4359
▁numerous	-4360
▁reducing	-4361
▁relevant	-4362
▁slightly	-4363
▁decisions	-4364
▁renewable	-4365
▁beneficial	-4366
▁challenges	-4367
▁commercial	-4368
▁electronic	-4369
▁recommended	-4370
▁disadvantage	-4371
▁institutions	-4372
▁unfortunately	-4373
ora	-4374
▁24	-4375
▁Sk	-4376
fact	-4377
like	-4378
rial	-4379
▁laz	-4380
▁mum	-4381
▁tom	-4382
▁uns	-4383
ament	-4384
aying	-4385
▁Luck	-4386
▁Over	-4387
▁arts	-4388
▁dogs	-4389
▁encl	-4390
▁nine	-4391
▁phen	-4392
▁scar	-4393
▁site	-4394
▁stri	-4395
erning	-4396
unning	-4397
▁below	-4398
▁fewer	-4399
▁lines	-4400
▁safer	-4401
▁stuck	-4402
▁August	-4403
▁Having	-4404
▁Soviet	-4405
▁circum	-4406
▁slowly	-4407
▁worker	-4408
▁centres	-4409
▁covered	-4410
▁kilomet	-4411
▁document	-4412
▁elements	-4413
▁identity	-4414
▁magnific	-4415
▁phenomen	-4416
▁romantic	-4417
▁stressed	-4418
▁conscious	-4419
▁discussed	-4420
▁separated	-4421
▁transform	-4422
▁authorities	-4423
▁complicated	-4424
▁consequence	-4425
▁preparation	-4426
▁suggestions	-4427
de	-4428
tr	-4429
ads	-4430
ala	-4431
iff	-4432
▁Hu	-4433
eing	-4434
ened	-4435
▁Jul	-4436
▁Two	-4437
▁dut	-4438
▁web	-4439
estic	-4440
izing	-4441
▁Lear	-4442
▁Mark	-4443
▁blog	-4444
▁burn	-4445
▁grew	-4446
▁keys	-4447
▁pred	-4448
▁opera	-4449
▁rooms	-4450
▁stops	-4451
▁strug	-4452
▁trips	-4453
▁weird	-4454
▁yours	-4455
▁beings	-4456
▁memory	-4457
▁stayed	-4458
▁theory	-4459
▁arrange	-4460
▁carried	-4461
▁clients	-4462
▁council	-4463
▁enhance	-4464
▁infrast	-4465
▁bathroom	-4466
▁capacity	-4467
▁designed	-4468
▁polluted	-4469
▁realised	-4470
▁websites	-4471
▁Education	-4472
▁childhood	-4473
▁drawbacks	-4474
▁establish	-4475
▁magazines	-4476
▁monuments	-4477
▁published	-4478
▁personally	-4479
▁reasonable	-4480
▁remembered	-4481
▁surrounded	-4482
▁universities	-4483
ION	-4484
azz	-4485
bul	-4486
for	-4487
itz	-4488
ril	-4489
ura	-4490
▁Dr	-4491
▁Fu	-4492
▁Ge	-4493
days	-4494
icks	-4495
lear	-4496
ulty	-4497
ulum	-4498
upid	-4499
▁Bal	-4500
▁Max	-4501
▁bod	-4502
▁fat	-4503
▁joy	-4504
▁lad	-4505
▁unp	-4506
ctors	-4507
enses	-4508
imate	-4509
ocked	-4510
oogle	-4511
place	-4512
ulate	-4513
▁Char	-4514
▁base	-4515
▁feet	-4516
▁purs	-4517
▁sust	-4518
▁wine	-4519
arding	-4520
▁David	-4521
▁Hence	-4522
▁Louis	-4523
▁Sarah	-4524
▁categ	-4525
▁clubs	-4526
▁crime	-4527
▁genet	-4528
▁image	-4529
▁incon	-4530
▁mouth	-4531
▁truly	-4532
▁walls	-4533
▁Colomb	-4534
▁facing	-4535
▁grandp	-4536
▁invite	-4537
▁leader	-4538
▁minute	-4539
▁pieces	-4540
▁shared	-4541
▁talent	-4542
▁causing	-4543
▁compare	-4544
▁conduct	-4545
▁cousins	-4546
▁highest	-4547
▁perhaps	-4548
▁scenery	-4549
▁attended	-4550
▁daughter	-4551
▁receiving	-4552
▁timetable	-4553
▁Additionally	-4554
▁expectations	-4555
iy	-4556
▁Ca	-4557
▁SU	-4558
▁TO	-4559
iano	-4560
itar	-4561
▁Oct	-4562
▁Val	-4563
▁hoc	-4564
▁ink	-4565
▁via	-4566
althy	-4567
arate	-4568
arely	-4569
asing	-4570
eside	-4571
ivity	-4572
osing	-4573
▁2000	-4574
▁bear	-4575
▁bird	-4576
▁coat	-4577
▁mail	-4578
▁pace	-4579
▁surg	-4580
▁tram	-4581
coming	-4582
iverse	-4583
▁Where	-4584
▁force	-4585
▁ocean	-4586
▁prior	-4587
▁sites	-4588
▁escape	-4589
▁sounds	-4590
ervation	-4591
▁Central	-4592
▁Germany	-4593
▁Science	-4594
▁channel	-4595
▁devices	-4596
▁focused	-4597
▁housing	-4598
▁network	-4599
▁passage	-4600
▁pollute	-4601
▁putting	-4602
▁section	-4603
▁clothing	-4604
▁complain	-4605
▁confused	-4606
▁fighting	-4607
▁returned	-4608
▁supposed	-4609
▁satisfied	-4610
▁thousands	-4611
ony	-4612
hern	-4613
oned	-4614
▁Big	-4615
▁Due	-4616
▁Tha	-4617
▁log	-4618
▁nut	-4619
▁que	-4620
▁tra	-4621
arter	-4622
gress	-4623
rival	-4624
▁Kate	-4625
▁Kind	-4626
▁Mean	-4627
▁chef	-4628
▁fans	-4629
▁hero	-4630
▁math	-4631
▁none	-4632
▁shot	-4633
urious	-4634
▁apart	-4635
▁feels	-4636
▁grass	-4637
▁tries	-4638
atching	-4639
▁Turkey	-4640
▁animal	-4641
▁cousin	-4642
▁gained	-4643
▁nation	-4644
▁remind	-4645
▁topics	-4646
▁greater	-4647
▁wasting	-4648
▁windows	-4649
▁contains	-4650
▁robotics	-4651
▁thousand	-4652
▁generally	-4653
▁collection	-4654
▁frequently	-4655
▁dramatically	-4656
▁surroundings	-4657
▁circumstances	-4658
'(	-4659
CE	-4660
aud	-4661
has	-4662
ims	-4663
lig	-4664
ows	-4665
rig	-4666
▁Ed	-4667
cast	-4668
imum	-4669
ober	-4670
pper	-4671
▁Ash	-4672
▁CAM	-4673
▁Cam	-4674
▁Mal	-4675
▁cab	-4676
▁tar	-4677
▁tea	-4678
▁wit	-4679
clock	-4680
hemat	-4681
orrow	-4682
tical	-4683
ufact	-4684
verty	-4685
▁Ange	-4686
▁Dani	-4687
▁Pres	-4688
▁bars	-4689
▁prec	-4690
▁stim	-4691
▁vers	-4692
illing	-4693
▁awful	-4694
▁conte	-4695
▁grant	-4696
▁meant	-4697
▁skill	-4698
▁spare	-4699
▁total	-4700
▁Nobody	-4701
▁addict	-4702
▁hockey	-4703
▁intell	-4704
▁served	-4705
▁speech	-4706
▁Looking	-4707
▁October	-4708
▁efforts	-4709
▁greatly	-4710
▁massive	-4711
▁obesity	-4712
▁kitchens	-4713
▁purposes	-4714
▁dedicated	-4715
▁gradually	-4716
▁insurance	-4717
▁reception	-4718
▁Technology	-4719
▁appearance	-4720
▁machinists	-4721
▁mechanical	-4722
▁practicing	-4723
▁strategies	-4724
▁grandmother	-4725
▁magnificent	-4726
uz	-4727
hib	-4728
ita	-4729
iti	-4730
yal	-4731
▁Pe	-4732
,000	-4733
MMER	-4734
hold	-4735
itor	-4736
olic	-4737
phan	-4738
raft	-4739
rupt	-4740
wers	-4741
wide	-4742
xide	-4743
▁Its	-4744
▁Mat	-4745
▁ant	-4746
▁sac	-4747
▁tem	-4748
adium	-4749
arily	-4750
iency	-4751
ipped	-4752
iters	-4753
table	-4754
uters	-4755
▁Alic	-4756
▁Fuji	-4757
▁Life	-4758
▁gold	-4759
▁reve	-4760
▁seat	-4761
angers	-4762
▁Milan	-4763
▁coach	-4764
▁fruit	-4765
▁keeps	-4766
▁scale	-4767
imately	-4768
ography	-4769
tenance	-4770
▁SUMMER	-4771
▁Square	-4772
▁bright	-4773
▁picked	-4774
▁placed	-4775
▁target	-4776
▁Perhaps	-4777
▁central	-4778
▁disease	-4779
▁doctors	-4780
▁fitness	-4781
▁happier	-4782
▁poverty	-4783
▁intellig	-4784
▁learners	-4785
▁shoulder	-4786
▁souvenir	-4787
▁continued	-4788
▁direction	-4789
▁paintings	-4790
▁presented	-4791
▁curriculum	-4792
▁industrial	-4793
▁fascinating	-4794
▁satisfaction	-4795
▁infrastructure	-4796
▁qualifications	-4797
▁recommendations	-4798
to	-4799
ata	-4800
eth	-4801
por	-4802
▁40	-4803
▁Go	-4804
▁Bel	-4805
▁Cel	-4806
▁Mus	-4807
▁don	-4808
▁map	-4809
chers	-4810
ycles	-4811
▁Dick	-4812
▁Laur	-4813
▁host	-4814
▁lake	-4815
▁ring	-4816
▁Would	-4817
▁brill	-4818
▁limit	-4819
▁rainy	-4820
▁serve	-4821
▁smell	-4822
▁appeal	-4823
▁beside	-4824
▁caught	-4825
▁figure	-4826
▁guitar	-4827
▁interp	-4828
▁leaves	-4829
▁meters	-4830
▁remain	-4831
▁resist	-4832
▁tables	-4833
▁Current	-4834
▁Through	-4835
▁flowers	-4836
▁leading	-4837
▁rapidly	-4838
▁entrance	-4839
▁inconven	-4840
▁manufact	-4841
▁measures	-4842
▁Meanwhile	-4843
▁delighted	-4844
▁finishing	-4845
▁travelled	-4846
▁affordable	-4847
▁difficulty	-4848
▁experiment	-4849
▁literature	-4850
▁phenomenon	-4851
▁popularity	-4852
▁recognized	-4853
▁surprising	-4854
▁instruments	-4855
yn	-4856
aza	-4857
isp	-4858
▁Mt	-4859
▁fi	-4860
heal	-4861
vere	-4862
ware	-4863
year	-4864
▁Sim	-4865
▁Sur	-4866
▁caf	-4867
▁dio	-4868
▁gap	-4869
▁inn	-4870
▁nor	-4871
ening	-4872
▁2013	-4873
▁July	-4874
▁Mary	-4875
▁cuis	-4876
▁died	-4877
▁dish	-4878
▁obst	-4879
▁rele	-4880
▁seas	-4881
father	-4882
verage	-4883
▁North	-4884
▁Write	-4885
▁bikes	-4886
▁bread	-4887
▁eager	-4888
▁gases	-4889
▁marks	-4890
▁names	-4891
▁bodies	-4892
▁diving	-4893
▁income	-4894
▁indeed	-4895
▁nearby	-4896
▁planes	-4897
▁square	-4898
▁stupid	-4899
▁thinks	-4900
standing	-4901
▁Micheal	-4902
▁Regards	-4903
▁calling	-4904
▁content	-4905
▁fairies	-4906
▁musical	-4907
▁realise	-4908
▁advanced	-4909
▁Brazilian	-4910
▁dependent	-4911
▁landscape	-4912
▁inspection	-4913
▁combination	-4914
▁maintenance	-4915
▁perspective	-4916
▁grandparents	-4917
▁requirements	-4918
▁advertisements	-4919
▁characteristics	-4920
ek	-4921
gn	-4922
aga	-4923
gal	-4924
set	-4925
▁21	-4926
▁ep	-4927
▁tv	-4928
anes	-4929
bell	-4930
eria	-4931
lend	-4932
mber	-4933
▁Ext	-4934
▁Min	-4935
▁YOU	-4936
▁eco	-4937
▁sen	-4938
apped	-4939
eping	-4940
owing	-4941
▁grap	-4942
▁spot	-4943
▁tips	-4944
erland	-4945
forest	-4946
pected	-4947
▁Ashby	-4948
▁CAMPS	-4949
▁Laura	-4950
▁disco	-4951
▁finds	-4952
▁fixed	-4953
▁fully	-4954
▁ideal	-4955
▁smoke	-4956
▁stone	-4957
▁Direct	-4958
▁Google	-4959
▁Sports	-4960
▁anyway	-4961
▁luxury	-4962
▁Indones	-4963
▁aggress	-4964
▁citizen	-4965
▁courage	-4966
▁replace	-4967
▁stadium	-4968
▁surgery	-4969
▁sustain	-4970
▁Learning	-4971
▁annoying	-4972
▁constant	-4973
▁drinking	-4974
▁extraord	-4975
▁function	-4976
▁lecturer	-4977
▁proposal	-4978
▁purchase	-4979
▁Currently	-4980
▁household	-4981
▁seriously	-4982
▁yesterday	-4983
▁leadership	-4984
▁organizing	-4985
▁remarkable	-4986
▁youngsters	-4987
IT	-4988
ND	-4989
ij	-4990
ING	-4991
bum	-4992
ios	-4993
nes	-4994
▁GM	-4995
▁Ke	-4996
▁Oh	-4997
▁er	-4998
▁je	-4999
omed	-5000
reet	-5001
▁pen	-5002
▁tut	-5003
adura	-5004
stood	-5005
tedly	-5006
tempt	-5007
▁Both	-5008
▁laws	-5009
▁legs	-5010
▁rail	-5011
▁wise	-5012
▁yoga	-5013
ildren	-5014
▁Alice	-5015
▁Maria	-5016
▁Switz	-5017
▁Young	-5018
▁aband	-5019
▁babys	-5020
▁grade	-5021
▁wheel	-5022
osition	-5023
▁Extrem	-5024
▁analys	-5025
▁apolog	-5026
▁contam	-5027
▁expand	-5028
▁guests	-5029
▁harder	-5030
▁ignore	-5031
▁indoor	-5032
▁rivers	-5033
▁spoken	-5034
▁status	-5035
gettable	-5036
oubtedly	-5037
▁Stephan	-5038
▁applied	-5039
▁attempt	-5040
▁centers	-5041
▁colours	-5042
▁curious	-5043
▁deliver	-5044
▁deserve	-5045
▁nations	-5046
▁species	-5047
▁theatre	-5048
▁concerns	-5049
▁concerts	-5050
▁consists	-5051
▁expenses	-5052
▁normally	-5053
▁peaceful	-5054
▁Regarding	-5055
▁chocolate	-5056
▁processes	-5057
▁qualified	-5058
▁relatives	-5059
▁residents	-5060
▁worldwide	-5061
▁investment	-5062
▁volunteers	-5063
▁Extremadura	-5064
▁Switzerland	-5065
▁communities	-5066
▁supermarket	-5067
rt	-5068
asm	-5069
min	-5070
orb	-5071
rep	-5072
zen	-5073
▁Ta	-5074
▁ge	-5075
abul	-5076
back	-5077
berg	-5078
head	-5079
ifer	-5080
lege	-5081
ller	-5082
olve	-5083
rets	-5084
▁Med	-5085
▁anx	-5086
▁emb	-5087
▁era	-5088
▁lay	-5089
print	-5090
▁Asia	-5091
▁agre	-5092
▁empt	-5093
▁king	-5094
▁mart	-5095
▁unex	-5096
▁vast	-5097
▁Concl	-5098
▁answe	-5099
▁badly	-5100
▁oblig	-5101
▁round	-5102
▁saved	-5103
▁solar	-5104
▁taxes	-5105
▁unfor	-5106
ibility	-5107
orthern	-5108
ruction	-5109
▁emphas	-5110
▁mature	-5111
▁owners	-5112
▁paying	-5113
▁proper	-5114
▁reward	-5115
▁scenes	-5116
▁skiing	-5117
▁states	-5118
▁writer	-5119
hematics	-5120
▁College	-5121
▁Thirdly	-5122
▁martial	-5123
▁matters	-5124
▁setting	-5125
▁tourism	-5126
▁weapons	-5127
▁critical	-5128
▁flexible	-5129
▁manually	-5130
▁speakers	-5131
▁attending	-5132
▁brilliant	-5133
▁responsib	-5134
▁encouraged	-5135
▁inventions	-5136
▁imagination	-5137
▁championship	-5138
▁successfully	-5139
▁extraordinary	-5140
50	-5141
:2	-5142
IC	-5143
sh	-5144
The	-5145
mas	-5146
oof	-5147
▁23	-5148
▁Ac	-5149
▁Ec	-5150
▁La	-5151
▁Ms	-5152
▁id	-5153
anny	-5154
illa	-5155
▁Cup	-5156
▁Kat	-5157
▁Nor	-5158
▁Res	-5159
▁Sub	-5160
▁bul	-5161
▁dig	-5162
▁eth	-5163
▁hyd	-5164
▁mad	-5165
▁max	-5166
▁mic	-5167
▁sof	-5168
arazz	-5169
elled	-5170
erved	-5171
overn	-5172
▁2015	-5173
▁June	-5174
▁Rome	-5175
▁adop	-5176
▁cake	-5177
▁lazy	-5178
hedral	-5179
inated	-5180
phones	-5181
urally	-5182
▁April	-5183
▁Franc	-5184
▁Smith	-5185
▁album	-5186
▁brown	-5187
▁doors	-5188
▁emerg	-5189
▁empty	-5190
▁ended	-5191
▁forms	-5192
▁frust	-5193
▁grabb	-5194
▁humor	-5195
▁jeans	-5196
▁tools	-5197
▁tourn	-5198
▁Govern	-5199
▁Street	-5200
▁Taking	-5201
▁approx	-5202
▁clever	-5203
▁hotels	-5204
▁routes	-5205
▁sector	-5206
▁automob	-5207
▁customs	-5208
▁dollars	-5209
▁outdoor	-5210
▁partner	-5211
▁pattern	-5212
▁spectac	-5213
▁witness	-5214
▁answered	-5215
▁concepts	-5216
▁replaced	-5217
▁software	-5218
▁concerning	-5219
▁economical	-5220
▁influenced	-5221
▁internship	-5222
▁practising	-5223
▁understood	-5224
▁cooperation	-5225
▁interaction	-5226
▁architecture	-5227
▁unforgettable	-5228
ano	-5229
ria	-5230
ump	-5231
▁AC	-5232
inct	-5233
ownt	-5234
rich	-5235
▁Esp	-5236
▁Law	-5237
▁Nat	-5238
▁ing	-5239
▁squ	-5240
eries	-5241
ounce	-5242
rates	-5243
under	-5244
▁....	-5245
▁Fort	-5246
▁bill	-5247
▁dust	-5248
▁ment	-5249
estern	-5250
orable	-5251
uclear	-5252
▁Three	-5253
▁brave	-5254
▁broke	-5255
▁coast	-5256
▁crops	-5257
▁cycle	-5258
▁inhab	-5259
▁owner	-5260
▁shoot	-5261
assment	-5262
▁Africa	-5263
▁Lastly	-5264
▁corner	-5265
▁detail	-5266
▁engage	-5267
▁flying	-5268
▁motorb	-5269
▁novels	-5270
▁oldest	-5271
▁papers	-5272
▁sights	-5273
▁strict	-5274
▁survey	-5275
▁thirty	-5276
▁yellow	-5277
▁Dickens	-5278
▁answers	-5279
▁appoint	-5280
▁artists	-5281
▁average	-5282
▁beliefs	-5283
▁dioxide	-5284
▁drought	-5285
▁promise	-5286
▁promote	-5287
▁December	-5288
▁bullying	-5289
▁disposal	-5290
▁engineer	-5291
▁festival	-5292
▁historic	-5293
▁resource	-5294
▁teenager	-5295
▁consumers	-5296
▁reduction	-5297
▁assessment	-5298
▁percentage	-5299
▁certificate	-5300
▁effectively	-5301
▁translation	-5302
la	-5303
ney	-5304
nic	-5305
roc	-5306
▁Lu	-5307
agon	-5308
grad	-5309
irts	-5310
ript	-5311
▁Bud	-5312
▁Hum	-5313
▁Joe	-5314
▁Jon	-5315
▁Was	-5316
▁hug	-5317
▁lie	-5318
agers	-5319
night	-5320
orary	-5321
▁Adam	-5322
▁arms	-5323
▁junk	-5324
▁link	-5325
▁loss	-5326
▁milk	-5327
acking	-5328
rition	-5329
▁Jason	-5330
▁Korea	-5331
▁Roman	-5332
▁calls	-5333
▁indic	-5334
▁photo	-5335
▁quant	-5336
▁spoke	-5337
ference	-5338
▁Celine	-5339
▁arrang	-5340
▁butter	-5341
▁depart	-5342
▁enable	-5343
▁former	-5344
▁garlic	-5345
▁hiking	-5346
▁manner	-5347
▁obstac	-5348
▁proced	-5349
▁signed	-5350
▁singer	-5351
▁societ	-5352
▁stairs	-5353
▁Working	-5354
▁articles	-5355
▁attached	-5356
▁feedback	-5357
▁stations	-5358
▁Generally	-5359
▁existence	-5360
▁partially	-5361
▁recognize	-5362
▁workplace	-5363
▁additional	-5364
▁impressive	-5365
▁references	-5366
▁skateboard	-5367
▁attractions	-5368
▁enthusiastic	-5369
▁presentation	-5370
▁approximately	-5371
12	-5372
sk	-5373
ss	-5374
ta	-5375
amb	-5376
ino	-5377
rit	-5378
ugg	-5379
▁Ob	-5380
cing	-5381
iate	-5382
ocks	-5383
▁Bus	-5384
▁Day	-5385
▁Fer	-5386
▁Fil	-5387
▁Gre	-5388
▁Har	-5389
▁Jan	-5390
▁Mag	-5391
▁boo	-5392
▁mur	-5393
▁nar	-5394
▁seg	-5395
▁unn	-5396
oline	-5397
▁Fern	-5398
▁capt	-5399
▁ends	-5400
▁flav	-5401
▁gall	-5402
▁ille	-5403
▁page	-5404
▁soul	-5405
▁thin	-5406
▁wars	-5407
astics	-5408
rifice	-5409
ulated	-5410
▁Could	-5411
▁agric	-5412
▁airpl	-5413
▁contr	-5414
▁falls	-5415
▁fifty	-5416
▁legal	-5417
▁recip	-5418
▁risks	-5419
▁seats	-5420
▁steal	-5421
▁super	-5422
▁theme	-5423
aparazz	-5424
▁agreed	-5425
▁athlet	-5426
▁crying	-5427
▁filled	-5428
▁finger	-5429
▁hidden	-5430
▁styles	-5431
inations	-5432
▁Instead	-5433
▁capable	-5434
▁charity	-5435
▁dressed	-5436
▁easiest	-5437
▁elderly	-5438
▁reduces	-5439
▁showing	-5440
▁surfing	-5441
▁writers	-5442
▁employee	-5443
▁farmland	-5444
▁imagined	-5445
▁millions	-5446
▁neighbor	-5447
▁opponent	-5448
▁celebrate	-5449
▁completed	-5450
▁economics	-5451
▁emergency	-5452
▁emotional	-5453
▁sacrifice	-5454
▁souvenirs	-5455
▁structure	-5456
▁suggested	-5457
▁accomplish	-5458
▁principles	-5459
▁undoubtedly	-5460
▁organisation	-5461
TS	-5462
VE	-5463
IES	-5464
ald	-5465
dom	-5466
▁Du	-5467
▁IS	-5468
▁Vi	-5469
ayed	-5470
illy	-5471
kind	-5472
rene	-5473
wood	-5474
▁Net	-5475
▁Rob	-5476
▁bey	-5477
▁nur	-5478
ailed	-5479
ategy	-5480
ister	-5481
orses	-5482
▁High	-5483
▁Such	-5484
▁cope	-5485
▁cred	-5486
▁diag	-5487
▁frid	-5488
▁hide	-5489
▁hire	-5490
▁push	-5491
▁shel	-5492
▁unhe	-5493
▁west	-5494
bridge	-5495
▁Union	-5496
▁agent	-5497
▁malls	-5498
▁pregn	-5499
▁roles	-5500
▁Canada	-5501
▁Easter	-5502
▁Future	-5503
▁Health	-5504
▁Indeed	-5505
▁Should	-5506
▁belief	-5507
▁breaks	-5508
▁caring	-5509
▁cheese	-5510
▁fluent	-5511
▁ingred	-5512
▁record	-5513
--------	-5514
▁arrival	-5515
▁exposed	-5516
▁grabbed	-5517
▁herself	-5518
▁impacts	-5519
▁largest	-5520
▁selling	-5521
▁summary	-5522
▁Jennifer	-5523
▁bringing	-5524
▁deserves	-5525
▁domestic	-5526
▁horrible	-5527
▁priority	-5528
▁relation	-5529
▁strategy	-5530
▁talented	-5531
▁wildlife	-5532
▁Recommend	-5533
▁convinced	-5534
▁objective	-5535
▁technique	-5536
▁illustrate	-5537
▁journalist	-5538
▁mysterious	-5539
▁traditions	-5540
▁unexpected	-5541
▁regulations	-5542
▁distribution	-5543
▁neighbourhood	-5544
ato	-5545
sed	-5546
▁Bu	-5547
▁OK	-5548
▁ox	-5549
aded	-5550
cher	-5551
eder	-5552
hand	-5553
▁Art	-5554
▁Ber	-5555
▁Hel	-5556
▁mir	-5557
▁tit	-5558
icken	-5559
inate	-5560
nings	-5561
pping	-5562
▁Cast	-5563
▁Soph	-5564
▁beat	-5565
▁deny	-5566
▁enem	-5567
▁lady	-5568
▁pron	-5569
▁util	-5570
▁virt	-5571
ferent	-5572
icking	-5573
seeing	-5574
ulture	-5575
weight	-5576
▁Huang	-5577
▁March	-5578
▁Metro	-5579
▁boost	-5580
▁funct	-5581
▁gorge	-5582
▁innoc	-5583
▁mayor	-5584
▁pasta	-5585
▁persu	-5586
▁scary	-5587
▁shirt	-5588
▁tower	-5589
▁Histor	-5590
▁Museum	-5591
▁actual	-5592
▁beyond	-5593
▁bother	-5594
▁dining	-5595
▁fruits	-5596
▁operas	-5597
▁profit	-5598
▁shower	-5599
▁superv	-5600
▁visual	-5601
▁wealth	-5602
▁Ukraine	-5603
▁consist	-5604
▁consume	-5605
▁failure	-5606
▁fiction	-5607
▁follows	-5608
▁forests	-5609
▁inhabit	-5610
▁nuclear	-5611
▁organic	-5612
▁recover	-5613
▁carrying	-5614
▁checking	-5615
▁fluently	-5616
▁informed	-5617
▁invented	-5618
▁northern	-5619
▁possibly	-5620
▁released	-5621
▁weakness	-5622
▁Americans	-5623
▁Cambridge	-5624
▁telephone	-5625
forestation	-5626
▁businesses	-5627
▁eventually	-5628
▁greenhouse	-5629
▁influences	-5630
▁sufficient	-5631
▁Fortunately	-5632
▁encouraging	-5633
▁fashionable	-5634
▁grandfather	-5635
▁ingredients	-5636
▁researchers	-5637
▁consequently	-5638
AL	-5639
OT	-5640
RE	-5641
ba	-5642
ga	-5643
.00	-5644
cia	-5645
equ	-5646
gar	-5647
umn	-5648
uzz	-5649
▁22	-5650
▁CO	-5651
ache	-5652
anda	-5653
imal	-5654
omas	-5655
raph	-5656
rees	-5657
rief	-5658
tery	-5659
▁Ant	-5660
▁Bye	-5661
▁Cas	-5662
▁Che	-5663
▁Dut	-5664
▁Imp	-5665
▁San	-5666
▁aid	-5667
▁mel	-5668
▁rac	-5669
▁suf	-5670
▁ver	-5671
ading	-5672
arant	-5673
arest	-5674
▁Home	-5675
▁Vict	-5676
▁evil	-5677
▁kick	-5678
▁poss	-5679
▁rate	-5680
▁skin	-5681
▁toys	-5682
atched	-5683
stairs	-5684
▁Grand	-5685
▁House	-5686
▁Scout	-5687
▁Which	-5688
▁block	-5689
▁cells	-5690
▁eaten	-5691
▁moves	-5692
▁prize	-5693
▁route	-5694
▁solid	-5695
▁tight	-5696
amental	-5697
▁Almost	-5698
▁Monica	-5699
▁Polish	-5700
▁brands	-5701
▁camera	-5702
▁crimin	-5703
▁debate	-5704
▁ending	-5705
▁horses	-5706
▁limits	-5707
▁losing	-5708
▁proved	-5709
▁punish	-5710
▁resort	-5711
▁safely	-5712
▁spirit	-5713
▁toward	-5714
ifferent	-5715
▁Friends	-5716
▁confirm	-5717
▁congest	-5718
▁cuisine	-5719
▁disturb	-5720
▁falling	-5721
▁happily	-5722
▁holding	-5723
▁illegal	-5724
▁involve	-5725
▁quarter	-5726
▁useless	-5727
▁version	-5728
▁Watching	-5729
▁chemical	-5730
▁contrary	-5731
▁messages	-5732
▁moreover	-5733
▁occasion	-5734
▁impressed	-5735
▁unhealthy	-5736
▁Australian	-5737
▁Conclusion	-5738
▁employment	-5739
▁instructor	-5740
▁networking	-5741
▁represents	-5742
▁Environment	-5743
▁spectacular	-5744
▁globalization	-5745
▁organizational	-5746
gu	-5747
▁0	-5748
ari	-5749
ocr	-5750
▁Su	-5751
inal	-5752
just	-5753
olen	-5754
udes	-5755
yram	-5756
▁Ric	-5757
▁Sam	-5758
acket	-5759
anada	-5760
asure	-5761
▁Time	-5762
▁alar	-5763
▁cras	-5764
▁data	-5765
▁dear	-5766
▁epis	-5767
▁forb	-5768
▁okay	-5769
orders	-5770
unicip	-5771
▁River	-5772
▁ahead	-5773
▁jokes	-5774
▁judge	-5775
▁piano	-5776
▁scene	-5777
▁sorts	-5778
▁tests	-5779
▁trade	-5780
abulary	-5781
ologist	-5782
viously	-5783
▁Academ	-5784
▁assert	-5785
▁behave	-5786
▁excess	-5787
▁league	-5788
▁stimul	-5789
▁temple	-5790
▁widely	-5791
aparazzi	-5792
▁Granada	-5793
▁Vietnam	-5794
▁chicken	-5795
▁claimed	-5796
▁context	-5797
▁divided	-5798
▁gardens	-5799
▁injured	-5800
▁missing	-5801
▁satisfy	-5802
▁suppose	-5803
▁worries	-5804
▁convince	-5805
▁gorgeous	-5806
▁handsome	-5807
▁humanity	-5808
▁incident	-5809
▁official	-5810
▁partners	-5811
▁quantity	-5812
▁relative	-5813
▁sentence	-5814
▁tomorrow	-5815
▁consuming	-5816
▁described	-5817
▁increases	-5818
▁inspected	-5819
▁movements	-5820
▁otherwise	-5821
▁sentences	-5822
▁wondering	-5823
▁aggressive	-5824
▁containers	-5825
▁harassment	-5826
▁impression	-5827
▁introduced	-5828
▁physically	-5829
▁vocabulary	-5830
▁concentrate	-5831
▁distributed	-5832
▁friendships	-5833
▁mathematics	-5834
▁outstanding	-5835
▁demonstrated	-5836
▁supermarkets	-5837
▁investigation	-5838
▁recommendation	-5839
US	-5840
cy	-5841
yc	-5842
how	-5843
ued	-5844
▁Bo	-5845
▁CL	-5846
▁IT	-5847
▁ju	-5848
abel	-5849
audi	-5850
lies	-5851
mark	-5852
ogue	-5853
otic	-5854
stan	-5855
uate	-5856
wing	-5857
▁196	-5858
▁AND	-5859
▁App	-5860
▁Ben	-5861
▁Dep	-5862
▁Sil	-5863
▁Spe	-5864
▁Vis	-5865
▁bac	-5866
▁bin	-5867
▁fed	-5868
▁gad	-5869
▁lic	-5870
▁pul	-5871
▁wid	-5872
ctual	-5873
gines	-5874
▁Dand	-5875
▁Juan	-5876
▁Leon	-5877
▁Lots	-5878
▁Play	-5879
▁Sant	-5880
▁desk	-5881
▁eggs	-5882
▁fond	-5883
▁gift	-5884
▁heat	-5885
▁ship	-5886
▁user	-5887
agraph	-5888
mitted	-5889
▁James	-5890
▁downt	-5891
▁ecosy	-5892
▁loyal	-5893
▁lying	-5894
▁refer	-5895
▁reput	-5896
▁spell	-5897
▁talks	-5898
▁toler	-5899
▁tutor	-5900
llywood	-5901
▁Famous	-5902
▁Marian	-5903
▁Master	-5904
▁Palace	-5905
▁Victor	-5906
▁agency	-5907
▁border	-5908
▁define	-5909
▁failed	-5910
▁gadget	-5911
▁minded	-5912
▁orders	-5913
▁severe	-5914
▁struct	-5915
▁terror	-5916
▁therap	-5917
▁Dandery	-5918
▁chances	-5919
▁counter	-5920
▁decides	-5921
▁diagram	-5922
▁dreamed	-5923
▁engines	-5924
▁experts	-5925
▁kinderg	-5926
▁measure	-5927
▁neither	-5928
▁remains	-5929
▁session	-5930
▁wetland	-5931
▁Children	-5932
▁bicycles	-5933
▁conflict	-5934
▁desserts	-5935
▁district	-5936
▁evaluate	-5937
▁listened	-5938
▁presents	-5939
▁preserve	-5940
▁religion	-5941
▁Christmas	-5942
▁Relations	-5943
▁committed	-5944
▁correctly	-5945
▁ecosystem	-5946
▁highlight	-5947
▁motivated	-5948
▁practiced	-5949
▁producing	-5950
▁promotion	-5951
▁Especially	-5952
▁accessible	-5953
▁celebrated	-5954
▁comparison	-5955
▁congestion	-5956
▁decreasing	-5957
▁depression	-5958
▁discipline	-5959
▁invitation	-5960
▁laboratory	-5961
▁protecting	-5962
▁achievement	-5963
▁appreciated	-5964
▁destruction	-5965
▁inhabitants	-5966
▁achievements	-5967
▁increasingly	-5968
▁organizations	-5969
30	-5970
BC	-5971
ED	-5972
va	-5973
aug	-5974
con	-5975
esc	-5976
hal	-5977
iam	-5978
oul	-5979
▁26	-5980
▁CD	-5981
▁MY	-5982
aint	-5983
ault	-5984
gant	-5985
mbol	-5986
mend	-5987
rove	-5988
then	-5989
▁Cal	-5990
▁Mac	-5991
▁Mor	-5992
▁Sev	-5993
▁nit	-5994
▁tap	-5995
eless	-5996
onald	-5997
ounds	-5998
using	-5999
▁Imag	-6000
▁Port	-6001
▁Prof	-6002
▁Thai	-6003
▁Wall	-6004
▁ange	-6005
▁beer	-6006
▁chap	-6007
▁decl	-6008
▁east	-6009
▁hasn	-6010
▁lies	-6011
▁lugg	-6012
▁nois	-6013
▁shar	-6014
▁unem	-6015
imming	-6016
otland	-6017
▁Count	-6018
▁accur	-6019
▁admin	-6020
▁coord	-6021
▁equal	-6022
▁graph	-6023
▁hence	-6024
▁marri	-6025
▁taxis	-6026
▁Karate	-6027
▁Richar	-6028
▁assign	-6029
▁crimes	-6030
▁device	-6031
▁enrich	-6032
▁frozen	-6033
▁height	-6034
▁hoping	-6035
▁hungry	-6036
▁narrow	-6037
▁palace	-6038
▁repair	-6039
▁spaces	-6040
▁symbol	-6041
▁varied	-6042
▁Luckily	-6043
▁Parents	-6044
▁burning	-6045
▁diverse	-6046
▁dresses	-6047
▁element	-6048
▁joining	-6049
▁luggage	-6050
▁magical	-6051
▁municip	-6052
▁officer	-6053
▁organis	-6054
▁secrets	-6055
▁tremend	-6056
▁viewers	-6057
▁waiters	-6058
▁western	-6059
▁doorbell	-6060
▁explains	-6061
▁improves	-6062
▁innocent	-6063
▁laughing	-6064
▁meetings	-6065
▁patience	-6066
▁promised	-6067
▁reaching	-6068
▁securely	-6069
▁suffered	-6070
▁throwing	-6071
▁unemploy	-6072
▁unnecess	-6073
▁Computers	-6074
▁abandoned	-6075
▁chemistry	-6076
▁engineers	-6077
▁protected	-6078
▁kindergart	-6079
▁tournament	-6080
▁disappeared	-6081
▁fundamental	-6082
▁independence	-6083
▁performances	-6084
▁deforestation	-6085
▁psychological	-6086
34	-6087
EL	-6088
dy	-6089
li	-6090
ms	-6091
ORT	-6092
bal	-6093
ded	-6094
ias	-6095
rim	-6096
thm	-6097
▁Sy	-6098
▁gh	-6099
PORT	-6100
aled	-6101
anch	-6102
cket	-6103
kish	-6104
rell	-6105
▁Ann	-6106
▁Pal	-6107
▁Sus	-6108
▁Tim	-6109
▁Ven	-6110
▁god	-6111
▁jun	-6112
▁mas	-6113
▁mut	-6114
▁pow	-6115
▁rhy	-6116
▁upd	-6117
athon	-6118
erior	-6119
hetic	-6120
onely	-6121
verse	-6122
▁Mont	-6123
▁copy	-6124
▁cute	-6125
▁lips	-6126
▁poet	-6127
▁soup	-6128
arting	-6129
ounced	-6130
▁Istan	-6131
▁ghost	-6132
▁lover	-6133
▁noisy	-6134
▁title	-6135
▁toads	-6136
▁vivid	-6137
achelor	-6138
iciency	-6139
▁Engine	-6140
▁Family	-6141
▁Thomas	-6142
▁decade	-6143
▁loving	-6144
▁medium	-6145
▁rarely	-6146
▁rhythm	-6147
▁rising	-6148
▁theore	-6149
▁waited	-6150
▁History	-6151
▁Turkish	-6152
▁acquire	-6153
▁anybody	-6154
▁defined	-6155
▁digital	-6156
▁factory	-6157
▁firstly	-6158
▁genetic	-6159
▁guarant	-6160
▁ordered	-6161
▁precise	-6162
▁turning	-6163
▁Istanbul	-6164
▁Speaking	-6165
▁Whenever	-6166
▁administ	-6167
▁directed	-6168
▁downtown	-6169
▁evidence	-6170
▁identify	-6171
▁reaction	-6172
▁violence	-6173
▁Hollywood	-6174
▁Otherwise	-6175
▁President	-6176
▁commuting	-6177
▁conducted	-6178
▁creatures	-6179
▁exception	-6180
▁exhausted	-6181
▁luxurious	-6182
▁motorbike	-6183
▁paparazzi	-6184
▁paragraph	-6185
▁selection	-6186
▁specially	-6187
▁strengths	-6188
▁Department	-6189
▁commitment	-6190
▁destroying	-6191
▁enthusiasm	-6192
▁expression	-6193
▁reputation	-6194
▁supporting	-6195
ww	-6196
'(2	-6197
att	-6198
hew	-6199
ini	-6200
omy	-6201
per	-6202
put	-6203
tes	-6204
▁Gl	-6205
▁OF	-6206
▁Po	-6207
▁hy	-6208
amil	-6209
chol	-6210
gent	-6211
lets	-6212
well	-6213
▁Aut	-6214
▁ate	-6215
▁bow	-6216
▁fee	-6217
▁gun	-6218
▁mal	-6219
▁mig	-6220
▁shy	-6221
ander	-6222
ender	-6223
ycled	-6224
▁Cafe	-6225
▁Cont	-6226
▁Form	-6227
▁army	-6228
▁cave	-6229
▁coup	-6230
▁cure	-6231
▁golf	-6232
▁lapt	-6233
▁plus	-6234
▁pubs	-6235
▁tiny	-6236
▁tort	-6237
▁wash	-6238
olitan	-6239
omeday	-6240
ulance	-6241
▁Among	-6242
▁Dream	-6243
▁Event	-6244
▁White	-6245
▁aston	-6246
▁conqu	-6247
▁explo	-6248
▁grown	-6249
▁hurry	-6250
▁ought	-6251
▁react	-6252
▁signs	-6253
angered	-6254
▁Tennis	-6255
▁artist	-6256
▁button	-6257
▁colors	-6258
▁cruise	-6259
▁desert	-6260
▁eleven	-6261
▁forces	-6262
▁fright	-6263
▁injury	-6264
▁jumped	-6265
▁queues	-6266
▁remote	-6267
▁solved	-6268
▁stolen	-6269
▁supply	-6270
▁unable	-6271
▁Develop	-6272
▁Overall	-6273
▁Twitter	-6274
▁appears	-6275
▁demands	-6276
▁granted	-6277
▁immense	-6278
▁killing	-6279
▁passing	-6280
▁resolve	-6281
▁teaches	-6282
▁trained	-6283
▁Director	-6284
▁Swimming	-6285
▁acquired	-6286
▁addicted	-6287
▁analysis	-6288
▁balanced	-6289
▁churches	-6290
▁colleges	-6291
▁colorful	-6292
▁discount	-6293
▁gasoline	-6294
▁motivate	-6295
▁offering	-6296
▁punctual	-6297
▁restrict	-6298
▁teamwork	-6299
▁ambulance	-6300
▁attitudes	-6301
▁broadcast	-6302
▁centuries	-6303
▁demanding	-6304
▁literally	-6305
▁necessity	-6306
▁principal	-6307
▁requested	-6308
▁sensitive	-6309
▁strangers	-6310
▁Eventually	-6311
▁determined	-6312
▁instrument	-6313
▁appointment	-6314
▁intelligent	-6315
▁respondents	-6316
▁sightseeing	-6317
▁unnecessary	-6318
▁specifically	-6319
OD	-6320
my	-6321
bel	-6322
ece	-6323
inc	-6324
jud	-6325
mit	-6326
ste	-6327
uay	-6328
▁32	-6329
▁60	-6330
▁90	-6331
▁Ba	-6332
ango	-6333
aret	-6334
atha	-6335
fers	-6336
fing	-6337
hens	-6338
lete	-6339
ores	-6340
uary	-6341
▁Dri	-6342
▁Far	-6343
▁Hot	-6344
▁Jew	-6345
▁Mel	-6346
▁Pet	-6347
▁Tem	-6348
▁fle	-6349
avery	-6350
hered	-6351
icate	-6352
▁Bali	-6353
▁Does	-6354
▁Part	-6355
▁Phys	-6356
▁Real	-6357
▁init	-6358
▁isol	-6359
▁prem	-6360
▁puzz	-6361
▁rose	-6362
▁shut	-6363
▁spin	-6364
▁subs	-6365
▁zoos	-6366
ancies	-6367
iously	-6368
itania	-6369
ritten	-6370
▁Asian	-6371
▁Dutch	-6372
▁Emily	-6373
▁Feder	-6374
▁Liter	-6375
▁abuse	-6376
▁balls	-6377
▁blame	-6378
▁bride	-6379
▁brief	-6380
▁modes	-6381
▁optim	-6382
▁renov	-6383
▁subst	-6384
▁tough	-6385
▁troub	-6386
▁usage	-6387
ievable	-6388
ographs	-6389
reprene	-6390
▁Center	-6391
▁Econom	-6392
▁Michel	-6393
▁Rachel	-6394
▁Sophie	-6395
▁Though	-6396
▁assure	-6397
▁ballet	-6398
▁degrad	-6399
▁dollar	-6400
▁fridge	-6401
▁garage	-6402
▁lonely	-6403
▁models	-6404
▁orange	-6405
▁owning	-6406
▁prison	-6407
▁senior	-6408
▁smooth	-6409
▁terrif	-6410
▁traits	-6411
▁tricks	-6412
▁worksh	-6413
▁Imagine	-6414
▁Manager	-6415
▁Profess	-6416
▁Seville	-6417
▁Titania	-6418
▁attacks	-6419
▁checked	-6420
▁distant	-6421
▁faculty	-6422
▁fingers	-6423
▁gaining	-6424
▁regions	-6425
▁release	-6426
▁sending	-6427
▁vacancy	-6428
abilities	-6429
▁Business	-6430
▁abortion	-6431
▁announce	-6432
▁develops	-6433
▁evenings	-6434
▁managing	-6435
▁recycled	-6436
▁shouting	-6437
▁soldiers	-6438
▁treasure	-6439
▁Obviously	-6440
▁Vietnames	-6441
▁attracted	-6442
▁celebrity	-6443
▁conflicts	-6444
▁expecting	-6445
▁exploring	-6446
▁extensive	-6447
▁positions	-6448
▁preferred	-6449
▁religious	-6450
▁spreading	-6451
▁accounting	-6452
▁associated	-6453
▁entreprene	-6454
▁innovative	-6455
▁playground	-6456
▁smartphones	-6457
56	-6458
ET	-6459
IP	-6460
PA	-6461
TR	-6462
ko	-6463
rd	-6464
bye	-6465
ico	-6466
met	-6467
rer	-6468
ris	-6469
uce	-6470
umb	-6471
▁HE	-6472
acle	-6473
city	-6474
ilst	-6475
inet	-6476
ingu	-6477
izes	-6478
lean	-6479
ngue	-6480
opes	-6481
oved	-6482
quis	-6483
rugs	-6484
sels	-6485
ygen	-6486
▁Bad	-6487
▁Hon	-6488
▁Lim	-6489
▁Non	-6490
▁Try	-6491
▁Whe	-6492
▁beg	-6493
▁dur	-6494
▁pel	-6495
▁pus	-6496
▁sib	-6497
▁tid	-6498
aming	-6499
itude	-6500
pects	-6501
tered	-6502
▁Anne	-6503
▁Chan	-6504
▁Long	-6505
▁Rest	-6506
▁calc	-6507
▁cash	-6508
▁core	-6509
▁duty	-6510
▁embr	-6511
▁firm	-6512
▁grey	-6513
▁lift	-6514
▁sees	-6515
▁zone	-6516
ective	-6517
ifying	-6518
▁Often	-6519
▁Think	-6520
▁adequ	-6521
▁aside	-6522
▁bands	-6523
▁drugs	-6524
▁envir	-6525
▁hydro	-6526
▁joint	-6527
▁lakes	-6528
▁semes	-6529
▁slave	-6530
▁stick	-6531
▁sugar	-6532
▁sweat	-6533
▁uncle	-6534
atholic	-6535
iveness	-6536
yramids	-6537
▁Disney	-6538
▁adjust	-6539
▁asleep	-6540
▁bottom	-6541
▁deeply	-6542
▁double	-6543
▁embarr	-6544
▁excite	-6545
▁exclud	-6546
▁floors	-6547
▁killer	-6548
▁laptop	-6549
▁multip	-6550
▁oxygen	-6551
▁pursue	-6552
▁recycl	-6553
▁refuse	-6554
▁script	-6555
▁skates	-6556
▁strugg	-6557
▁switch	-6558
▁tongue	-6559
▁trendy	-6560
ferences	-6561
graduate	-6562
▁Natural	-6563
▁bottles	-6564
▁cleaner	-6565
▁closely	-6566
▁commute	-6567
▁drawing	-6568
▁evident	-6569
▁gallery	-6570
▁glasses	-6571
▁painful	-6572
▁propose	-6573
▁raining	-6574
▁tension	-6575
▁victims	-6576
▁arranged	-6577
▁careless	-6578
▁chatting	-6579
▁cheapest	-6580
▁collabor	-6581
▁confront	-6582
▁intended	-6583
▁marriage	-6584
▁outdoors	-6585
▁precious	-6586
▁sociable	-6587
▁struggle	-6588
▁suggests	-6589
▁troubles	-6590
▁Yesterday	-6591
▁breathing	-6592
▁collected	-6593
▁container	-6594
▁discovery	-6595
▁functions	-6596
▁obstacles	-6597
▁performed	-6598
▁placement	-6599
▁remaining	-6600
▁thrillers	-6601
▁Brazilians	-6602
▁Vietnamese	-6603
▁creativity	-6604
▁endangered	-6605
▁previously	-6606
▁strengthen	-6607
▁celebration	-6608
▁theoretical	-6609
▁continuously	-6610
▁destinations	-6611
▁neighborhood	-6612
▁participated	-6613
▁surprisingly	-6614
LO	-6615
UT	-6616
ev	-6617
sz	-6618
chi	-6619
isa	-6620
ius	-6621
she	-6622
uls	-6623
uma	-6624
ums	-6625
ype	-6626
▁FA	-6627
▁Li	-6628
adel	-6629
ador	-6630
asty	-6631
bled	-6632
ethe	-6633
grat	-6634
holm	-6635
icul	-6636
ords	-6637
osse	-6638
sial	-6639
uing	-6640
▁150	-6641
▁Cop	-6642
▁Dem	-6643
▁FCE	-6644
▁Fac	-6645
▁Feb	-6646
▁Mod	-6647
▁Old	-6648
▁Seb	-6649
▁Tsz	-6650
▁Wal	-6651
▁ali	-6652
▁dyn	-6653
▁pal	-6654
apest	-6655
ednes	-6656
iders	-6657
istan	-6658
lands	-6659
owice	-6660
track	-6661
unate	-6662
▁Emma	-6663
▁Goth	-6664
▁Jess	-6665
▁Main	-6666
▁Prin	-6667
▁clin	-6668
▁cosy	-6669
▁hell	-6670
▁lets	-6671
▁moon	-6672
▁narr	-6673
▁phil	-6674
▁sake	-6675
▁sons	-6676
▁tone	-6677
▁unre	-6678
▁unus	-6679
ansion	-6680
erable	-6681
erving	-6682
iences	-6683
ishing	-6684
resses	-6685
ternal	-6686
▁Andre	-6687
▁Camps	-6688
▁Champ	-6689
▁Duque	-6690
▁Great	-6691
▁Music	-6692
▁Surpr	-6693
▁Thurs	-6694
▁award	-6695
▁chart	-6696
▁comed	-6697
▁displ	-6698
▁enemy	-6699
▁faces	-6700
▁fumes	-6701
▁handy	-6702
▁mixed	-6703
▁rural	-6704
▁tasty	-6705
iration	-6706
versial	-6707
▁Associ	-6708
▁Castle	-6709
▁Commun	-6710
▁Franco	-6711
▁Pepper	-6712
▁Portug	-6713
▁Walter	-6714
▁battle	-6715
▁deeper	-6716
▁duties	-6717
▁extent	-6718
▁fought	-6719
▁handle	-6720
▁lovers	-6721
▁repeat	-6722
▁stared	-6723
▁summar	-6724
▁tastes	-6725
▁waiter	-6726
▁whilst	-6727
▁wished	-6728
entation	-6729
▁Colosse	-6730
▁Subject	-6731
▁Weeping	-6732
▁banking	-6733
▁broaden	-6734
▁command	-6735
▁compete	-6736
▁contest	-6737
▁engaged	-6738
▁fastest	-6739
▁fulfill	-6740
▁islands	-6741
▁justice	-6742
▁monster	-6743
▁nearest	-6744
▁outcome	-6745
▁outline	-6746
▁proceed	-6747
▁readers	-6748
▁replied	-6749
▁sailing	-6750
▁seaside	-6751
▁seconds	-6752
▁shouted	-6753
▁silence	-6754
▁smiling	-6755
▁someday	-6756
▁therapy	-6757
▁trainer	-6758
▁Budapest	-6759
▁Egyptian	-6760
▁Probably	-6761
▁baseball	-6762
▁dramatic	-6763
▁dreaming	-6764
▁enclosed	-6765
▁inspired	-6766
▁interior	-6767
▁internal	-6768
▁marathon	-6769
▁stunning	-6770
▁Christian	-6771
▁Professor	-6772
▁appealing	-6773
▁decreased	-6774
▁instantly	-6775
▁municipal	-6776
▁realistic	-6777
▁standards	-6778
▁assistance	-6779
▁categories	-6780
▁definition	-6781
▁graduation	-6782
▁overweight	-6783
▁passionate	-6784
▁satisfying	-6785
▁supplement	-6786
▁timetables	-6787
▁comfortably	-6788
▁connections	-6789
▁demonstrate	-6790
▁flexibility	-6791
▁implemented	-6792
▁programming	-6793
▁sustainable	-6794
▁environments	-6795
▁kindergarten	-6796
▁concentration	-6797
▁controversial	-6798
▁significantly	-6799
▁representative	-6800
▁Recommendations	-6801
AK	-6802
cr	-6803
ENT	-6804
bed	-6805
rew	-6806
rob	-6807
son	-6808
val	-6809
▁Da	-6810
▁Ji	-6811
▁Ro	-6812
▁Wa	-6813
▁ho	-6814
▁na	-6815
burg	-6816
edia	-6817
iece	-6818
look	-6819
lymp	-6820
unci	-6821
▁Hey	-6822
▁Hun	-6823
▁Mir	-6824
▁Und	-6825
▁nec	-6826
▁ped	-6827
▁ult	-6828
▁ups	-6829
▁urg	-6830
▁vul	-6831
assed	-6832
capes	-6833
erial	-6834
etime	-6835
going	-6836
lines	-6837
lings	-6838
order	-6839
ounge	-6840
pleas	-6841
rical	-6842
▁East	-6843
▁Town	-6844
▁adap	-6845
▁barg	-6846
▁cane	-6847
▁crew	-6848
▁exec	-6849
▁fees	-6850
▁gent	-6851
▁goss	-6852
▁kidn	-6853
▁lion	-6854
▁nose	-6855
▁pull	-6856
▁pure	-6857
▁rage	-6858
▁seek	-6859
▁sett	-6860
▁skys	-6861
▁sofa	-6862
▁stro	-6863
▁thir	-6864
▁wond	-6865
eoples	-6866
igning	-6867
itable	-6868
oughly	-6869
rating	-6870
verted	-6871
▁.....	-6872
▁Class	-6873
▁Crist	-6874
▁Langu	-6875
▁Olymp	-6876
▁bound	-6877
▁camer	-6878
▁carto	-6879
▁energ	-6880
▁faced	-6881
▁facil	-6882
▁horiz	-6883
arently	-6884
▁Argent	-6885
▁Daniel	-6886
▁Indian	-6887
▁Inform	-6888
▁Unlike	-6889
▁Wednes	-6890
▁defend	-6891
▁democr	-6892
▁enjoys	-6893
▁formal	-6894
▁larger	-6895
▁lasted	-6896
▁lately	-6897
▁latter	-6898
▁overse	-6899
▁pocket	-6900
▁pushed	-6901
▁refers	-6902
▁segreg	-6903
▁stages	-6904
▁stated	-6905
▁sweets	-6906
▁undert	-6907
▁winner	-6908
etheless	-6909
▁anytime	-6910
▁chapter	-6911
▁classic	-6912
▁combust	-6913
▁hanging	-6914
▁knocked	-6915
▁lecture	-6916
▁maximum	-6917
▁painted	-6918
▁railway	-6919
▁refused	-6920
▁shelter	-6921
▁shocked	-6922
▁smoking	-6923
▁unpleas	-6924
▁utility	-6925
▁washing	-6926
▁Colombia	-6927
▁Compared	-6928
▁Danderyd	-6929
▁adequate	-6930
▁breaking	-6931
▁calories	-6932
▁combined	-6933
▁eighteen	-6934
▁equipped	-6935
▁frequent	-6936
▁injuries	-6937
▁lifetime	-6938
▁misunder	-6939
▁mornings	-6940
▁occurred	-6941
▁patients	-6942
▁pronunci	-6943
▁resident	-6944
▁semester	-6945
▁Cathedral	-6946
▁Different	-6947
▁agreement	-6948
▁announced	-6949
▁competing	-6950
▁footprint	-6951
▁polluting	-6952
▁president	-6953
▁qualities	-6954
▁reasoning	-6955
▁resulting	-6956
▁supported	-6957
▁Government	-6958
▁Literature	-6959
▁engagement	-6960
▁excitement	-6961
▁recyclable	-6962
▁transports	-6963
▁description	-6964
▁introducing	-6965
▁applications	-6966
▁availability	-6967
▁contributing	-6968
▁instructions	-6969
▁nevertheless	-6970
▁documentaries	-6971
▁considerations	-6972
66	-6973
AP	-6974
da	-6975
ja	-6976
ox	-6977
ye	-6978
yr	-6979
END	-6980
EST	-6981
aly	-6982
asy	-6983
eah	-6984
ero	-6985
ila	-6986
ixt	-6987
lim	-6988
olk	-6989
tee	-6990
uba	-6991
usa	-6992
▁Cz	-6993
▁LI	-6994
▁LO	-6995
▁Ni	-6996
▁SO	-6997
▁WH	-6998
▁km	-6999
alse	-7000
elve	-7001
hors	-7002
ibly	-7003
itty	-7004
mate	-7005
oose	-7006
pped	-7007
reek	-7008
ties	-7009
ushi	-7010
▁Ale	-7011
▁Ass	-7012
▁CON	-7013
▁End	-7014
▁Lat	-7015
▁Los	-7016
▁Wel	-7017
▁jew	-7018
▁lab	-7019
▁sed	-7020
IESEC	-7021
asian	-7022
iesel	-7023
itors	-7024
ocate	-7025
olved	-7026
ourse	-7027
rafts	-7028
rific	-7029
worth	-7030
▁2009	-7031
▁Cons	-7032
▁Film	-7033
▁Four	-7034
▁Hall	-7035
▁Mike	-7036
▁Read	-7037
▁Shar	-7038
▁Tues	-7039
▁Wang	-7040
▁Yout	-7041
▁aims	-7042
▁asks	-7043
▁gymn	-7044
▁hill	-7045
▁hunt	-7046
▁joke	-7047
▁laug	-7048
▁lawy	-7049
▁lean	-7050
▁peak	-7051
▁runs	-7052
▁seed	-7053
▁stem	-7054
▁ward	-7055
entive	-7056
isible	-7057
itious	-7058
liness	-7059
uccess	-7060
urfing	-7061
▁Black	-7062
▁Games	-7063
▁Going	-7064
▁Jenny	-7065
▁Lucas	-7066
▁Ocean	-7067
▁Saudi	-7068
▁State	-7069
▁Times	-7070
▁arise	-7071
▁banks	-7072
▁blind	-7073
▁chefs	-7074
▁cruel	-7075
▁exhib	-7076
▁fairy	-7077
▁inner	-7078
▁miles	-7079
▁minor	-7080
▁opens	-7081
▁spots	-7082
▁tears	-7083
▁trick	-7084
ictable	-7085
inction	-7086
▁AIESEC	-7087
▁Agatha	-7088
▁Angels	-7089
▁Follow	-7090
▁Gothic	-7091
▁Jewish	-7092
▁Korean	-7093
▁Martin	-7094
▁Others	-7095
▁Robert	-7096
▁Ronald	-7097
▁astron	-7098
▁buried	-7099
▁chairs	-7100
▁corpor	-7101
▁credit	-7102
▁critic	-7103
▁excurs	-7104
▁flower	-7105
▁format	-7106
▁gentle	-7107
▁guides	-7108
▁insist	-7109
▁intend	-7110
▁kissed	-7111
▁lively	-7112
▁missed	-7113
▁polite	-7114
▁prejud	-7115
▁refres	-7116
▁snacks	-7117
▁sooner	-7118
▁sudden	-7119
▁unfair	-7120
▁Cricket	-7121
▁Daniela	-7122
▁Formula	-7123
▁Parkour	-7124
▁Running	-7125
▁Whether	-7126
▁amounts	-7127
▁analyse	-7128
▁billion	-7129
▁camping	-7130
▁combine	-7131
▁congrat	-7132
▁curtain	-7133
▁edition	-7134
▁enables	-7135
▁fifteen	-7136
▁founded	-7137
▁laughed	-7138
▁minimum	-7139
▁possess	-7140
▁profile	-7141
▁recipes	-7142
▁sixteen	-7143
▁unusual	-7144
▁virtual	-7145
▁Katowice	-7146
▁Physical	-7147
▁Scotland	-7148
▁Starting	-7149
▁Thursday	-7150
▁costumes	-7151
▁darkness	-7152
▁distinct	-7153
▁presence	-7154
▁promises	-7155
▁promoted	-7156
▁scarcity	-7157
believable	-7158
▁Ukrainian	-7159
▁comparing	-7160
▁continues	-7161
▁criminals	-7162
▁employers	-7163
▁intention	-7164
▁naturally	-7165
▁unwritten	-7166
▁adventures	-7167
▁dispatched	-7168
▁efficiency	-7169
▁kilometres	-7170
▁limitation	-7171
▁positively	-7172
▁procedures	-7173
▁questionna	-7174
▁soundtrack	-7175
▁unpleasant	-7176
▁backgrounds	-7177
▁constructed	-7178
▁discussions	-7179
▁documentary	-7180
▁inconvenient	-7181
▁pronunciation	-7182
UR	-7183
xx	-7184
aya	-7185
aze	-7186
bey	-7187
mon	-7188
now	-7189
ppy	-7190
pse	-7191
vin	-7192
ares	-7193
elts	-7194
ench	-7195
ford	-7196
iety	-7197
ilty	-7198
ouds	-7199
resp	-7200
rosc	-7201
▁Ali	-7202
▁Bul	-7203
▁Ham	-7204
▁Num	-7205
▁Rom	-7206
▁Ton	-7207
▁aer	-7208
▁avo	-7209
▁hat	-7210
▁tun	-7211
▁vit	-7212
akers	-7213
atisf	-7214
estly	-7215
force	-7216
hamed	-7217
itute	-7218
ivals	-7219
urers	-7220
▁Cost	-7221
▁Fred	-7222
▁Post	-7223
▁Sand	-7224
▁Tell	-7225
▁West	-7226
▁canc	-7227
▁dive	-7228
▁fill	-7229
▁gate	-7230
▁groc	-7231
▁onto	-7232
▁pizz	-7233
▁quit	-7234
▁roll	-7235
▁thes	-7236
▁thor	-7237
ensity	-7238
ounter	-7239
▁Disco	-7240
▁Night	-7241
▁amuse	-7242
▁chaos	-7243
▁chips	-7244
▁cited	-7245
▁entry	-7246
▁fancy	-7247
▁fares	-7248
▁fault	-7249
▁hello	-7250
▁homet	-7251
▁intel	-7252
▁moral	-7253
▁owned	-7254
▁perce	-7255
▁pitch	-7256
▁sushi	-7257
▁toxic	-7258
cholars	-7259
ensions	-7260
mediate	-7261
vention	-7262
▁Arabia	-7263
▁Centre	-7264
▁Greece	-7265
▁Market	-7266
▁Nature	-7267
▁angels	-7268
▁desper	-7269
▁fourth	-7270
▁gender	-7271
▁golden	-7272
▁gossip	-7273
▁handic	-7274
▁hunger	-7275
▁litter	-7276
▁lounge	-7277
▁metres	-7278
▁motorc	-7279
▁nights	-7280
▁profic	-7281
▁reader	-7282
▁retire	-7283
▁serves	-7284
▁twelve	-7285
▁vision	-7286
▁Britain	-7287
▁January	-7288
▁Someone	-7289
▁booking	-7290
▁comment	-7291
▁crossed	-7292
▁degrees	-7293
▁disable	-7294
▁highway	-7295
▁jumping	-7296
▁logical	-7297
▁mystery	-7298
▁planets	-7299
▁quicker	-7300
▁raising	-7301
▁reports	-7302
▁reserve	-7303
▁ringing	-7304
▁shorter	-7305
▁somehow	-7306
▁travels	-7307
unication	-7308
▁Honestly	-7309
▁accompan	-7310
▁airplane	-7311
▁arriving	-7312
▁avoiding	-7313
▁consumer	-7314
▁contract	-7315
▁drawback	-7316
▁earliest	-7317
▁emission	-7318
▁hometown	-7319
▁hydrogen	-7320
▁oriented	-7321
▁pregnant	-7322
▁protagon	-7323
▁shooting	-7324
▁siblings	-7325
▁stranger	-7326
▁tendency	-7327
▁theatres	-7328
▁Colombian	-7329
▁Following	-7330
▁Indonesia	-7331
▁chemicals	-7332
▁classical	-7333
▁designers	-7334
▁educating	-7335
▁interrupt	-7336
▁nutrition	-7337
▁occasions	-7338
▁sensation	-7339
▁welcoming	-7340
▁Friendship	-7341
▁automobile	-7342
▁discussing	-7343
▁exhausting	-7344
▁fascinated	-7345
▁frustrated	-7346
▁landscapes	-7347
▁suggestion	-7348
▁Certificate	-7349
▁composition	-7350
▁efficiently	-7351
▁established	-7352
▁examination	-7353
▁fortunately	-7354
▁importantly	-7355
▁conditioning	-7356
▁participation	-7357
▁Transportation	-7358
20	-7359
OP	-7360
ei	-7361
gi	-7362
hi	-7363
ky	-7364
oe	-7365
zy	-7366
OUR	-7367
asp	-7368
ava	-7369
bec	-7370
cks	-7371
van	-7372
▁45	-7373
▁BE	-7374
▁Di	-7375
▁II	-7376
▁Je	-7377
▁Ky	-7378
▁Lo	-7379
▁Op	-7380
▁PR	-7381
▁TR	-7382
alom	-7383
anna	-7384
ento	-7385
ffic	-7386
gram	-7387
load	-7388
odes	-7389
phew	-7390
rari	-7391
rian	-7392
uded	-7393
urbs	-7394
▁300	-7395
▁Alb	-7396
▁Ana	-7397
▁Aur	-7398
▁Bob	-7399
▁Com	-7400
▁Cru	-7401
▁FOR	-7402
▁Get	-7403
▁Mia	-7404
▁Nik	-7405
▁Rem	-7406
▁Rep	-7407
▁Sec	-7408
▁awk	-7409
▁cig	-7410
▁coc	-7411
▁eur	-7412
▁gri	-7413
▁ham	-7414
▁hyp	-7415
▁phr	-7416
▁pil	-7417
▁ven	-7418
▁vir	-7419
ATION	-7420
ecial	-7421
espon	-7422
icies	-7423
ieval	-7424
ijing	-7425
ingly	-7426
oured	-7427
power	-7428
rency	-7429
ruary	-7430
▁1995	-7431
▁Arts	-7432
▁Food	-7433
▁Jake	-7434
▁Lima	-7435
▁Lucy	-7436
▁Male	-7437
▁Mand	-7438
▁Near	-7439
▁Need	-7440
▁Ober	-7441
▁Phil	-7442
▁Sing	-7443
▁dece	-7444
▁elev	-7445
▁plat	-7446
▁soil	-7447
▁symp	-7448
▁tied	-7449
▁wors	-7450
eltsin	-7451
▁Anton	-7452
▁Buses	-7453
▁Chand	-7454
▁Elena	-7455
▁Greek	-7456
▁Harry	-7457
▁Mitty	-7458
▁Plaza	-7459
▁Right	-7460
▁Valen	-7461
▁added	-7462
▁alarm	-7463
▁bless	-7464
▁blink	-7465
▁cried	-7466
▁devot	-7467
▁dying	-7468
▁false	-7469
▁fears	-7470
▁guard	-7471
▁incor	-7472
▁initi	-7473
▁integ	-7474
▁juice	-7475
▁marry	-7476
▁outwe	-7477
▁paths	-7478
▁races	-7479
▁repro	-7480
▁reven	-7481
▁sandw	-7482
▁sheep	-7483
▁shore	-7484
▁skirt	-7485
▁stock	-7486
▁suits	-7487
▁trams	-7488
▁yield	-7489
ocation	-7490
▁Aurora	-7491
▁Bright	-7492
▁Edison	-7493
▁George	-7494
▁Modern	-7495
▁Respon	-7496
▁Soccer	-7497
▁Temple	-7498
▁Yellow	-7499
▁argued	-7500
▁booked	-7501
▁bottle	-7502
▁bridge	-7503
▁claims	-7504
▁clouds	-7505
▁crowds	-7506
▁cultiv	-7507
▁doubts	-7508
▁earned	-7509
▁explan	-7510
▁fiance	-7511
▁flavor	-7512
▁freely	-7513
▁gather	-7514
▁grades	-7515
▁linked	-7516
▁motion	-7517
▁nephew	-7518
▁parent	-7519
▁pellet	-7520
▁remove	-7521
▁reveal	-7522
▁slalom	-7523
▁stands	-7524
▁Beijing	-7525
▁Cooking	-7526
▁Malefic	-7527
▁Program	-7528
▁Tuesday	-7529
▁Welcome	-7530
▁Yeltsin	-7531
▁authors	-7532
▁awkward	-7533
▁butterf	-7534
▁ceiling	-7535
▁cigaret	-7536
▁coaches	-7537
▁compuls	-7538
▁contrad	-7539
▁critics	-7540
▁decline	-7541
▁emotion	-7542
▁enclose	-7543
▁episode	-7544
▁farmers	-7545
▁feature	-7546
▁gadgets	-7547
▁goodbye	-7548
▁learner	-7549
▁mankind	-7550
▁markets	-7551
▁monthly	-7552
▁package	-7553
▁peoples	-7554
▁prefers	-7555
▁propert	-7556
▁singers	-7557
▁solving	-7558
▁thanked	-7559
▁visible	-7560
▁workout	-7561
▁Catholic	-7562
▁February	-7563
▁Marianne	-7564
▁detailed	-7565
▁disabled	-7566
▁isolated	-7567
▁literacy	-7568
▁modified	-7569
▁occupied	-7570
▁patterns	-7571
▁policies	-7572
▁seasonal	-7573
▁selected	-7574
▁shortage	-7575
▁societal	-7576
▁textbook	-7577
▁traveled	-7578
▁ultimate	-7579
▁Argentina	-7580
▁Badminton	-7581
▁Colosseum	-7582
▁Stephanie	-7583
▁authority	-7584
▁campaigns	-7585
▁contacted	-7586
▁departure	-7587
▁evolution	-7588
▁forbidden	-7589
▁hopefully	-7590
▁invisible	-7591
▁opponents	-7592
▁practised	-7593
▁temporary	-7594
▁thrilling	-7595
▁vacations	-7596
▁Historical	-7597
▁acceptable	-7598
▁challenged	-7599
▁combustion	-7600
▁decoration	-7601
▁entertains	-7602
▁industries	-7603
▁maintained	-7604
▁purchasing	-7605
▁regardless	-7606
▁resistance	-7607
▁supporters	-7608
▁tremendous	-7609
▁Nonetheless	-7610
▁experiments	-7611
▁maintaining	-7612
▁specialized	-7613
▁considerably	-7614
▁individually	-7615
▁introduction	-7616
▁volunteering	-7617
▁automatically	-7618
▁presentations	-7619
▁professionals	-7620
▁professionally	-7621
.5	-7622
tt	-7623
exp	-7624
rat	-7625
sia	-7626
ths	-7627
▁RE	-7628
▁UN	-7629
▁od	-7630
abet	-7631
aker	-7632
ario	-7633
athy	-7634
case	-7635
clus	-7636
enth	-7637
erry	-7638
gend	-7639
rane	-7640
rick	-7641
tion	-7642
ucks	-7643
uous	-7644
uter	-7645
zing	-7646
▁Air	-7647
▁BBC	-7648
▁Cap	-7649
▁Des	-7650
▁Ins	-7651
▁Pen	-7652
▁Ros	-7653
▁Sal	-7654
▁Vin	-7655
▁ana	-7656
▁aqu	-7657
▁ble	-7658
▁gif	-7659
▁www	-7660
anted	-7661
chair	-7662
erest	-7663
esthe	-7664
happy	-7665
ician	-7666
inter	-7667
osses	-7668
point	-7669
there	-7670
water	-7671
▁2006	-7672
▁Back	-7673
▁Chur	-7674
▁Crac	-7675
▁Mars	-7676
▁adds	-7677
▁boil	-7678
▁bond	-7679
▁cher	-7680
▁deli	-7681
▁dial	-7682
▁drag	-7683
▁hygi	-7684
▁leaf	-7685
▁lern	-7686
▁ours	-7687
▁pity	-7688
▁reck	-7689
▁sale	-7690
▁spac	-7691
▁wand	-7692
abetes	-7693
astrop	-7694
iation	-7695
ivered	-7696
ocking	-7697
usions	-7698
▁Doing	-7699
▁Julia	-7700
▁Skype	-7701
▁alert	-7702
▁chase	-7703
▁drunk	-7704
▁forty	-7705
▁genes	-7706
▁hoped	-7707
▁pairs	-7708
▁petro	-7709
▁prest	-7710
▁provo	-7711
▁rates	-7712
▁ships	-7713
▁thief	-7714
▁trail	-7715
▁whisp	-7716
▁winds	-7717
amiliar	-7718
isingly	-7719
quisite	-7720
ression	-7721
▁Social	-7722
▁Wonder	-7723
▁allerg	-7724
▁assume	-7725
▁barely	-7726
▁covers	-7727
▁eldest	-7728
▁excuse	-7729
▁fairly	-7730
▁loudly	-7731
▁namely	-7732
▁passes	-7733
▁philos	-7734
▁proven	-7735
▁ruined	-7736
▁sevent	-7737
▁silver	-7738
▁stones	-7739
▁territ	-7740
▁thirst	-7741
▁vulner	-7742
▁wasted	-7743
▁welcom	-7744
▁wooden	-7745
▁yelled	-7746
esthesia	-7747
ographer	-7748
▁Playing	-7749
▁Youtube	-7750
▁arrives	-7751
▁avoided	-7752
▁beautif	-7753
▁cameras	-7754
▁cutting	-7755
▁earning	-7756
▁elegant	-7757
▁english	-7758
▁examine	-7759
▁fishing	-7760
▁install	-7761
▁seasons	-7762
▁serving	-7763
▁stylish	-7764
▁suburbs	-7765
▁violent	-7766
ropolitan	-7767
▁Fernanda	-7768
▁admitted	-7769
▁attempts	-7770
▁creation	-7771
▁degraded	-7772
▁engaging	-7773
▁external	-7774
▁monument	-7775
▁multiple	-7776
▁narrator	-7777
▁outweigh	-7778
▁overseas	-7779
▁revealed	-7780
▁scholars	-7781
▁superior	-7782
ographical	-7783
▁Saturdays	-7784
▁achieving	-7785
▁administr	-7786
▁ambitious	-7787
▁catastrop	-7788
▁delivered	-7789
▁dissatisf	-7790
▁festivals	-7791
▁interpret	-7792
▁memorable	-7793
▁musicians	-7794
▁respected	-7795
▁rewarding	-7796
▁controlled	-7797
▁electrical	-7798
▁foreigners	-7799
▁frightened	-7800
▁gymnastics	-7801
▁kilometers	-7802
▁perception	-7803
▁punishment	-7804
▁regulation	-7805
▁relaxation	-7806
▁unfamiliar	-7807
▁Information	-7808
▁accompanied	-7809
▁controlling	-7810
▁discoveries	-7811
▁discovering	-7812
▁expressions	-7813
▁interactive	-7814
▁civilization	-7815
▁considerable	-7816
▁conveniently	-7817
▁intelligence	-7818
▁respectively	-7819
.1	-7820
40	-7821
99	-7822
BA	-7823
CL	-7824
In	-7825
VI	-7826
fl	-7827
cio	-7828
eem	-7829
eys	-7830
inh	-7831
iot	-7832
ira	-7833
iro	-7834
oot	-7835
rel	-7836
▁''	-7837
▁AD	-7838
▁AM	-7839
▁AT	-7840
▁Az	-7841
▁Mc	-7842
▁NO	-7843
▁ST	-7844
3456	-7845
aked	-7846
arch	-7847
asts	-7848
cest	-7849
enna	-7850
ffle	-7851
hess	-7852
iser	-7853
isha	-7854
izer	-7855
jand	-7856
lept	-7857
lime	-7858
mail	-7859
mare	-7860
onic	-7861
oris	-7862
they	-7863
uana	-7864
uese	-7865
uine	-7866
▁Bir	-7867
▁Bre	-7868
▁Hen	-7869
▁Pot	-7870
▁Run	-7871
▁Ser	-7872
▁Tri	-7873
▁cas	-7874
▁dys	-7875
▁fur	-7876
▁jer	-7877
▁rig	-7878
▁rum	-7879
▁sin	-7880
▁spr	-7881
▁wal	-7882
acusa	-7883
ample	-7884
asion	-7885
aters	-7886
atoes	-7887
field	-7888
forms	-7889
ights	-7890
itage	-7891
omach	-7892
ottom	-7893
rence	-7894
stage	-7895
stein	-7896
ublin	-7897
uther	-7898
▁Belg	-7899
▁Find	-7900
▁Flor	-7901
▁Fran	-7902
▁Gala	-7903
▁Gorb	-7904
▁Huan	-7905
▁Joey	-7906
▁Jose	-7907
▁Look	-7908
▁Lula	-7909
▁Mass	-7910
▁Mess	-7911
▁Nove	-7912
▁Serg	-7913
▁Teac	-7914
▁Tiff	-7915
▁Very	-7916
▁Year	-7917
▁beef	-7918
▁bell	-7919
▁brut	-7920
▁carp	-7921
▁drug	-7922
▁fake	-7923
▁fert	-7924
▁frag	-7925
▁laun	-7926
▁pray	-7927
▁slim	-7928
▁tidy	-7929
▁turb	-7930
▁vary	-7931
apping	-7932
ilarly	-7933
ranean	-7934
taking	-7935
▁Above	-7936
▁Catal	-7937
▁Costa	-7938
▁Medic	-7939
▁Santa	-7940
▁Sorry	-7941
▁Susan	-7942
▁Water	-7943
▁blend	-7944
▁cafes	-7945
▁chess	-7946
▁conce	-7947
▁dates	-7948
▁delay	-7949
▁demol	-7950
▁downs	-7951
▁drove	-7952
▁escap	-7953
▁funds	-7954
▁grows	-7955
▁honor	-7956
▁inexp	-7957
▁inher	-7958
▁inval	-7959
▁mates	-7960
▁meets	-7961
▁multi	-7962
▁pages	-7963
▁panic	-7964
▁parad	-7965
▁plots	-7966
▁pools	-7967
▁pride	-7968
▁revol	-7969
▁scope	-7970
▁sharp	-7971
▁shots	-7972
▁simpl	-7973
▁stove	-7974
▁teeth	-7975
▁toile	-7976
▁waves	-7977
cestors	-7978
iculous	-7979
ketball	-7980
ruption	-7981
▁Bottom	-7982
▁Bulgar	-7983
▁Humans	-7984
▁Isabel	-7985
▁Oberon	-7986
▁Venice	-7987
▁Vienna	-7988
▁blocks	-7989
▁compre	-7990
▁depict	-7991
▁devast	-7992
▁devote	-7993
▁drives	-7994
▁esteem	-7995
▁floods	-7996
▁guilty	-7997
▁hurric	-7998
▁indisp	-7999
▁kisses	-8000
▁landed	-8001
▁latent	-8002
▁lawyer	-8003
▁marvel	-8004
▁mutual	-8005
▁occurs	-8006
▁pounds	-8007
▁recall	-8008
▁retail	-8009
▁rushed	-8010
▁speaks	-8011
▁thesis	-8012
▁unlike	-8013
▁volunt	-8014
▁waffle	-8015
▁Alejand	-8016
▁Driving	-8017
▁Ferrari	-8018
▁Leisure	-8019
▁Leonard	-8020
▁Nothing	-8021
▁Richard	-8022
▁Ronaldo	-8023
▁Talking	-8024
▁Tiffany	-8025
▁annoyed	-8026
▁anxiety	-8027
▁anxious	-8028
▁artific	-8029
▁assault	-8030
▁banning	-8031
▁beloved	-8032
▁careers	-8033
▁carries	-8034
▁chamber	-8035
▁drastic	-8036
▁embrace	-8037
▁endless	-8038
▁extract	-8039
▁filling	-8040
▁grandma	-8041
▁letting	-8042
▁lottery	-8043
▁periods	-8044
▁persons	-8045
▁petrole	-8046
▁pointed	-8047
▁sadness	-8048
▁selfish	-8049
▁stomach	-8050
▁sublime	-8051
▁surface	-8052
▁theater	-8053
▁Chandler	-8054
▁Cultural	-8055
▁Medicine	-8056
▁November	-8057
▁Response	-8058
▁Siracusa	-8059
▁Valencia	-8060
▁allowing	-8061
▁comments	-8062
▁curtains	-8063
▁diagrams	-8064
▁duration	-8065
▁employed	-8066
▁entering	-8067
▁journeys	-8068
▁medieval	-8069
▁mentally	-8070
▁mobility	-8071
▁planting	-8072
▁proposed	-8073
▁regarded	-8074
▁spinning	-8075
▁survival	-8076
▁suspense	-8077
▁universe	-8078
▁waitress	-8079
iterranean	-8080
▁Recycling	-8081
▁Similarly	-8082
▁Something	-8083
▁admission	-8084
▁ancestors	-8085
▁backstage	-8086
▁beginners	-8087
▁concluded	-8088
▁decorated	-8089
▁democracy	-8090
▁disorders	-8091
▁diversity	-8092
▁guarantee	-8093
▁intellect	-8094
▁involving	-8095
▁miserable	-8096
▁packaging	-8097
▁projected	-8098
▁societies	-8099
▁summarize	-8100
▁terrorist	-8101
▁willpower	-8102
▁Indonesian	-8103
▁Maleficent	-8104
▁Portuguese	-8105
▁approached	-8106
▁attraction	-8107
▁babysitter	-8108
▁candidates	-8109
▁encourages	-8110
▁evaluation	-8111
▁facilitate	-8112
▁fingermark	-8113
▁incredibly	-8114
▁innovation	-8115
▁meaningful	-8116
▁neighbours	-8117
▁presenting	-8118
▁relatively	-8119
▁agriculture	-8120
▁beautifully	-8121
▁contributes	-8122
▁disciplined	-8123
▁furthermore	-8124
▁genetically	-8125
▁investigate	-8126
▁photographs	-8127
▁preferences	-8128
▁agricultural	-8129
▁announcement	-8130
▁contribution	-8131
▁disabilities	-8132
▁economically	-8133
▁perspectives	-8134
▁similarities	-8135
▁unbelievable	-8136
▁Environmental	-8137
▁inconvenience	-8138
▁questionnaire	-8139
!.	-8140
KS	-8141
SE	-8142
UL	-8143
eg	-8144
ns	-8145
uk	-8146
ama	-8147
bit	-8148
nel	-8149
oli	-8150
unt	-8151
▁--	-8152
▁35	-8153
▁Ok	-8154
▁PA	-8155
▁SH	-8156
▁au	-8157
▁kw	-8158
▁ta	-8159
:1:1	-8160
amps	-8161
hale	-8162
isms	-8163
made	-8164
mers	-8165
ocal	-8166
rael	-8167
robe	-8168
vest	-8169
▁Adv	-8170
▁Did	-8171
▁Nap	-8172
▁Out	-8173
▁Pac	-8174
▁Sea	-8175
▁Vol	-8176
▁Yet	-8177
▁flo	-8178
▁nap	-8179
▁nom	-8180
▁toy	-8181
imize	-8182
oding	-8183
osure	-8184
▁2011	-8185
▁Cace	-8186
▁Carl	-8187
▁Lion	-8188
▁Plan	-8189
▁Priv	-8190
▁acts	-8191
▁arro	-8192
▁ease	-8193
▁idol	-8194
▁intr	-8195
▁leng	-8196
▁mand	-8197
▁mask	-8198
▁merc	-8199
▁neck	-8200
▁pant	-8201
▁soph	-8202
▁sunb	-8203
▁tube	-8204
ournal	-8205
romise	-8206
▁Basil	-8207
▁Cause	-8208
▁Clean	-8209
▁Frank	-8210
▁Given	-8211
▁Tower	-8212
▁accum	-8213
▁aerob	-8214
▁asset	-8215
▁begun	-8216
▁boats	-8217
▁euros	-8218
▁genre	-8219
▁queue	-8220
▁quote	-8221
▁reuse	-8222
▁stead	-8223
▁suppl	-8224
▁windy	-8225
ersonal	-8226
mission	-8227
respond	-8228
veloped	-8229
▁Advert	-8230
▁Around	-8231
▁Berlin	-8232
▁Church	-8233
▁Cracow	-8234
▁Hunger	-8235
▁Little	-8236
▁Living	-8237
▁Nether	-8238
▁Number	-8239
▁Resear	-8240
▁airway	-8241
▁aliens	-8242
▁attach	-8243
▁brains	-8244
▁campus	-8245
▁cancer	-8246
▁cooked	-8247
▁curios	-8248
▁differ	-8249
▁donate	-8250
▁driven	-8251
▁ethnic	-8252
▁hugged	-8253
▁humour	-8254
▁interc	-8255
▁karate	-8256
▁lowest	-8257
▁nerves	-8258
▁pizzas	-8259
▁racket	-8260
▁relief	-8261
▁roller	-8262
▁runner	-8263
▁shirts	-8264
▁sunset	-8265
▁unfort	-8266
▁videos	-8267
aneously	-8268
ographic	-8269
onscious	-8270
▁Allison	-8271
▁Caceres	-8272
▁General	-8273
▁Journal	-8274
▁Station	-8275
▁Student	-8276
▁Whereas	-8277
▁cinemas	-8278
▁costume	-8279
▁dangers	-8280
▁density	-8281
▁enterpr	-8282
▁evolved	-8283
▁finance	-8284
▁hardest	-8285
▁hearted	-8286
▁miracle	-8287
▁offices	-8288
▁statues	-8289
▁talents	-8290
▁torture	-8291
▁unhappy	-8292
ification	-8293
▁Academic	-8294
▁Computer	-8295
▁Language	-8296
▁Ministry	-8297
▁Training	-8298
▁advances	-8299
▁artistic	-8300
▁attacked	-8301
▁charming	-8302
▁currency	-8303
▁disposed	-8304
▁download	-8305
▁habitats	-8306
▁maturity	-8307
▁produces	-8308
▁routines	-8309
▁screamed	-8310
▁sections	-8311
▁sickness	-8312
▁thirteen	-8313
▁transfer	-8314
▁weddings	-8315
▁Wednesday	-8316
▁cathedral	-8317
▁designing	-8318
▁determine	-8319
▁documents	-8320
▁exquisite	-8321
▁illnesses	-8322
▁operation	-8323
▁petroleum	-8324
▁scheduled	-8325
▁stability	-8326
▁terrified	-8327
▁uncertain	-8328
▁Basketball	-8329
▁Restaurant	-8330
▁correspond	-8331
▁occupation	-8332
▁struggling	-8333
▁weaknesses	-8334
▁Governments	-8335
▁Netherlands	-8336
▁complaining	-8337
▁embarrassed	-8338
▁fingerprint	-8339
▁informative	-8340
▁represented	-8341
▁residential	-8342
▁threatening	-8343
▁Surprisingly	-8344
▁breathtaking	-8345
▁communicating	-8346
▁establishment	-8347
▁interpersonal	-8348
▁manufacturers	-8349
▁misunderstand	-8350
▁dissatisfaction	-8351
".	-8352
.2	-8353
AY	-8354
BI	-8355
ME	-8356
jk	-8357
ANT	-8358
ERS	-8359
TER	-8360
abl	-8361
ady	-8362
ani	-8363
diz	-8364
fan	-8365
ige	-8366
iso	-8367
oba	-8368
och	-8369
olo	-8370
ono	-8371
rum	-8372
▁-"	-8373
▁:)	-8374
▁AL	-8375
▁Dj	-8376
▁EN	-8377
▁Er	-8378
▁Ir	-8379
▁WE	-8380
aine	-8381
alia	-8382
ando	-8383
apse	-8384
arta	-8385
aven	-8386
bing	-8387
fire	-8388
hamb	-8389
hant	-8390
harm	-8391
ilia	-8392
isco	-8393
itae	-8394
izab	-8395
onel	-8396
ophy	-8397
orke	-8398
osit	-8399
page	-8400
pass	-8401
rete	-8402
ulpt	-8403
unny	-8404
vell	-8405
veys	-8406
what	-8407
zone	-8408
▁Att	-8409
▁Cor	-8410
▁Del	-8411
▁Den	-8412
▁Dom	-8413
▁Don	-8414
▁FAV	-8415
▁Fox	-8416
▁Gar	-8417
▁Gas	-8418
▁Jac	-8419
▁Lag	-8420
▁Lin	-8421
▁Ped	-8422
▁Pre	-8423
▁Raf	-8424
▁Ras	-8425
▁Sad	-8426
▁Tij	-8427
▁VIP	-8428
▁Ver	-8429
▁cos	-8430
▁egg	-8431
▁gon	-8432
▁lyr	-8433
▁mer	-8434
▁pad	-8435
▁pir	-8436
▁tag	-8437
▁tie	-8438
▁tip	-8439
▁tow	-8440
▁wiz	-8441
'(2:2	-8442
agoza	-8443
amboo	-8444
anche	-8445
azaar	-8446
azing	-8447
guard	-8448
iches	-8449
idsum	-8450
ioned	-8451
olden	-8452
ossil	-8453
othes	-8454
ronte	-8455
think	-8456
▁1990	-8457
▁2002	-8458
▁Brus	-8459
▁Bull	-8460
▁Conc	-8461
▁Date	-8462
▁Flam	-8463
▁Lore	-8464
▁Rose	-8465
▁Ross	-8466
▁Rust	-8467
▁Taip	-8468
▁Work	-8469
▁bite	-8470
▁bulb	-8471
▁clic	-8472
▁code	-8473
▁cogn	-8474
▁cott	-8475
▁cozy	-8476
▁craw	-8477
▁dare	-8478
▁erad	-8479
▁fate	-8480
▁gang	-8481
▁grab	-8482
▁hamb	-8483
▁heal	-8484
▁irre	-8485
▁jeal	-8486
▁kung	-8487
▁lock	-8488
▁maps	-8489
▁mixt	-8490
▁pale	-8491
▁peer	-8492
▁poem	-8493
▁rabb	-8494
▁rein	-8495
▁shif	-8496
▁sole	-8497
▁synt	-8498
▁trag	-8499
▁trib	-8500
▁trol	-8501
▁unit	-8502
▁yell	-8503
ainted	-8504
bulous	-8505
encies	-8506
ending	-8507
entary	-8508
everal	-8509
hambra	-8510
itched	-8511
lendar	-8512
ogging	-8513
urning	-8514
▁Boris	-8515
▁Charl	-8516
▁Chile	-8517
▁Hotel	-8518
▁Human	-8519
▁Inter	-8520
▁Lucky	-8521
▁Paula	-8522
▁Pract	-8523
▁Words	-8524
▁assum	-8525
▁blogs	-8526
▁bones	-8527
▁cabin	-8528
▁cards	-8529
▁cater	-8530
▁cloud	-8531
▁coinc	-8532
▁divor	-8533
▁frame	-8534
▁fuels	-8535
▁giant	-8536
▁grasp	-8537
▁guest	-8538
▁helic	-8539
▁hired	-8540
▁infin	-8541
▁input	-8542
▁manip	-8543
▁ninet	-8544
▁overc	-8545
▁param	-8546
▁peers	-8547
▁reass	-8548
▁recru	-8549
▁royal	-8550
▁salad	-8551
▁scoot	-8552
▁shift	-8553
▁shock	-8554
▁silly	-8555
▁storm	-8556
▁tapas	-8557
▁upset	-8558
▁wider	-8559
anchise	-8560
aragoza	-8561
ensable	-8562
ersburg	-8563
izabeth	-8564
mporary	-8565
ustomed	-8566
▁Active	-8567
▁Always	-8568
▁Assist	-8569
▁Bronte	-8570
▁Design	-8571
▁Feurer	-8572
▁Israel	-8573
▁Juliet	-8574
▁Lionel	-8575
▁Lucila	-8576
▁Malaga	-8577
▁Marina	-8578
▁Midsum	-8579
▁Mosque	-8580
▁Scient	-8581
▁Sebast	-8582
▁Sergio	-8583
▁Sharma	-8584
▁affirm	-8585
▁amazed	-8586
▁archer	-8587
▁attrib	-8588
▁babies	-8589
▁burden	-8590
▁costly	-8591
▁detrim	-8592
▁dreamt	-8593
▁editor	-8594
▁exotic	-8595
▁fallen	-8596
▁fellow	-8597
▁fulfil	-8598
▁granny	-8599
▁hiring	-8600
▁implic	-8601
▁infect	-8602
▁jacket	-8603
▁jungle	-8604
▁lyrics	-8605
▁merely	-8606
▁mirror	-8607
▁parked	-8608
▁poetry	-8609
▁prohib	-8610
▁rented	-8611
▁sculpt	-8612
▁silent	-8613
▁snorke	-8614
▁stable	-8615
▁thrown	-8616
▁timing	-8617
▁trends	-8618
▁urgent	-8619
▁wheels	-8620
entially	-8621
ilingual	-8622
restling	-8623
▁Academy	-8624
▁African	-8625
▁Belgium	-8626
▁Charles	-8627
▁Fashion	-8628
▁Jessica	-8629
▁Kingdom	-8630
▁Several	-8631
▁William	-8632
▁adapted	-8633
▁adopted	-8634
▁affairs	-8635
▁athlete	-8636
▁cocaine	-8637
▁conquer	-8638
▁crashed	-8639
▁dispute	-8640
▁dropped	-8641
▁ecology	-8642
▁funding	-8643
▁genuine	-8644
▁hunting	-8645
▁license	-8646
▁manners	-8647
▁marvell	-8648
▁nitrate	-8649
▁observe	-8650
▁quietly	-8651
▁spirits	-8652
▁stepped	-8653
▁subways	-8654
▁teenage	-8655
▁treated	-8656
▁undergo	-8657
▁winning	-8658
▁Alhambra	-8659
▁Brighton	-8660
▁Brussels	-8661
▁Leonardo	-8662
▁Likewise	-8663
▁Needless	-8664
▁Republic	-8665
▁Whatever	-8666
▁accounts	-8667
▁actively	-8668
▁bachelor	-8669
▁believes	-8670
▁calendar	-8671
▁captured	-8672
▁cartoons	-8673
▁clinical	-8674
▁comedies	-8675
▁delivery	-8676
▁disorder	-8677
▁distingu	-8678
▁election	-8679
▁energies	-8680
▁entirely	-8681
▁existing	-8682
▁fabulous	-8683
▁farewell	-8684
▁findings	-8685
▁gripping	-8686
▁happiest	-8687
▁headache	-8688
▁heritage	-8689
▁highways	-8690
▁honestly	-8691
▁indirect	-8692
▁intimate	-8693
▁plastics	-8694
▁pollutes	-8695
▁rational	-8696
▁reflects	-8697
▁relating	-8698
▁salaries	-8699
▁survived	-8700
▁upstairs	-8701
▁wardrobe	-8702
▁workshop	-8703
▁Elizabeth	-8704
▁addiction	-8705
▁airplanes	-8706
▁amusement	-8707
▁astronaut	-8708
▁committee	-8709
▁confusion	-8710
▁depressed	-8711
▁directors	-8712
▁emphasize	-8713
▁encounter	-8714
▁enjoyment	-8715
▁excessive	-8716
▁expansion	-8717
▁fashioned	-8718
▁franchise	-8719
▁generated	-8720
▁hurricane	-8721
▁incentive	-8722
▁indicates	-8723
▁initially	-8724
▁libraries	-8725
▁nightmare	-8726
▁obsession	-8727
▁operating	-8728
▁procedure	-8729
▁sophistic	-8730
▁textbooks	-8731
▁tolerance	-8732
▁universal	-8733
▁unsuccess	-8734
▁viewpoint	-8735
▁Petersburg	-8736
▁accustomed	-8737
▁adaptation	-8738
▁analytical	-8739
▁approaches	-8740
▁artificial	-8741
▁biological	-8742
▁culturally	-8743
▁explaining	-8744
▁institutes	-8745
▁motivating	-8746
▁optimistic	-8747
▁perfection	-8748
▁programmer	-8749
▁proportion	-8750
▁structures	-8751
▁Engineering	-8752
▁considerate	-8753
▁contributed	-8754
▁differently	-8755
▁dissolution	-8756
▁electronics	-8757
▁illustrates	-8758
▁scholarship	-8759
▁alternatives	-8760
▁contemporary	-8761
▁receptionist	-8762
▁unemployment	-8763
▁Mediterranean	-8764
▁contamination	-8765
▁participating	-8766
▁qualification	-8767
▁skateboarding	-8768
▁undergraduate	-8769
▁implementation	-8770
▁transformation	-8771
----------------	-8772
▁supplementation	-8773
RT	-8774
ca	-8775
do	-8776
kh	-8777
uw	-8778
afe	-8779
lps	-8780
ogs	-8781
sem	-8782
uge	-8783
uit	-8784
▁Ox	-8785
▁ic	-8786
▁yo	-8787
They	-8788
Tube	-8789
aith	-8790
ccup	-8791
eded	-8792
oget	-8793
olan	-8794
oofs	-8795
otes	-8796
rant	-8797
step	-8798
whel	-8799
▁Ang	-8800
▁Has	-8801
▁Ice	-8802
▁Ire	-8803
▁Jes	-8804
▁Leo	-8805
▁Mid	-8806
▁Off	-8807
▁PhD	-8808
▁Pur	-8809
▁Sol	-8810
▁Sym	-8811
▁Ter	-8812
▁gat	-8813
▁idi	-8814
▁nod	-8815
▁pra	-8816
▁san	-8817
▁sir	-8818
aring	-8819
chest	-8820
ciple	-8821
eding	-8822
iance	-8823
iated	-8824
ieces	-8825
ieved	-8826
isher	-8827
isses	-8828
lying	-8829
owned	-8830
▁2003	-8831
▁Glob	-8832
▁Mend	-8833
▁News	-8834
▁Serv	-8835
▁Teen	-8836
▁Unit	-8837
▁benc	-8838
▁betr	-8839
▁buff	-8840
▁cats	-8841
▁clue	-8842
▁cups	-8843
▁guns	-8844
▁leap	-8845
▁murd	-8846
▁nood	-8847
▁obey	-8848
▁prob	-8849
▁rice	-8850
▁ruin	-8851
▁slam	-8852
▁tack	-8853
▁trig	-8854
▁vibr	-8855
affiti	-8856
aments	-8857
iology	-8858
opular	-8859
rolled	-8860
unting	-8861
▁Beaut	-8862
▁Group	-8863
▁Local	-8864
▁Stock	-8865
▁accom	-8866
▁acted	-8867
▁aimed	-8868
▁armed	-8869
▁bench	-8870
▁cares	-8871
▁charm	-8872
▁chest	-8873
▁chief	-8874
▁comic	-8875
▁creep	-8876
▁deals	-8877
▁dustb	-8878
▁flash	-8879
▁flour	-8880
▁globe	-8881
▁grace	-8882
▁gramm	-8883
▁indul	-8884
▁negot	-8885
▁niece	-8886
▁risky	-8887
▁shame	-8888
▁snack	-8889
▁stiff	-8890
▁teens	-8891
▁telev	-8892
▁trial	-8893
▁upper	-8894
▁wears	-8895
essions	-8896
iminate	-8897
ogether	-8898
reating	-8899
ulating	-8900
verages	-8901
versely	-8902
▁Eating	-8903
▁Freddy	-8904
▁Middle	-8905
▁Oxford	-8906
▁Secret	-8907
▁Stefan	-8908
▁System	-8909
▁Twenty	-8910
▁absorb	-8911
▁baking	-8912
▁basics	-8913
▁batter	-8914
▁consec	-8915
▁deaths	-8916
▁decent	-8917
▁exclus	-8918
▁famine	-8919
▁harmon	-8920
▁immune	-8921
▁legend	-8922
▁multin	-8923
▁powers	-8924
▁pulled	-8925
▁reckon	-8926
▁safest	-8927
▁strike	-8928
▁themes	-8929
▁twists	-8930
▁unpred	-8931
▁unsafe	-8932
▁victim	-8933
▁weapon	-8934
▁weekly	-8935
▁worlds	-8936
ountered	-8937
utrition	-8938
▁Angeles	-8939
▁Further	-8940
▁Ireland	-8941
▁Mexican	-8942
▁Patrick	-8943
▁Reading	-8944
▁YouTube	-8945
▁advised	-8946
▁benches	-8947
▁broader	-8948
▁castles	-8949
▁charged	-8950
▁consult	-8951
▁defense	-8952
▁enabled	-8953
▁envirom	-8954
▁fantasy	-8955
▁forgive	-8956
▁fortune	-8957
▁hamburg	-8958
▁helicop	-8959
▁hitting	-8960
▁ignored	-8961
▁intense	-8962
▁kicking	-8963
▁longest	-8964
▁loyalty	-8965
▁masters	-8966
▁monitor	-8967
▁objects	-8968
▁offence	-8969
▁oneself	-8970
▁pension	-8971
▁physics	-8972
▁portion	-8973
▁privile	-8974
▁reaches	-8975
▁sincere	-8976
▁trainee	-8977
▁Studying	-8978
▁athletic	-8979
▁category	-8980
▁certific	-8981
▁commerce	-8982
▁criteria	-8983
▁diabetes	-8984
▁elevator	-8985
▁equality	-8986
▁facility	-8987
▁gathered	-8988
▁generate	-8989
▁graffiti	-8990
▁horizons	-8991
▁hundreds	-8992
▁launched	-8993
▁overwhel	-8994
▁passions	-8995
▁passport	-8996
▁persuade	-8997
▁pyramids	-8998
▁register	-8999
▁requests	-9000
▁shocking	-9001
▁starring	-9002
▁stopping	-9003
▁welcomed	-9004
▁worrying	-9005
▁Countries	-9006
▁Discovery	-9007
▁Stockholm	-9008
▁Teenagers	-9009
▁Victorian	-9010
▁apologise	-9011
▁audiences	-9012
▁calculate	-9013
▁cardboard	-9014
▁cigarette	-9015
▁classmate	-9016
▁colleague	-9017
▁colourful	-9018
▁describes	-9019
▁integrate	-9020
▁mandatory	-9021
▁nightlife	-9022
▁practices	-9023
▁primarily	-9024
▁principle	-9025
▁referring	-9026
▁religions	-9027
▁screaming	-9028
▁sedentary	-9029
▁socialize	-9030
▁Afterwards	-9031
▁Conversely	-9032
▁afterwards	-9033
▁compromise	-9034
▁conference	-9035
▁convincing	-9036
▁describing	-9037
▁distracted	-9038
▁invaluable	-9039
▁originated	-9040
▁psychology	-9041
▁recognised	-9042
▁sandwiches	-9043
▁substances	-9044
▁suspicious	-9045
▁thoroughly	-9046
▁unemployed	-9047
▁advancement	-9048
▁anaesthesia	-9049
▁automobiles	-9050
▁babysitting	-9051
▁encountered	-9052
▁innovations	-9053
▁interviewer	-9054
▁necessarily	-9055
▁orientation	-9056
▁practically	-9057
▁surrounding	-9058
▁unfortunate	-9059
▁geographical	-9060
▁preservation	-9061
▁restrictions	-9062
▁architectural	-9063
▁multinational	-9064
▁sophisticated	-9065
▁communications	-9066
AH	-9067
BL	-9068
CH	-9069
EF	-9070
He	-9071
IG	-9072
SR	-9073
So	-9074
UC	-9075
hr	-9076
ki	-9077
▁q	-9078
.30	-9079
:30	-9080
ITE	-9081
ONG	-9082
OTH	-9083
PSU	-9084
adh	-9085
ait	-9086
avy	-9087
cue	-9088
eff	-9089
ido	-9090
igo	-9091
imi	-9092
iov	-9093
lla	-9094
oes	-9095
ola	-9096
olm	-9097
ova	-9098
owa	-9099
rey	-9100
ugo	-9101
xas	-9102
zed	-9103
▁1,	-9104
▁31	-9105
▁44	-9106
▁BC	-9107
▁CH	-9108
▁DC	-9109
▁ES	-9110
▁EU	-9111
▁FR	-9112
▁MU	-9113
▁Mi	-9114
▁NE	-9115
▁PL	-9116
▁SE	-9117
▁Sa	-9118
▁cy	-9119
▁pu	-9120
CLUS	-9121
TION	-9122
airo	-9123
alle	-9124
atar	-9125
coal	-9126
engo	-9127
enha	-9128
erto	-9129
etri	-9130
hent	-9131
imea	-9132
inda	-9133
inds	-9134
irga	-9135
ivia	-9136
keep	-9137
leys	-9138
olis	-9139
pack	-9140
raul	-9141
rend	-9142
rier	-9143
rijk	-9144
rine	-9145
rors	-9146
tles	-9147
unta	-9148
▁500	-9149
▁Bra	-9150
▁Cac	-9151
▁Cla	-9152
▁Dar	-9153
▁Ear	-9154
▁Eff	-9155
▁FBI	-9156
▁Fun	-9157
▁GPA	-9158
▁Gal	-9159
▁Ken	-9160
▁Mer	-9161
▁Ren	-9162
▁Rub	-9163
▁Saf	-9164
▁Sic	-9165
▁Str	-9166
▁Sun	-9167
▁Ten	-9168
▁Tra	-9169
▁Wik	-9170
▁asp	-9171
▁dil	-9172
▁dim	-9173
▁dum	-9174
▁kay	-9175
▁lin	-9176
▁oce	-9177
▁pic	-9178
▁sew	-9179
Jones	-9180
agona	-9181
ambia	-9182
amina	-9183
ancou	-9184
cuits	-9185
cular	-9186
eness	-9187
etary	-9188
ginal	-9189
ighed	-9190
iland	-9191
iyadh	-9192
lexia	-9193
quest	-9194
rants	-9195
reeze	-9196
riana	-9197
utive	-9198
uttle	-9199
vings	-9200
▁1000	-9201
▁1991	-9202
▁2001	-9203
▁Afro	-9204
▁BEST	-9205
▁Band	-9206
▁Brad	-9207
▁Brun	-9208
▁CLIL	-9209
▁Chic	-9210
▁Corn	-9211
▁Cuba	-9212
▁Exam	-9213
▁Fore	-9214
▁Hans	-9215
▁Head	-9216
▁Java	-9217
▁Kort	-9218
▁Lady	-9219
▁Lanc	-9220
▁Marc	-9221
▁Math	-9222
▁Moon	-9223
▁Muay	-9224
▁Nick	-9225
▁Norm	-9226
▁Peru	-9227
▁Poll	-9228
▁Puck	-9229
▁SPSU	-9230
▁Soon	-9231
▁Tian	-9232
▁Toul	-9233
▁YOUR	-9234
▁alot	-9235
▁aunt	-9236
▁blow	-9237
▁deer	-9238
▁dirt	-9239
▁flaw	-9240
▁flew	-9241
▁funn	-9242
▁gast	-9243
▁gear	-9244
▁glac	-9245
▁guid	-9246
▁hook	-9247
▁laid	-9248
▁lane	-9249
▁load	-9250
▁prey	-9251
▁prol	-9252
▁quar	-9253
▁rare	-9254
▁reco	-9255
▁rude	-9256
▁sail	-9257
▁salt	-9258
▁sets	-9259
▁tear	-9260
▁tech	-9261
▁vamp	-9262
▁wire	-9263
ackson	-9264
agogue	-9265
cially	-9266
hentic	-9267
inator	-9268
insula	-9269
licity	-9270
ousers	-9271
raulic	-9272
▁Agrig	-9273
▁Based	-9274
▁Bront	-9275
▁Cairo	-9276
▁Jirga	-9277
▁Latin	-9278
▁Mango	-9279
▁Niall	-9280
▁Organ	-9281
▁Saint	-9282
▁Symba	-9283
▁Teach	-9284
▁Texas	-9285
▁alter	-9286
▁angle	-9287
▁bills	-9288
▁cakes	-9289
▁cerem	-9290
▁clues	-9291
▁curse	-9292
▁dealt	-9293
▁domin	-9294
▁estim	-9295
▁fried	-9296
▁glory	-9297
▁grave	-9298
▁greet	-9299
▁hated	-9300
▁hilar	-9301
▁illum	-9302
▁immig	-9303
▁knees	-9304
▁nurse	-9305
▁peter	-9306
▁pharm	-9307
▁portr	-9308
▁queen	-9309
▁roots	-9310
▁sauce	-9311
▁sched	-9312
▁shine	-9313
▁sixth	-9314
▁slept	-9315
▁sofas	-9316
▁spicy	-9317
▁sting	-9318
▁sword	-9319
▁tends	-9320
▁tense	-9321
▁venue	-9322
▁virus	-9323
▁walks	-9324
CLUSION	-9325
enhagen	-9326
entions	-9327
hington	-9328
ounting	-9329
▁Animal	-9330
▁Crimea	-9331
▁Danish	-9332
▁Gambia	-9333
▁Holden	-9334
▁Inside	-9335
▁Marcus	-9336
▁Norway	-9337
▁Palerm	-9338
▁Partic	-9339
▁Report	-9340
▁Theory	-9341
▁Vancou	-9342
▁autumn	-9343
▁bosses	-9344
▁brutal	-9345
▁bypass	-9346
▁chased	-9347
▁commod	-9348
▁courty	-9349
▁dialog	-9350
▁diesel	-9351
▁expose	-9352
▁fights	-9353
▁handed	-9354
▁hiding	-9355
▁intrig	-9356
▁ladies	-9357
▁nodded	-9358
▁noises	-9359
▁oceans	-9360
▁partly	-9361
▁pedest	-9362
▁picnic	-9363
▁poison	-9364
▁porter	-9365
▁purple	-9366
▁puzzle	-9367
▁refuge	-9368
▁rescue	-9369
▁sphere	-9370
▁sporty	-9371
▁tragic	-9372
▁transp	-9373
▁trauma	-9374
▁turtle	-9375
▁unreal	-9376
▁viable	-9377
▁wizard	-9378
esthetic	-9379
mittedly	-9380
▁Antonio	-9381
▁Certain	-9382
▁Culture	-9383
▁Denmark	-9384
▁Faculty	-9385
▁Federal	-9386
▁Jackson	-9387
▁Jogging	-9388
▁Mohamed	-9389
▁Olympic	-9390
▁Schools	-9391
▁Sitting	-9392
▁Theater	-9393
▁Tijuana	-9394
▁Writing	-9395
▁absence	-9396
▁accompl	-9397
▁analyze	-9398
▁archery	-9399
▁blowing	-9400
▁bravery	-9401
▁captain	-9402
▁damages	-9403
▁deposit	-9404
▁dynasty	-9405
▁fluency	-9406
▁heading	-9407
▁heating	-9408
▁instant	-9409
▁jealous	-9410
▁lasting	-9411
▁mixture	-9412
▁opposed	-9413
▁picking	-9414
▁pushing	-9415
▁realism	-9416
▁seeking	-9417
▁slavery	-9418
▁staring	-9419
▁tagline	-9420
▁temples	-9421
▁touches	-9422
▁transit	-9423
▁whoever	-9424
ufficient	-9425
▁Bachelor	-9426
▁Consider	-9427
▁Eurasian	-9428
▁Flamengo	-9429
▁Kortrijk	-9430
▁Princess	-9431
▁Sandrine	-9432
▁Sciences	-9433
▁Thailand	-9434
▁Toulouse	-9435
▁accurate	-9436
▁audition	-9437
▁collapse	-9438
▁commonly	-9439
▁concrete	-9440
▁contacts	-9441
▁declined	-9442
▁delicate	-9443
▁deserved	-9444
▁dyslexia	-9445
▁employer	-9446
▁enhanced	-9447
▁floating	-9448
▁flooding	-9449
▁homeland	-9450
▁incorpor	-9451
▁infinite	-9452
▁interven	-9453
▁invested	-9454
▁landmark	-9455
▁lighting	-9456
▁midnight	-9457
▁motorway	-9458
▁packaged	-9459
▁profound	-9460
▁pursuing	-9461
▁relieved	-9462
▁remained	-9463
▁servants	-9464
▁switched	-9465
▁trousers	-9466
▁upcoming	-9467
▁Agrigento	-9468
▁Alexander	-9469
▁Associate	-9470
▁Communist	-9471
▁Economics	-9472
▁Nutrition	-9473
▁Sebastian	-9474
▁Vancouver	-9475
▁accompany	-9476
▁acquiring	-9477
▁addressed	-9478
▁affection	-9479
▁authentic	-9480
▁beverages	-9481
▁commuters	-9482
▁cultivate	-9483
▁curiosity	-9484
▁discounts	-9485
▁discusses	-9486
▁expertise	-9487
▁hilarious	-9488
▁marvelous	-9489
▁neighbors	-9490
▁organizer	-9491
▁prevented	-9492
▁promoting	-9493
▁returning	-9494
▁strongest	-9495
▁variables	-9496
▁witnessed	-9497
ultaneously	-9498
▁Accounting	-9499
▁Admittedly	-9500
▁CONCLUSION	-9501
▁Copenhagen	-9502
▁Washington	-9503
▁Wonderland	-9504
▁afternoons	-9505
▁classrooms	-9506
▁complement	-9507
▁complexity	-9508
▁continuous	-9509
▁corruption	-9510
▁delightful	-9511
▁extinction	-9512
▁hamburgers	-9513
▁marvellous	-9514
▁originally	-9515
▁paragraphs	-9516
▁peacefully	-9517
▁performing	-9518
▁politician	-9519
▁preferable	-9520
▁refreshing	-9521
▁resolution	-9522
▁ridiculous	-9523
▁smartphone	-9524
▁suggesting	-9525
▁technician	-9526
▁wheelchair	-9527
▁worthwhile	-9528
▁accessories	-9529
▁detrimental	-9530
▁devastating	-9531
▁drastically	-9532
▁exceptional	-9533
▁exhibitions	-9534
▁explanation	-9535
▁inexpensive	-9536
▁institution	-9537
▁interacting	-9538
▁internships	-9539
▁photography	-9540
▁translating	-9541
▁translators	-9542
▁concentrated	-9543
▁coordination	-9544
▁developments	-9545
▁entrepreneur	-9546
▁implementing	-9547
▁intermediate	-9548
▁psychologist	-9549
▁unsuccessful	-9550
▁characterized	-9551
▁complications	-9552
▁entrepreneurs	-9553
▁indispensable	-9554
▁organisations	-9555
▁personalities	-9556
▁revolutionary	-9557
▁unpredictable	-9558
▁administrative	-9559
It	-9560
bu	-9561
dd	-9562
ez	-9563
pm	-9564
500	-9565
ILL	-9566
bor	-9567
bre	-9568
dad	-9569
ede	-9570
emo	-9571
ipl	-9572
iry	-9573
isk	-9574
olf	-9575
sen	-9576
uca	-9577
uts	-9578
wns	-9579
▁29	-9580
▁Ev	-9581
▁Ma	-9582
▁PC	-9583
▁Pu	-9584
▁Ul	-9585
▁et	-9586
▁ow	-9587
▁pa	-9588
▁tu	-9589
▁vo	-9590
agan	-9591
ahol	-9592
arts	-9593
bear	-9594
bour	-9595
comm	-9596
ctic	-9597
ects	-9598
emor	-9599
etro	-9600
fall	-9601
fish	-9602
gles	-9603
ikes	-9604
lled	-9605
onte	-9606
onym	-9607
orse	-9608
owed	-9609
race	-9610
rawn	-9611
ribe	-9612
thly	-9613
when	-9614
▁Alt	-9615
▁Bey	-9616
▁Buc	-9617
▁Chi	-9618
▁Equ	-9619
▁Fif	-9620
▁Fre	-9621
▁Men	-9622
▁Som	-9623
▁Tax	-9624
▁Vac	-9625
▁awe	-9626
▁cul	-9627
▁hip	-9628
▁ric	-9629
▁rit	-9630
agues	-9631
andas	-9632
igent	-9633
storm	-9634
works	-9635
▁Arch	-9636
▁Ball	-9637
▁Bang	-9638
▁Brid	-9639
▁Come	-9640
▁Ever	-9641
▁Fast	-9642
▁Give	-9643
▁Happ	-9644
▁Keep	-9645
▁Lake	-9646
▁Lisa	-9647
▁Nemo	-9648
▁Pass	-9649
▁Stat	-9650
▁Yoga	-9651
▁beam	-9652
▁beds	-9653
▁bone	-9654
▁cans	-9655
▁cant	-9656
▁cock	-9657
▁dorm	-9658
▁ears	-9659
▁enqu	-9660
▁iron	-9661
▁myth	-9662
▁obed	-9663
▁panc	-9664
▁perf	-9665
▁pill	-9666
▁pour	-9667
▁roof	-9668
▁sequ	-9669
▁simp	-9670
▁sout	-9671
▁tank	-9672
▁tomb	-9673
▁unav	-9674
▁unst	-9675
▁wins	-9676
▁worn	-9677
craper	-9678
ection	-9679
escent	-9680
iances	-9681
ieties	-9682
igious	-9683
itches	-9684
minars	-9685
ronics	-9686
skirts	-9687
worthy	-9688
▁Clear	-9689
▁Enjoy	-9690
▁Faith	-9691
▁Messi	-9692
▁Occup	-9693
▁Owing	-9694
▁Print	-9695
▁Sadly	-9696
▁Under	-9697
▁Whats	-9698
▁allev	-9699
▁appet	-9700
▁arena	-9701
▁birdw	-9702
▁blond	-9703
▁boots	-9704
▁crash	-9705
▁depth	-9706
▁diary	-9707
▁drawn	-9708
▁enfor	-9709
▁harsh	-9710
▁heads	-9711
▁lifes	-9712
▁males	-9713
▁pickp	-9714
▁plain	-9715
▁proof	-9716
▁stole	-9717
▁thick	-9718
▁tours	-9719
▁vocal	-9720
▁wines	-9721
▁woods	-9722
atively	-9723
igation	-9724
iratory	-9725
mingham	-9726
respect	-9727
▁Arabic	-9728
▁Carlos	-9729
▁Puerto	-9730
▁Seeing	-9731
▁adding	-9732
▁barbec	-9733
▁begins	-9734
▁boiler	-9735
▁borrow	-9736
▁branch	-9737
▁buffet	-9738
▁catchy	-9739
▁convey	-9740
▁courts	-9741
▁dating	-9742
▁emails	-9743
▁exists	-9744
▁firmly	-9745
▁genius	-9746
▁kindly	-9747
▁manual	-9748
▁marine	-9749
▁murder	-9750
▁panels	-9751
▁perman	-9752
▁posted	-9753
▁pushes	-9754
▁senses	-9755
▁shares	-9756
▁slaves	-9757
▁snakes	-9758
▁squash	-9759
▁struck	-9760
▁sunbat	-9761
▁tasted	-9762
boarding	-9763
roscopes	-9764
▁Ancient	-9765
▁Private	-9766
▁Service	-9767
▁Special	-9768
▁Studies	-9769
▁Traffic	-9770
▁abandon	-9771
▁assured	-9772
▁awarded	-9773
▁bargain	-9774
▁borders	-9775
▁categor	-9776
▁charges	-9777
▁cleaned	-9778
▁coaster	-9779
▁compens	-9780
▁cookies	-9781
▁cottage	-9782
▁couples	-9783
▁depicts	-9784
▁designs	-9785
▁destiny	-9786
▁discrim	-9787
▁dislike	-9788
▁emitted	-9789
▁equally	-9790
▁escaped	-9791
▁exclude	-9792
▁existed	-9793
▁expense	-9794
▁farming	-9795
▁feeding	-9796
▁focuses	-9797
▁furious	-9798
▁hygiene	-9799
▁inspire	-9800
▁licence	-9801
▁luckily	-9802
▁mobiles	-9803
▁monarch	-9804
▁outlook	-9805
▁planted	-9806
▁romance	-9807
▁segment	-9808
▁sounded	-9809
▁stamina	-9810
▁suffers	-9811
▁surveys	-9812
▁terrace	-9813
▁thirsty	-9814
▁touched	-9815
▁travell	-9816
▁watches	-9817
▁wealthy	-9818
mentioned	-9819
▁Engineer	-9820
▁Interest	-9821
▁Richards	-9822
▁Together	-9823
▁Visiting	-9824
▁allergic	-9825
▁ambition	-9826
▁assigned	-9827
▁athletes	-9828
▁attracts	-9829
▁campsite	-9830
▁coloured	-9831
▁contents	-9832
▁dressing	-9833
▁episodes	-9834
▁handling	-9835
▁inviting	-9836
▁laughter	-9837
▁managers	-9838
▁obtained	-9839
▁outgoing	-9840
▁platform	-9841
▁property	-9842
▁punished	-9843
▁referred	-9844
▁scenario	-9845
▁sciences	-9846
▁scooters	-9847
▁seminars	-9848
▁sessions	-9849
▁socially	-9850
▁sometime	-9851
▁sporting	-9852
▁suitcase	-9853
▁updating	-9854
▁Basically	-9855
▁Beautiful	-9856
▁Marketing	-9857
▁affecting	-9858
▁apologies	-9859
▁bathrooms	-9860
▁cellphone	-9861
▁contained	-9862
▁converted	-9863
▁cooperate	-9864
▁detective	-9865
▁excursion	-9866
▁fulfilled	-9867
▁graduates	-9868
▁groceries	-9869
▁housework	-9870
▁hydraulic	-9871
▁outskirts	-9872
▁passenger	-9873
▁photograp	-9874
▁prospects	-9875
▁scientist	-9876
▁teammates	-9877
▁territory	-9878
▁unwilling	-9879
▁varieties	-9880
▁voluntary	-9881
▁Birmingham	-9882
▁appliances	-9883
▁capability	-9884
▁commission	-9885
▁comprehens	-9886
▁compulsory	-9887
▁downstairs	-9888
▁favourable	-9889
▁favourites	-9890
▁graduating	-9891
▁helicopter	-9892
▁respectful	-9893
▁respective	-9894
▁secondhand	-9895
▁skyscraper	-9896
▁stepmother	-9897
▁translated	-9898
▁vulnerable	-9899
▁Advertising	-9900
▁Development	-9901
▁distraction	-9902
▁prestigious	-9903
▁proficiency	-9904
▁requirement	-9905
▁reservation	-9906
▁respiratory	-9907
▁supervision	-9908
▁trustworthy	-9909
▁advantageous	-9910
▁cartographer	-9911
▁conservation	-9912
▁installation	-9913
▁intellectual	-9914
▁intervention	-9915
▁snowboarding	-9916
▁Communication	-9917
▁communicative	-9918
▁consciousness	-9919
▁determination	-9920
▁modernization	-9921
▁simultaneously	-9922
▁understandable	-9923
13	-9924
60	-9925
GE	-9926
IA	-9927
IF	-9928
If	-9929
TH	-9930
UM	-9931
aa	-9932
fo	-9933
hh	-9934
ti	-9935
vy	-9936
zh	-9937
zo	-9938
'(3	-9939
:1:	-9940
AIN	-9941
ANS	-9942
BER	-9943
ECO	-9944
ayl	-9945
bac	-9946
bow	-9947
cal	-9948
ecn	-9949
ete	-9950
hyd	-9951
ieu	-9952
imp	-9953
isl	-9954
jar	-9955
kka	-9956
net	-9957
occ	-9958
oke	-9959
oms	-9960
opp	-9961
oto	-9962
pes	-9963
rav	-9964
rec	-9965
rio	-9966
str	-9967
tit	-9968
uel	-9969
weg	-9970
yre	-9971
▁1-	-9972
▁33	-9973
▁34	-9974
▁AN	-9975
▁Cy	-9976
▁GO	-9977
▁Gi	-9978
▁ID	-9979
▁Kn	-9980
▁ME	-9981
▁Ry	-9982
▁Sl	-9983
▁Ss	-9984
▁ol	-9985
▁ur	-9986
ENTS	-9987
MENT	-9988
ales	-9989
amas	-9990
anca	-9991
colm	-9992
ding	-9993
ella	-9994
eman	-9995
este	-9996
fits	-9997
food	-9998
full	-9999
hedr	-10000
illo	-10001
iner	-10002
ithe	-10003
kers	-10004
miss	-10005
ntil	-10006
oebe	-10007
onia	-10008
onna	-10009
oyal	-10010
play	-10011
rior	-10012
roso	-10013
ruce	-10014
selt	-10015
ueen	-10016
wall	-10017
with	-10018
yard	-10019
yles	-10020
zhou	-10021
▁123	-10022
▁600	-10023
▁Alm	-10024
▁Atl	-10025
▁BLO	-10026
▁Bay	-10027
▁Bol	-10028
▁CLP	-10029
▁Eco	-10030
▁Edo	-10031
▁Ein	-10032
▁Emp	-10033
▁Exc	-10034
▁Eye	-10035
▁Han	-10036
▁Hit	-10037
▁Jak	-10038
▁Jim	-10039
▁Jun	-10040
▁Kab	-10041
▁Lee	-10042
▁Mom	-10043
▁NBA	-10044
▁Pil	-10045
▁Poz	-10046
▁Sri	-10047
▁Tor	-10048
▁ash	-10049
▁bon	-10050
▁ecc	-10051
▁eve	-10052
▁gal	-10053
▁irr	-10054
▁pie	-10055
▁raf	-10056
▁syn	-10057
▁umb	-10058
▁wip	-10059
There	-10060
amond	-10061
ancer	-10062
apani	-10063
apore	-10064
ashed	-10065
audia	-10066
aware	-10067
aylor	-10068
cript	-10069
cuang	-10070
ensus	-10071
eters	-10072
gmail	-10073
hachi	-10074
heast	-10075
iforn	-10076
iller	-10077
itals	-10078
iuses	-10079
izers	-10080
lando	-10081
licit	-10082
nergy	-10083
olesc	-10084
oming	-10085
osaur	-10086
osion	-10087
otism	-10088
owers	-10089
rella	-10090
renal	-10091
roach	-10092
shell	-10093
steps	-10094
stoch	-10095
ulted	-10096
vedra	-10097
▁Amaz	-10098
▁Bond	-10099
▁Cant	-10100
▁Card	-10101
▁Disc	-10102
▁Fact	-10103
▁Ivan	-10104
▁Kiev	-10105
▁Krem	-10106
▁Line	-10107
▁Lost	-10108
▁Miss	-10109
▁Ninh	-10110
▁Prim	-10111
▁Rafa	-10112
▁Shan	-10113
▁Tarr	-10114
▁Team	-10115
▁Tele	-10116
▁Trad	-10117
▁Urug	-10118
▁Vare	-10119
▁Week	-10120
▁Yeah	-10121
▁ampl	-10122
▁appe	-10123
▁aven	-10124
▁bask	-10125
▁blah	-10126
▁cano	-10127
▁corn	-10128
▁cros	-10129
▁defe	-10130
▁dict	-10131
▁dump	-10132
▁file	-10133
▁glor	-10134
▁gyms	-10135
▁hack	-10136
▁hole	-10137
▁inev	-10138
▁jail	-10139
▁liqu	-10140
▁mini	-10141
▁mort	-10142
▁owns	-10143
▁pave	-10144
▁pays	-10145
▁pond	-10146
▁pric	-10147
▁swam	-10148
▁thou	-10149
▁trek	-10150
▁vacu	-10151
▁vent	-10152
▁visa	-10153
▁yeah	-10154
123456	-10155
atical	-10156
aughty	-10157
entric	-10158
etrius	-10159
garita	-10160
hammed	-10161
hesion	-10162
icting	-10163
ipedia	-10164
iscipl	-10165
isoara	-10166
lected	-10167
ontane	-10168
orence	-10169
ourage	-10170
rested	-10171
velope	-10172
▁Amber	-10173
▁Blink	-10174
▁Czech	-10175
▁Delhi	-10176
▁Elect	-10177
▁Found	-10178
▁Happy	-10179
▁Henry	-10180
▁Jacob	-10181
▁Jones	-10182
▁Lagos	-10183
▁Magaz	-10184
▁Media	-10185
▁Molly	-10186
▁Pedro	-10187
▁Ponte	-10188
▁Relax	-10189
▁Royal	-10190
▁SPORT	-10191
▁Steve	-10192
▁TRANS	-10193
▁Tears	-10194
▁Until	-10195
▁Years	-10196
▁adopt	-10197
▁archa	-10198
▁boxes	-10199
▁brush	-10200
▁burst	-10201
▁chain	-10202
▁chill	-10203
▁click	-10204
▁cooks	-10205
▁crack	-10206
▁crown	-10207
▁dimin	-10208
▁drank	-10209
▁dynam	-10210
▁elder	-10211
▁extro	-10212
▁fence	-10213
▁forth	-10214
▁holds	-10215
▁impat	-10216
▁irrig	-10217
▁jumps	-10218
▁loads	-10219
▁lonel	-10220
▁memor	-10221
▁metap	-10222
▁obese	-10223
▁olive	-10224
▁overs	-10225
▁ozone	-10226
▁paced	-10227
▁pagan	-10228
▁penal	-10229
▁pilgr	-10230
▁pupil	-10231
▁rehab	-10232
▁rides	-10233
▁rival	-10234
▁souls	-10235
▁spark	-10236
▁spoil	-10237
▁stays	-10238
▁steam	-10239
▁stret	-10240
▁surge	-10241
▁texts	-10242
▁theft	-10243
▁unatt	-10244
▁unint	-10245
▁union	-10246
▁vitae	-10247
▁vitam	-10248
▁zones	-10249
angzhou	-10250
hedrals	-10251
hesizer	-10252
ifornia	-10253
istence	-10254
itution	-10255
▁Albert	-10256
▁Author	-10257
▁Bazaar	-10258
▁FAVOUR	-10259
▁Global	-10260
▁Hamlet	-10261
▁Helena	-10262
▁Island	-10263
▁Justin	-10264
▁Kisses	-10265
▁League	-10266
▁Lorena	-10267
▁Mostly	-10268
▁Nikita	-10269
▁Phoebe	-10270
▁Potter	-10271
▁Riding	-10272
▁Riyadh	-10273
▁Saving	-10274
▁Sicily	-10275
▁Silver	-10276
▁Spring	-10277
▁Taipei	-10278
▁Taylor	-10279
▁Unless	-10280
▁aspire	-10281
▁assass	-10282
▁bacter	-10283
▁breeze	-10284
▁bricks	-10285
▁burned	-10286
▁casual	-10287
▁client	-10288
▁colder	-10289
▁compon	-10290
▁consci	-10291
▁coping	-10292
▁delays	-10293
▁endure	-10294
▁expend	-10295
▁extrav	-10296
▁farmer	-10297
▁faulty	-10298
▁forbid	-10299
▁gifted	-10300
▁headed	-10301
▁immers	-10302
▁impose	-10303
▁incand	-10304
▁incomp	-10305
▁joyful	-10306
▁majors	-10307
▁merits	-10308
▁microw	-10309
▁multic	-10310
▁pandas	-10311
▁preced	-10312
▁precip	-10313
▁produc	-10314
▁raises	-10315
▁refund	-10316
▁resign	-10317
▁serial	-10318
▁slopes	-10319
▁smiles	-10320
▁speeds	-10321
▁spells	-10322
▁studio	-10323
▁submer	-10324
▁suburb	-10325
▁tackle	-10326
▁trucks	-10327
▁visits	-10328
▁wallet	-10329
▁wisely	-10330
children	-10331
cuangolo	-10332
izations	-10333
ologists	-10334
stochowa	-10335
▁Bolivia	-10336
▁Claudia	-10337
▁Clearly	-10338
▁Clothes	-10339
▁Country	-10340
▁Freeman	-10341
▁Hasselt	-10342
▁Improve	-10343
▁Jakarta	-10344
▁Kremlin	-10345
▁Malcolm	-10346
▁Monster	-10347
▁Sundays	-10348
▁Trapani	-10349
▁Uruguay	-10350
▁academy	-10351
▁actress	-10352
▁adrenal	-10353
▁alright	-10354
▁amusing	-10355
▁antique	-10356
▁arguing	-10357
▁beating	-10358
▁belongs	-10359
▁biology	-10360
▁booklet	-10361
▁compass	-10362
▁compost	-10363
▁confess	-10364
▁convert	-10365
▁debates	-10366
▁diamond	-10367
▁empathy	-10368
▁fainted	-10369
▁formula	-10370
▁gastron	-10371
▁graphic	-10372
▁habitat	-10373
▁illiter	-10374
▁initial	-10375
▁insects	-10376
▁judging	-10377
▁listens	-10378
▁melting	-10379
▁naughty	-10380
▁needing	-10381
▁nursing	-10382
▁orchest	-10383
▁packing	-10384
▁posters	-10385
▁powered	-10386
▁predict	-10387
▁profits	-10388
▁publish	-10389
▁rafting	-10390
▁regrets	-10391
▁shaking	-10392
▁shining	-10393
▁swimmer	-10394
▁thereby	-10395
▁trapped	-10396
▁trolley	-10397
▁unaware	-10398
▁unthink	-10399
▁wanting	-10400
▁warning	-10401
developed	-10402
▁Abortion	-10403
▁Causeway	-10404
▁Cornwall	-10405
▁Einstein	-10406
▁Florence	-10407
▁Lawrence	-10408
▁Leonberg	-10409
▁Machachi	-10410
▁Mohammed	-10411
▁Normally	-10412
▁Playbook	-10413
▁Practice	-10414
▁Pyramids	-10415
▁Remember	-10416
▁Romantic	-10417
▁Teachers	-10418
▁accuracy	-10419
▁adorable	-10420
▁backpack	-10421
▁bargains	-10422
▁bedrooms	-10423
▁catering	-10424
▁champion	-10425
▁controls	-10426
▁dedicate	-10427
▁dinosaur	-10428
▁downside	-10429
▁envelope	-10430
▁explicit	-10431
▁exposure	-10432
▁facebook	-10433
▁finances	-10434
▁forecast	-10435
▁fourteen	-10436
▁geniuses	-10437
▁informal	-10438
▁insulted	-10439
▁kindness	-10440
▁lectures	-10441
▁literate	-10442
▁marginal	-10443
▁meantime	-10444
▁monetary	-10445
▁monsters	-10446
▁nutshell	-10447
▁obstacle	-10448
▁planners	-10449
▁princess	-10450
▁readings	-10451
▁regional	-10452
▁reminded	-10453
▁renowned	-10454
▁reported	-10455
▁restored	-10456
▁resulted	-10457
▁smoothly	-10458
▁somewhat	-10459
▁spacious	-10460
▁tensions	-10461
▁trainers	-10462
▁transmit	-10463
▁treating	-10464
▁tutorial	-10465
▁unwanted	-10466
▁warnings	-10467
▁Alejandro	-10468
▁Bulgarian	-10469
▁Certainly	-10470
▁Demetrius	-10471
▁Francisco	-10472
▁Hopefully	-10473
▁Institute	-10474
▁Lancaster	-10475
▁Margarita	-10476
▁Occupying	-10477
▁Peninsula	-10478
▁Singapore	-10479
▁Taiwanese	-10480
▁Tarragona	-10481
▁Wikipedia	-10482
▁answering	-10483
▁automatic	-10484
▁batteries	-10485
▁bilingual	-10486
▁butterfly	-10487
▁consensus	-10488
▁countless	-10489
▁criticism	-10490
▁educative	-10491
▁exploited	-10492
▁extension	-10493
▁footsteps	-10494
▁inspiring	-10495
▁lifeguard	-10496
▁nervously	-10497
▁policeman	-10498
▁prejudice	-10499
▁priceless	-10500
▁projector	-10501
▁reactions	-10502
▁recognise	-10503
▁reinforce	-10504
▁renovated	-10505
▁resistant	-10506
▁seventeen	-10507
▁sportsman	-10508
▁sportsmen	-10509
▁surprises	-10510
▁suspended	-10511
▁translate	-10512
▁workshops	-10513
isciplinary	-10514
▁California	-10515
▁Particular	-10516
▁Pontevedra	-10517
▁accountant	-10518
▁allocation	-10519
▁apparently	-10520
▁astonished	-10521
▁attributed	-10522
▁cathedrals	-10523
▁complained	-10524
▁disturbing	-10525
▁elementary	-10526
▁exercising	-10527
▁expressing	-10528
▁identities	-10529
▁intentions	-10530
▁loneliness	-10531
▁motorcycle	-10532
▁pedestrian	-10533
▁preference	-10534
▁researches	-10535
▁retirement	-10536
▁simplicity	-10537
▁statements	-10538
▁structured	-10539
▁supervised	-10540
▁supportive	-10541
▁Accordingly	-10542
▁Association	-10543
▁Educational	-10544
▁Marcuangolo	-10545
▁Programming	-10546
▁Researchers	-10547
▁arrangement	-10548
▁assignments	-10549
▁association	-10550
▁celebrating	-10551
▁cleanliness	-10552
▁coincidence	-10553
▁departments	-10554
▁entertained	-10555
▁highlighted	-10556
▁inspiration	-10557
▁interviewed	-10558
▁limitations	-10559
▁segregation	-10560
▁stimulating	-10561
▁synthesizer	-10562
▁unintention	-10563
▁unrealistic	-10564
▁unthinkable	-10565
▁windsurfing	-10566
▁Monsteration	-10567
▁accomplished	-10568
▁constructing	-10569
▁implications	-10570
▁incandescent	-10571
▁publications	-10572
▁transforming	-10573
▁appropriately	-10574
▁civilizations	-10575
▁contradiction	-10576
▁effectiveness	-10577
▁manufacturing	-10578
▁multicultural	-10579
▁photographers	-10580
▁precipitation	-10581
▁representation	-10582
▁congratulations	-10583
",	-10584
rs	-10585
yl	-10586
-12	-10587
ags	-10588
aks	-10589
can	-10590
che	-10591
ept	-10592
fin	-10593
hai	-10594
lar	-10595
nty	-10596
oon	-10597
org	-10598
urt	-10599
ysi	-10600
zes	-10601
▁2-	-10602
▁2.	-10603
▁Ep	-10604
▁Ip	-10605
▁Mu	-10606
▁ON	-10607
▁PS	-10608
▁ye	-10609
Then	-10610
anka	-10611
arer	-10612
avel	-10613
away	-10614
crib	-10615
emed	-10616
ends	-10617
fair	-10618
gers	-10619
hips	-10620
icle	-10621
ilem	-10622
iley	-10623
irre	-10624
lest	-10625
lett	-10626
lims	-10627
ondo	-10628
oody	-10629
pose	-10630
roll	-10631
some	-10632
vern	-10633
▁25-	-10634
▁Aid	-10635
▁Boy	-10636
▁Cir	-10637
▁Est	-10638
▁Few	-10639
▁Nar	-10640
▁Naz	-10641
▁Neg	-10642
▁Noa	-10643
▁Pak	-10644
▁Ref	-10645
▁Sem	-10646
▁Sup	-10647
▁Tol	-10648
▁Top	-10649
▁Van	-10650
▁fog	-10651
▁mos	-10652
▁org	-10653
▁rub	-10654
▁sem	-10655
▁tor	-10656
▁unm	-10657
▁wis	-10658
acing	-10659
arian	-10660
arity	-10661
ateur	-10662
derer	-10663
eenth	-10664
erman	-10665
ghter	-10666
icion	-10667
iment	-10668
inity	-10669
organ	-10670
ranty	-10671
ronic	-10672
urely	-10673
uster	-10674
wondo	-10675
▁5000	-10676
▁Boat	-10677
▁Bone	-10678
▁Earl	-10679
▁Game	-10680
▁Holy	-10681
▁Lead	-10682
▁Live	-10683
▁Meet	-10684
▁Much	-10685
▁Prov	-10686
▁Snow	-10687
▁dent	-10688
▁diff	-10689
▁dipl	-10690
▁dull	-10691
▁envi	-10692
▁frog	-10693
▁gray	-10694
▁hass	-10695
▁hung	-10696
▁knee	-10697
▁mate	-10698
▁pink	-10699
▁publ	-10700
▁pump	-10701
▁rode	-10702
▁root	-10703
▁todd	-10704
▁wore	-10705
arlett	-10706
ashing	-10707
ealand	-10708
ecraft	-10709
encing	-10710
erials	-10711
escrib	-10712
herent	-10713
iments	-10714
ipping	-10715
keeper	-10716
lessly	-10717
terior	-10718
ushing	-10719
▁Daily	-10720
▁Enter	-10721
▁Grace	-10722
▁Jonas	-10723
▁Place	-10724
▁Seoul	-10725
▁Space	-10726
▁Spani	-10727
▁Stand	-10728
▁Train	-10729
▁Turin	-10730
▁apple	-10731
▁bears	-10732
▁blank	-10733
▁bunch	-10734
▁cheek	-10735
▁civic	-10736
▁couch	-10737
▁defic	-10738
▁depri	-10739
▁dilem	-10740
▁dwell	-10741
▁etern	-10742
▁fails	-10743
▁fifth	-10744
▁hides	-10745
▁irrit	-10746
▁jewel	-10747
▁lacks	-10748
▁loans	-10749
▁moose	-10750
▁overl	-10751
▁physi	-10752
▁posit	-10753
▁prime	-10754
▁prone	-10755
▁props	-10756
▁prosp	-10757
▁rigid	-10758
▁roofs	-10759
▁rough	-10760
▁ruins	-10761
▁shall	-10762
▁steel	-10763
▁tempt	-10764
▁threw	-10765
▁wound	-10766
itating	-10767
licated	-10768
ountain	-10769
▁Indust	-10770
▁Mendez	-10771
▁Muslim	-10772
▁Really	-10773
▁Safety	-10774
▁Trains	-10775
▁Winter	-10776
▁advers	-10777
▁avenue	-10778
▁bamboo	-10779
▁blamed	-10780
▁boxing	-10781
▁busses	-10782
▁cancel	-10783
▁chores	-10784
▁circle	-10785
▁column	-10786
▁confir	-10787
▁counts	-10788
▁dances	-10789
▁deadly	-10790
▁dispat	-10791
▁essays	-10792
▁finals	-10793
▁genres	-10794
▁gotten	-10795
▁heaven	-10796
▁junior	-10797
▁laughs	-10798
▁length	-10799
▁newest	-10800
▁output	-10801
▁permit	-10802
▁portra	-10803
▁proves	-10804
▁racing	-10805
▁rating	-10806
▁regain	-10807
▁reject	-10808
▁robbed	-10809
▁sample	-10810
▁scarce	-10811
▁scored	-10812
▁shades	-10813
▁shifts	-10814
▁sleeps	-10815
▁spends	-10816
▁strive	-10817
▁tablet	-10818
▁throws	-10819
▁toilet	-10820
▁tracks	-10821
▁vacuum	-10822
▁voices	-10823
▁wastes	-10824
gestions	-10825
volution	-10826
▁Alexand	-10827
▁Oceania	-10828
▁Orlando	-10829
▁Project	-10830
▁Univers	-10831
▁adolesc	-10832
▁amateur	-10833
▁amongst	-10834
▁assumed	-10835
▁boiling	-10836
▁budgets	-10837
▁charism	-10838
▁chasing	-10839
▁colored	-10840
▁crashes	-10841
▁dustbin	-10842
▁enemies	-10843
▁enlight	-10844
▁ethical	-10845
▁flooded	-10846
▁funfair	-10847
▁harvest	-10848
▁implies	-10849
▁imposed	-10850
▁incomes	-10851
▁inherit	-10852
▁lacking	-10853
▁leagues	-10854
▁masterp	-10855
▁mission	-10856
▁noodles	-10857
▁nowhere	-10858
▁origins	-10859
▁phrases	-10860
▁praying	-10861
▁pressed	-10862
▁ranging	-10863
▁relaxes	-10864
▁repeats	-10865
▁revenge	-10866
▁reverse	-10867
▁scoring	-10868
▁seafood	-10869
▁servant	-10870
▁smarter	-10871
▁storing	-10872
▁summers	-10873
▁sympath	-10874
▁tasting	-10875
▁tightly	-10876
▁unavoid	-10877
▁webpage	-10878
▁wishing	-10879
ationally	-10880
▁Everyday	-10881
▁Italians	-10882
▁advising	-10883
▁canoeing	-10884
▁cheating	-10885
▁cleaners	-10886
▁consumed	-10887
▁criminal	-10888
▁deciding	-10889
▁destroys	-10890
▁divorced	-10891
▁educates	-10892
▁ensuring	-10893
▁extravag	-10894
▁focusing	-10895
▁funniest	-10896
▁handicap	-10897
▁mentions	-10898
▁murdered	-10899
▁murderer	-10900
▁observed	-10901
▁offences	-10902
▁officers	-10903
▁opposing	-10904
▁overlook	-10905
▁overview	-10906
▁politics	-10907
▁prepares	-10908
▁prevents	-10909
▁receives	-10910
▁repeated	-10911
▁sacrific	-10912
▁secondly	-10913
▁starters	-10914
▁supplies	-10915
▁supports	-10916
▁sweating	-10917
▁terminal	-10918
▁thankful	-10919
▁touching	-10920
▁trekking	-10921
▁unlikely	-10922
▁utilized	-10923
▁warranty	-10924
▁wondered	-10925
escribable	-10926
ologically	-10927
▁Cristiano	-10928
▁Direction	-10929
▁actresses	-10930
▁apologize	-10931
▁athletics	-10932
▁champions	-10933
▁complaint	-10934
▁decreases	-10935
▁desperate	-10936
▁eliminate	-10937
▁expresses	-10938
▁followers	-10939
▁frequency	-10940
▁imaginary	-10941
▁interfere	-10942
▁intervene	-10943
▁locations	-10944
▁machinery	-10945
▁medicines	-10946
▁negatives	-10947
▁organizes	-10948
▁populated	-10949
▁repeating	-10950
▁responses	-10951
▁shoulders	-10952
▁spotlight	-10953
▁storyline	-10954
▁strategic	-10955
▁suspicion	-10956
▁touristic	-10957
▁whispered	-10958
▁Apparently	-10959
▁Faithfully	-10960
▁Throughout	-10961
▁Volleyball	-10962
▁attracting	-10963
▁boundaries	-10964
▁classified	-10965
▁conscience	-10966
▁dedication	-10967
▁demolition	-10968
▁enterprise	-10969
▁excursions	-10970
▁footprints	-10971
▁mentioning	-10972
▁motorbikes	-10973
▁obligation	-10974
▁practition	-10975
▁restricted	-10976
▁selections	-10977
▁separating	-10978
▁solidarity	-10979
▁spectators	-10980
▁stimulates	-10981
▁summertime	-10982
▁undertaken	-10983
▁Considering	-10984
▁astonishing	-10985
▁collections	-10986
▁competitors	-10987
▁conclusions	-10988
▁fingermarks	-10989
▁illustrated	-10990
▁necessities	-10991
▁populations	-10992
▁protagonist	-10993
▁punishments	-10994
▁recognition	-10995
▁tournaments	-10996
▁unconscious	-10997
▁Metropolitan	-10998
▁birdwatching	-10999
▁catastrophic	-11000
▁experiencing	-11001
▁insufficient	-11002
▁postgraduate	-11003
▁skateboarded	-11004
▁temperatures	-11005
▁tremendously	-11006
▁championships	-11007
▁disappearance	-11008
▁indescribable	-11009
▁neighborhoods	-11010
▁discrimination	-11011
▁entertainments	-11012
."	-11013
15	-11014
AD	-11015
CC	-11016
CO	-11017
CS	-11018
FL	-11019
GR	-11020
ID	-11021
LD	-11022
My	-11023
NN	-11024
OS	-11025
TT	-11026
UD	-11027
cz	-11028
fr	-11029
gl	-11030
ho	-11031
ht	-11032
jo	-11033
td	-11034
zu	-11035
ASA	-11036
EAR	-11037
ECA	-11038
ERY	-11039
ILY	-11040
ISH	-11041
IVE	-11042
OPP	-11043
OUT	-11044
PEC	-11045
aka	-11046
ali	-11047
aro	-11048
aus	-11049
dae	-11050
ele	-11051
eni	-11052
gly	-11053
had	-11054
hot	-11055
iaz	-11056
idd	-11057
ika	-11058
izu	-11059
izz	-11060
lam	-11061
lit	-11062
lli	-11063
lus	-11064
mel	-11065
nan	-11066
nia	-11067
oma	-11068
oum	-11069
rah	-11070
rez	-11071
riz	-11072
roe	-11073
sea	-11074
tic	-11075
ttp	-11076
ugs	-11077
una	-11078
yna	-11079
▁1.	-11080
▁3-	-11081
▁36	-11082
▁53	-11083
▁56	-11084
▁AB	-11085
▁CP	-11086
▁KD	-11087
▁Kr	-11088
▁Os	-11089
▁PM	-11090
▁Py	-11091
▁TU	-11092
▁Tu	-11093
▁Ve	-11094
▁iP	-11095
IEND	-11096
MMMM	-11097
ODUC	-11098
adio	-11099
ampl	-11100
anne	-11101
aran	-11102
arat	-11103
aren	-11104
arin	-11105
asha	-11106
asse	-11107
avor	-11108
azed	-11109
bris	-11110
coni	-11111
crap	-11112
emia	-11113
enos	-11114
erie	-11115
etus	-11116
eyes	-11117
ghan	-11118
gust	-11119
haka	-11120
heed	-11121
hill	-11122
iago	-11123
iami	-11124
iana	-11125
ibri	-11126
ican	-11127
icia	-11128
inta	-11129
iyom	-11130
laga	-11131
ldom	-11132
leta	-11133
leym	-11134
lied	-11135
ogan	-11136
olas	-11137
olem	-11138
ombo	-11139
omic	-11140
ommy	-11141
ooks	-11142
orky	-11143
otyp	-11144
ovie	-11145
phia	-11146
psey	-11147
rama	-11148
real	-11149
reds	-11150
renc	-11151
rina	-11152
rous	-11153
sson	-11154
ulth	-11155
vard	-11156
veli	-11157
verb	-11158
wery	-11159
xual	-11160
zhen	-11161
▁400	-11162
▁ABC	-11163
▁Amy	-11164
▁Ast	-11165
▁Bat	-11166
▁Bet	-11167
▁Caf	-11168
▁Det	-11169
▁Dub	-11170
▁Ell	-11171
▁FAM	-11172
▁Fri	-11173
▁GMC	-11174
▁GPS	-11175
▁Gab	-11176
▁Hal	-11177
▁Hig	-11178
▁Jos	-11179
▁Jud	-11180
▁Kal	-11181
▁Lar	-11182
▁Ltd	-11183
▁Mik	-11184
▁Mot	-11185
▁NCS	-11186
▁Nad	-11187
▁Nic	-11188
▁OUR	-11189
▁Phe	-11190
▁Pir	-11191
▁Ram	-11192
▁Rio	-11193
▁Row	-11194
▁Sid	-11195
▁Sug	-11196
▁Syn	-11197
▁Tru	-11198
▁Viv	-11199
▁alt	-11200
▁apt	-11201
▁bio	-11202
▁bis	-11203
▁bot	-11204
▁bum	-11205
▁dat	-11206
▁der	-11207
▁ech	-11208
▁fut	-11209
▁htc	-11210
▁lit	-11211
▁lou	-11212
▁nin	-11213
▁pha	-11214
▁raw	-11215
▁scr	-11216
▁ted	-11217
▁vet	-11218
▁vot	-11219
▁wha	-11220
ECOMM	-11221
aceut	-11222
achev	-11223
achov	-11224
adeer	-11225
adian	-11226
aghet	-11227
alled	-11228
andom	-11229
anies	-11230
assie	-11231
atomy	-11232
attoo	-11233
ayoum	-11234
bohyd	-11235
cials	-11236
encer	-11237
enger	-11238
enton	-11239
erity	-11240
essim	-11241
gance	-11242
hants	-11243
henst	-11244
ianne	-11245
iazza	-11246
icked	-11247
ifier	-11248
ignty	-11249
isive	-11250
itory	-11251
obile	-11252
ochem	-11253
olite	-11254
ompei	-11255
oping	-11256
orted	-11257
ouses	-11258
ovice	-11259
proof	-11260
rdoba	-11261
ricia	-11262
riors	-11263
roban	-11264
ships	-11265
templ	-11266
ucing	-11267
ugged	-11268
▁1960	-11269
▁1999	-11270
▁2016	-11271
▁Aria	-11272
▁Bene	-11273
▁Benn	-11274
▁Cauc	-11275
▁Chef	-11276
▁Cord	-11277
▁Cruz	-11278
▁Dist	-11279
▁Elle	-11280
▁Euro	-11281
▁Eyre	-11282
▁Fall	-11283
▁Fame	-11284
▁Feel	-11285
▁Forb	-11286
▁Gaga	-11287
▁Grey	-11288
▁Hosp	-11289
▁Hugo	-11290
▁Hund	-11291
▁INTR	-11292
▁Jean	-11293
▁Kids	-11294
▁Kyiv	-11295
▁Kyle	-11296
▁LIVE	-11297
▁Lara	-11298
▁Link	-11299
▁Lomb	-11300
▁Lora	-11301
▁Lord	-11302
▁Luhr	-11303
▁Mall	-11304
▁Marg	-11305
▁Mimi	-11306
▁NASA	-11307
▁Neap	-11308
▁Nice	-11309
▁Nort	-11310
▁Open	-11311
▁Parc	-11312
▁Peer	-11313
▁Plus	-11314
▁Prop	-11315
▁Road	-11316
▁Rock	-11317
▁Ryan	-11318
▁Self	-11319
▁Silv	-11320
▁Sind	-11321
▁Sout	-11322
▁THAT	-11323
▁Talk	-11324
▁Tick	-11325
▁Tris	-11326
▁USSR	-11327
▁VERY	-11328
▁Vill	-11329
▁Wait	-11330
▁Warm	-11331
▁Wars	-11332
▁Wolf	-11333
▁amph	-11334
▁bush	-11335
▁cabs	-11336
▁cops	-11337
▁cows	-11338
▁dawn	-11339
▁drum	-11340
▁extr	-11341
▁feas	-11342
▁folk	-11343
▁hats	-11344
▁hers	-11345
▁hike	-11346
▁hugs	-11347
▁jack	-11348
▁jerk	-11349
▁lact	-11350
▁maze	-11351
▁mild	-11352
▁nurt	-11353
▁oral	-11354
▁oven	-11355
▁perp	-11356
▁pile	-11357
▁ping	-11358
▁pong	-11359
▁porn	-11360
▁pose	-11361
▁puma	-11362
▁quot	-11363
▁rust	-11364
▁saus	-11365
▁semi	-11366
▁skip	-11367
▁stew	-11368
▁stun	-11369
▁tecn	-11370
▁trap	-11371
▁trop	-11372
▁ugly	-11373
▁vacc	-11374
▁vote	-11375
▁warn	-11376
▁zero	-11377
OPPING	-11378
alucia	-11379
boards	-11380
ellery	-11381
ibrium	-11382
iminal	-11383
inding	-11384
iovasc	-11385
irelli	-11386
isable	-11387
letion	-11388
leyman	-11389
minist	-11390
ockets	-11391
onnect	-11392
oosing	-11393
ormina	-11394
otypes	-11395
riched	-11396
rilled	-11397
rowded	-11398
teenth	-11399
ubbing	-11400
urable	-11401
usthal	-11402
venile	-11403
▁Adult	-11404
▁Aires	-11405
▁Angel	-11406
▁Apple	-11407
▁Brown	-11408
▁Bruno	-11409
▁Carly	-11410
▁Casar	-11411
▁Crazy	-11412
▁Dhaka	-11413
▁Djurs	-11414
▁Donau	-11415
▁Drama	-11416
▁Filip	-11417
▁Flori	-11418
▁Gasol	-11419
▁Golem	-11420
▁Gorky	-11421
▁Holid	-11422
▁Johan	-11423
▁Jorge	-11424
▁Kabaa	-11425
▁Kabul	-11426
▁Kater	-11427
▁Kevin	-11428
▁Kinta	-11429
▁Kiyom	-11430
▁Kunta	-11431
▁Kyoto	-11432
▁Mario	-11433
▁Memor	-11434
▁Metal	-11435
▁Miami	-11436
▁Monte	-11437
▁Pampl	-11438
▁Party	-11439
▁Radio	-11440
▁Romeo	-11441
▁Sochi	-11442
▁Thang	-11443
▁Thuan	-11444
▁Vatic	-11445
▁Women	-11446
▁adore	-11447
▁aired	-11448
▁alike	-11449
▁angel	-11450
▁audio	-11451
▁bacon	-11452
▁badge	-11453
▁blown	-11454
▁devil	-11455
▁dissu	-11456
▁divid	-11457
▁dread	-11458
▁drops	-11459
▁exert	-11460
▁fired	-11461
▁fract	-11462
▁gazed	-11463
▁hikes	-11464
▁idiom	-11465
▁idols	-11466
▁indig	-11467
▁ineff	-11468
▁inhib	-11469
▁insec	-11470
▁lanes	-11471
▁liber	-11472
▁lingu	-11473
▁lists	-11474
▁loses	-11475
▁metab	-11476
▁nasty	-11477
▁noted	-11478
▁owing	-11479
▁patri	-11480
▁perse	-11481
▁plaza	-11482
▁postp	-11483
▁recon	-11484
▁rocks	-11485
▁scrat	-11486
▁slide	-11487
▁snake	-11488
▁snowy	-11489
▁split	-11490
▁spons	-11491
▁squee	-11492
▁steak	-11493
▁stere	-11494
▁truck	-11495
▁twist	-11496
▁unlim	-11497
▁waist	-11498
▁woken	-11499
aborate	-11500
aghetti	-11501
athetic	-11502
comings	-11503
crapers	-11504
idently	-11505
ilation	-11506
ishment	-11507
itative	-11508
ivalent	-11509
kingham	-11510
lusconi	-11511
ocksund	-11512
oration	-11513
rations	-11514
reasing	-11515
riction	-11516
ronting	-11517
ulthood	-11518
▁Amador	-11519
▁Amazon	-11520
▁Andrea	-11521
▁Athens	-11522
▁Baluch	-11523
▁Buenos	-11524
▁Cachar	-11525
▁Casino	-11526
▁Change	-11527
▁Cooper	-11528
▁Copper	-11529
▁Course	-11530
▁Energy	-11531
▁FAMILY	-11532
▁FRIEND	-11533
▁Fellow	-11534
▁Fossil	-11535
▁Groban	-11536
▁Higher	-11537
▁Junior	-11538
▁Kadeer	-11539
▁Lublin	-11540
▁Luther	-11541
▁Method	-11542
▁Monter	-11543
▁Morgan	-11544
▁Phelps	-11545
▁Piazza	-11546
▁Planet	-11547
▁Prague	-11548
▁RECOMM	-11549
▁Sexual	-11550
▁Strate	-11551
▁Vianne	-11552
▁Writer	-11553
▁animat	-11554
▁annual	-11555
▁archae	-11556
▁argues	-11557
▁awards	-11558
▁bitter	-11559
▁breast	-11560
▁candle	-11561
▁centim	-11562
▁clinic	-11563
▁cloudy	-11564
▁comply	-11565
▁condem	-11566
▁corrid	-11567
▁cosmet	-11568
▁crafts	-11569
▁creepy	-11570
▁cursed	-11571
▁debris	-11572
▁divide	-11573
▁dramas	-11574
▁emerge	-11575
▁eradic	-11576
▁evolve	-11577
▁extend	-11578
▁feared	-11579
▁fertil	-11580
▁fillet	-11581
▁finest	-11582
▁forums	-11583
▁gaming	-11584
▁hatred	-11585
▁heated	-11586
▁hectic	-11587
▁herbal	-11588
▁hooked	-11589
▁hostel	-11590
▁housew	-11591
▁improv	-11592
▁issued	-11593
▁kicked	-11594
▁leaned	-11595
▁learns	-11596
▁linear	-11597
▁liquid	-11598
▁liveli	-11599
▁locals	-11600
▁marked	-11601
▁miners	-11602
▁nieces	-11603
▁organs	-11604
▁owling	-11605
▁parach	-11606
▁patrol	-11607
▁pessim	-11608
▁pestic	-11609
▁photoc	-11610
▁potion	-11611
▁propag	-11612
▁rabbit	-11613
▁random	-11614
▁relies	-11615
▁revise	-11616
▁rolled	-11617
▁rowing	-11618
▁rumors	-11619
▁scores	-11620
▁seldom	-11621
▁sighed	-11622
▁skirts	-11623
▁solves	-11624
▁sovere	-11625
▁steady	-11626
▁stroke	-11627
▁subsid	-11628
▁subtit	-11629
▁tattoo	-11630
▁tender	-11631
▁tricky	-11632
▁unwind	-11633
▁vanish	-11634
▁volume	-11635
▁warmth	-11636
▁yields	-11637
ODUCTION	-11638
adelphia	-11639
ertation	-11640
henstain	-11641
question	-11642
▁Adriana	-11643
▁Catalan	-11644
▁Charity	-11645
▁Charlie	-11646
▁Chicago	-11647
▁Company	-11648
▁Dancing	-11649
▁Dempsey	-11650
▁Farrell	-11651
▁Foreign	-11652
▁Fridays	-11653
▁Grandma	-11654
▁Hongdae	-11655
▁Inspect	-11656
▁Janeiro	-11657
▁Linings	-11658
▁Madonna	-11659
▁Marsala	-11660
▁Mathieu	-11661
▁Medical	-11662
▁Muslims	-11663
▁Present	-11664
▁Rasheed	-11665
▁Rubbish	-11666
▁Sharing	-11667
▁Swedish	-11668
▁Trieste	-11669
▁Waiting	-11670
▁Walking	-11671
▁Western	-11672
▁admired	-11673
▁adverts	-11674
▁aerobic	-11675
▁ambient	-11676
▁appeals	-11677
▁asserts	-11678
▁autonom	-11679
▁bathing	-11680
▁branded	-11681
▁breathe	-11682
▁canteen	-11683
▁cherish	-11684
▁closest	-11685
▁compact	-11686
▁corrupt	-11687
▁delayed	-11688
▁dentist	-11689
▁desires	-11690
▁devoted	-11691
▁dismiss	-11692
▁dispose	-11693
▁eagerly	-11694
▁fertile	-11695
▁figures	-11696
▁grazing	-11697
▁happend	-11698
▁hosting	-11699
▁locally	-11700
▁mansion	-11701
▁massage	-11702
▁michael	-11703
▁obliged	-11704
▁oppress	-11705
▁palaces	-11706
▁panting	-11707
▁paralle	-11708
▁passive	-11709
▁postman	-11710
▁potions	-11711
▁praised	-11712
▁proverb	-11713
▁radical	-11714
▁referee	-11715
▁reforms	-11716
▁rehabil	-11717
▁retired	-11718
▁shelves	-11719
▁slammed	-11720
▁spiders	-11721
▁spotted	-11722
▁starter	-11723
▁strikes	-11724
▁superst	-11725
▁technol	-11726
▁tedious	-11727
▁thinner	-11728
▁tonight	-11729
▁turtles	-11730
▁utilize	-11731
▁vanilla	-11732
▁victory	-11733
▁wonders	-11734
▁wrapped	-11735
berschool	-11736
▁Administ	-11737
▁Canadian	-11738
▁Champion	-11739
▁Criminal	-11740
▁Cristina	-11741
▁Economic	-11742
▁Fernando	-11743
▁Hospital	-11744
▁Hundreds	-11745
▁Kiyomizu	-11746
▁Magazine	-11747
▁Pamplona	-11748
▁Patricia	-11749
▁SHOPPING	-11750
▁Santiago	-11751
▁Scarlett	-11752
▁Standard	-11753
▁Suleyman	-11754
▁Taormina	-11755
▁Teaching	-11756
▁Whatsapp	-11757
▁amphithe	-11758
▁analysed	-11759
▁annually	-11760
▁arrested	-11761
▁arrogant	-11762
▁bacteria	-11763
▁basement	-11764
▁behaving	-11765
▁blessing	-11766
▁bothered	-11767
▁cohesion	-11768
▁communal	-11769
▁composed	-11770
▁contempl	-11771
▁covering	-11772
▁cuisines	-11773
▁damaging	-11774
▁deceived	-11775
▁dispense	-11776
▁earnings	-11777
▁emphasis	-11778
▁enriched	-11779
▁enrolled	-11780
▁eternity	-11781
▁expanded	-11782
▁flavours	-11783
▁foremost	-11784
▁fountain	-11785
▁generous	-11786
▁glaciers	-11787
▁globally	-11788
▁graceful	-11789
▁homemade	-11790
▁homesick	-11791
▁hopeless	-11792
▁illusion	-11793
▁imported	-11794
▁interpre	-11795
▁invasion	-11796
▁leaflets	-11797
▁listener	-11798
▁literary	-11799
▁mainland	-11800
▁metaphor	-11801
▁minimize	-11802
▁mistreat	-11803
▁moderate	-11804
▁muscular	-11805
▁nineteen	-11806
▁notebook	-11807
▁pancakes	-11808
▁paradise	-11809
▁perceive	-11810
▁potatoes	-11811
▁producer	-11812
▁promotes	-11813
▁recovery	-11814
▁relocate	-11815
▁settings	-11816
▁spontane	-11817
▁stealing	-11818
▁substant	-11819
▁suppress	-11820
▁tropical	-11821
▁umbrella	-11822
▁vampires	-11823
bohydrates	-11824
iovascular	-11825
itesurfing	-11826
▁Andalucia	-11827
▁Assistant	-11828
▁Catalonia	-11829
▁Clausthal	-11830
▁Community	-11831
▁Companies	-11832
▁FAVOURITE	-11833
▁Forbidden	-11834
▁Gorbachev	-11835
▁Gorbachov	-11836
▁Guangzhou	-11837
▁Historico	-11838
▁Midsummer	-11839
▁RECOMMEND	-11840
▁Synagogue	-11841
▁TRANSPORT	-11842
▁Timisoara	-11843
▁Tradition	-11844
▁Traveling	-11845
▁Wrestling	-11846
▁addictive	-11847
▁adulthood	-11848
▁aesthetic	-11849
▁amplifier	-11850
▁arranging	-11851
▁backwards	-11852
▁basically	-11853
▁benefited	-11854
▁cognitive	-11855
▁component	-11856
▁daughters	-11857
▁deadlines	-11858
▁depletion	-11859
▁downsides	-11860
▁eccentric	-11861
▁elaborate	-11862
▁endurance	-11863
▁equations	-11864
▁explosion	-11865
▁expressed	-11866
▁favorites	-11867
▁floorball	-11868
▁framework	-11869
▁galleries	-11870
▁hardships	-11871
▁impatient	-11872
▁intensive	-11873
▁kidnapped	-11874
▁meanwhile	-11875
▁neglected	-11876
▁organisms	-11877
▁paramount	-11878
▁patiently	-11879
▁permanent	-11880
▁pregnancy	-11881
▁provoking	-11882
▁purchases	-11883
▁reproduce	-11884
▁schedules	-11885
▁scratches	-11886
▁selecting	-11887
▁spaghetti	-11888
▁succeeded	-11889
▁travelers	-11890
▁traveller	-11891
▁treehouse	-11892
▁unlimited	-11893
▁vacancies	-11894
▁villagers	-11895
▁withstand	-11896
▁Berlusconi	-11897
▁Federation	-11898
▁Foundation	-11899
▁Neapolitan	-11900
▁Richardson	-11901
▁accumulate	-11902
▁admiration	-11903
▁astronauts	-11904
▁autographs	-11905
▁capacities	-11906
▁chocolates	-11907
▁collecting	-11908
▁collective	-11909
▁compassion	-11910
▁connecting	-11911
▁continuing	-11912
▁contradict	-11913
▁depressing	-11914
▁dimensions	-11915
▁disconnect	-11916
▁ecosystems	-11917
▁footballer	-11918
▁functional	-11919
▁illiterate	-11920
▁indirectly	-11921
▁inevitable	-11922
▁irrational	-11923
▁lifestyles	-11924
▁livelihood	-11925
▁objectives	-11926
▁obligatory	-11927
▁pensioners	-11928
▁permission	-11929
▁pharmaceut	-11930
▁philosophy	-11931
▁preventing	-11932
▁productive	-11933
▁proficient	-11934
▁sculptures	-11935
▁translator	-11936
▁unquestion	-11937
▁Baluchistan	-11938
▁Copperfield	-11939
▁Immediately	-11940
▁Mathematics	-11941
▁Michenstain	-11942
▁Microscopes	-11943
▁Suggestions	-11944
▁accommodate	-11945
▁butterflies	-11946
▁circulation	-11947
▁collaborate	-11948
▁confortable	-11949
▁continually	-11950
▁desperately	-11951
▁distinction	-11952
▁distinguish	-11953
▁expenditure	-11954
▁frustrating	-11955
▁grammatical	-11956
▁influential	-11957
▁initiatives	-11958
▁interrupted	-11959
▁observation	-11960
▁overwhelmed	-11961
▁predictable	-11962
▁skyscrapers	-11963
▁sovereignty	-11964
▁specialists	-11965
▁televisions	-11966
▁transported	-11967
▁INTRODUCTION	-11968
▁Particularly	-11969
▁Philadelphia	-11970
▁animatronics	-11971
▁complexities	-11972
▁consistently	-11973
▁corporations	-11974
▁disagreement	-11975
▁dissertation	-11976
▁fingerprints	-11977
▁friendliness	-11978
▁interactions	-11979
▁metropolitan	-11980
▁occasionally	-11981
▁preparations	-11982
▁protagonists	-11983
▁recommending	-11984
▁shortcomings	-11985
▁urbanization	-11986
▁companionship	-11987
▁complementary	-11988
▁nationalities	-11989
▁cardiovascular	-11990
▁rehabilitation	-11991
▁underdeveloped	-11992
▁unintentionally	-11993
95	-11994
:'	-11995
IM	-11996
OL	-11997
bb	-11998
hg	-11999
hs	-12000
ju	-12001
wa	-12002
AKE	-12003
ANG	-12004
VER	-12005
You	-12006
ado	-12007
ape	-12008
ati	-12009
awl	-12010
bab	-12011
but	-12012
dam	-12013
eds	-12014
fit	-12015
hma	-12016
hum	-12017
igs	-12018
isc	-12019
kyo	-12020
rod	-12021
spr	-12022
ule	-12023
you	-12024
▁49	-12025
▁5-	-12026
▁Av	-12027
▁DJ	-12028
▁EL	-12029
▁IM	-12030
▁Up	-12031
▁oh	-12032
▁ub	-12033
▁vs	-12034
ELTS	-12035
agog	-12036
alaj	-12037
ante	-12038
brid	-12039
eeds	-12040
enic	-12041
eple	-12042
hist	-12043
iary	-12044
isor	-12045
izza	-12046
omin	-12047
onge	-12048
oral	-12049
oust	-12050
regn	-12051
rena	-12052
resa	-12053
zens	-12054
▁194	-12055
▁Arm	-12056
▁Bon	-12057
▁Deb	-12058
▁Exp	-12059
▁Gum	-12060
▁Ira	-12061
▁Nam	-12062
▁Own	-12063
▁Rod	-12064
▁Ult	-12065
▁Use	-12066
▁WAS	-12067
▁apr	-12068
▁cer	-12069
▁cow	-12070
▁dry	-12071
▁fer	-12072
▁fis	-12073
▁fol	-12074
▁glo	-12075
▁haz	-12076
▁hel	-12077
▁mop	-12078
▁row	-12079
▁sne	-12080
▁som	-12081
▁spa	-12082
▁spy	-12083
▁unl	-12084
:1:10	-12085
Every	-12086
arted	-12087
asses	-12088
build	-12089
ernal	-12090
gered	-12091
impse	-12092
inder	-12093
leted	-12094
lfare	-12095
lined	-12096
olism	-12097
retty	-12098
riers	-12099
rones	-12100
ushes	-12101
▁Ages	-12102
▁Blue	-12103
▁Care	-12104
▁Chel	-12105
▁Chem	-12106
▁Coke	-12107
▁Gard	-12108
▁Ipad	-12109
▁Kenn	-12110
▁Know	-12111
▁Okay	-12112
▁Shen	-12113
▁Tour	-12114
▁agit	-12115
▁amen	-12116
▁ants	-12117
▁bang	-12118
▁bout	-12119
▁bowl	-12120
▁bust	-12121
▁clar	-12122
▁coin	-12123
▁cust	-12124
▁dual	-12125
▁ende	-12126
▁exit	-12127
▁eyed	-12128
▁figh	-12129
▁fits	-12130
▁gods	-12131
▁hits	-12132
▁lend	-12133
▁obso	-12134
▁quiz	-12135
▁rank	-12136
▁rays	-12137
▁rect	-12138
▁remo	-12139
▁sang	-12140
▁sate	-12141
▁slic	-12142
▁tale	-12143
▁tran	-12144
▁yout	-12145
Donald	-12146
anches	-12147
assing	-12148
cribed	-12149
etroot	-12150
hanged	-12151
ichael	-12152
inates	-12153
irable	-12154
istern	-12155
itment	-12156
lation	-12157
loaded	-12158
mentia	-12159
omfort	-12160
people	-12161
quered	-12162
retain	-12163
rified	-12164
spaper	-12165
spring	-12166
stance	-12167
stream	-12168
ulator	-12169
urated	-12170
venirs	-12171
▁Build	-12172
▁Chris	-12173
▁Defin	-12174
▁Downt	-12175
▁IELTS	-12176
▁Impro	-12177
▁Miser	-12178
▁Money	-12179
▁Noman	-12180
▁Panda	-12181
▁Power	-12182
▁Sleep	-12183
▁Still	-12184
▁Syria	-12185
▁Usual	-12186
▁abund	-12187
▁afore	-12188
▁alien	-12189
▁alley	-12190
▁beers	-12191
▁bully	-12192
▁burnt	-12193
▁chats	-12194
▁cheep	-12195
▁clown	-12196
▁equil	-12197
▁femin	-12198
▁fills	-12199
▁flats	-12200
▁furry	-12201
▁gifts	-12202
▁insul	-12203
▁kills	-12204
▁knife	-12205
▁lamps	-12206
▁lasts	-12207
▁layer	-12208
▁mails	-12209
▁menus	-12210
▁meter	-12211
▁orbit	-12212
▁oxide	-12213
▁punch	-12214
▁reads	-12215
▁recre	-12216
▁scarf	-12217
▁sends	-12218
▁sings	-12219
▁smash	-12220
▁socio	-12221
▁unite	-12222
▁valor	-12223
▁vault	-12224
agement	-12225
ductive	-12226
ectives	-12227
ekwondo	-12228
espread	-12229
ificant	-12230
sterdam	-12231
▁Depend	-12232
▁Diesel	-12233
▁Except	-12234
▁Naples	-12235
▁Owning	-12236
▁Pretty	-12237
▁Runner	-12238
▁Simple	-12239
▁Sophia	-12240
▁Sounds	-12241
▁Surely	-12242
▁Toluca	-12243
▁attain	-12244
▁backed	-12245
▁banned	-12246
▁behalf	-12247
▁bullet	-12248
▁calmed	-12249
▁combat	-12250
▁divers	-12251
▁dozens	-12252
▁ghosts	-12253
▁google	-12254
▁guided	-12255
▁harbor	-12256
▁intrud	-12257
▁judged	-12258
▁keeper	-12259
▁kitten	-12260
▁launch	-12261
▁layout	-12262
▁locked	-12263
▁logist	-12264
▁mouths	-12265
▁occupy	-12266
▁phrase	-12267
▁purify	-12268
▁ranked	-12269
▁recipe	-12270
▁reform	-12271
▁regist	-12272
▁remedy	-12273
▁robber	-12274
▁seated	-12275
▁settle	-12276
▁shorts	-12277
▁splend	-12278
▁statue	-12279
▁sweaty	-12280
▁traged	-12281
▁trials	-12282
▁uncont	-12283
▁underc	-12284
▁update	-12285
▁wisdom	-12286
▁writes	-12287
ceptable	-12288
▁100,000	-12289
▁Arabian	-12290
▁Biology	-12291
▁Castell	-12292
▁Chelsea	-12293
▁Gotland	-12294
▁Keeping	-12295
▁Knowing	-12296
▁Outside	-12297
▁Pacific	-12298
▁Primary	-12299
▁Somalia	-12300
▁Vatican	-12301
▁approve	-12302
▁ashamed	-12303
▁battery	-12304
▁cartoon	-12305
▁caution	-12306
▁clearer	-12307
▁compose	-12308
▁derived	-12309
▁dilemma	-12310
▁display	-12311
▁divides	-12312
▁earthqu	-12313
▁entails	-12314
▁extinct	-12315
▁flowing	-12316
▁glimpse	-12317
▁grocery	-12318
▁heavily	-12319
▁honesty	-12320
▁hurting	-12321
▁indulge	-12322
▁kissing	-12323
▁leaning	-12324
▁mindset	-12325
▁minimal	-12326
▁operate	-12327
▁partial	-12328
▁perfume	-12329
▁pretend	-12330
▁puzzles	-12331
▁ranking	-12332
▁refresh	-12333
▁resorts	-12334
▁reveals	-12335
▁rewards	-12336
▁seventh	-12337
▁sharply	-12338
▁shuttle	-12339
▁snorkel	-12340
▁spokesp	-12341
▁squares	-12342
▁threats	-12343
▁thunder	-12344
▁turbine	-12345
▁uncanny	-12346
▁viewing	-12347
▁virtues	-12348
▁welfare	-12349
echnology	-12350
▁Advanced	-12351
▁Maintain	-12352
▁Pakistan	-12353
▁Printing	-12354
▁Shenzhen	-12355
▁Vacation	-12356
▁Victoria	-12357
▁acquaint	-12358
▁admiring	-12359
▁aerobics	-12360
▁agencies	-12361
▁agitated	-12362
▁analyzed	-12363
▁annivers	-12364
▁apparent	-12365
▁appetite	-12366
▁barbecue	-12367
▁beetroot	-12368
▁beginner	-12369
▁branches	-12370
▁ceremony	-12371
▁coaching	-12372
▁connects	-12373
▁conquest	-12374
▁creature	-12375
▁crossing	-12376
▁daunting	-12377
▁division	-12378
▁dwellers	-12379
▁enforced	-12380
▁excluded	-12381
▁exterior	-12382
▁freezing	-12383
▁granting	-12384
▁handball	-12385
▁imperial	-12386
▁indicate	-12387
▁maximize	-12388
▁morality	-12389
▁obsolete	-12390
▁painters	-12391
▁pavement	-12392
▁pleasing	-12393
▁provokes	-12394
▁realizes	-12395
▁recorded	-12396
▁reserves	-12397
▁respects	-12398
▁searched	-12399
▁sensible	-12400
▁shopahol	-12401
▁smallest	-12402
▁starving	-12403
▁supplier	-12404
▁telecomm	-12405
▁terrific	-12406
▁threaten	-12407
▁tolerant	-12408
▁vitamins	-12409
▁wandered	-12410
▁watering	-12411
ignificant	-12412
unications	-12413
▁Amsterdam	-12414
▁Architect	-12415
▁Curiously	-12416
▁Danderyds	-12417
▁Egyptians	-12418
▁Newspaper	-12419
▁Pollution	-12420
▁Stocksund	-12421
▁advancing	-12422
▁amenities	-12423
▁assertion	-12424
▁associate	-12425
▁belonging	-12426
▁biologist	-12427
▁bothering	-12428
▁combining	-12429
▁confirmed	-12430
▁confusing	-12431
▁conquered	-12432
▁disagrees	-12433
▁displayed	-12434
▁economies	-12435
▁entretain	-12436
▁estimated	-12437
▁exchanged	-12438
▁exclusive	-12439
▁expanding	-12440
▁fortnight	-12441
▁geography	-12442
▁guitarist	-12443
▁incidents	-12444
▁inherited	-12445
▁justified	-12446
▁kilometre	-12447
▁mechanism	-12448
▁microwave	-12449
▁migration	-12450
▁offspring	-12451
▁perceived	-12452
▁philosoph	-12453
▁precisely	-12454
▁privately	-12455
▁promising	-12456
▁refreshed	-12457
▁residence	-12458
▁responded	-12459
▁secretary	-12460
▁segregate	-12461
▁stimulate	-12462
▁unpopular	-12463
▁violation	-12464
▁wandering	-12465
▁worsening	-12466
▁Concerning	-12467
▁Definitely	-12468
▁Geographic	-12469
▁Miserables	-12470
▁Revolution	-12471
▁Wordsworth	-12472
▁assistants	-12473
▁competence	-12474
▁complaints	-12475
▁completing	-12476
▁correction	-12477
▁curricular	-12478
▁designated	-12479
▁detectives	-12480
▁discomfort	-12481
▁discourage	-12482
▁economists	-12483
▁hesitation	-12484
▁initiative	-12485
▁interviews	-12486
▁intriguing	-12487
▁mechanisms	-12488
▁patriotism	-12489
▁possession	-12490
▁preserving	-12491
▁properties	-12492
▁questioned	-12493
▁respecting	-12494
▁separation	-12495
▁spacecraft	-12496
▁stretching	-12497
▁substitute	-12498
▁terrifying	-12499
▁threatened	-12500
▁widespread	-12501
▁affirmation	-12502
▁approaching	-12503
▁commercials	-12504
▁contaminate	-12505
▁determining	-12506
▁expectation	-12507
▁extravagant	-12508
▁foundations	-12509
▁involvement	-12510
▁manufacture	-12511
▁meaningless	-12512
▁motorcycles	-12513
▁noticeboard	-12514
▁problematic	-12515
▁proposition	-12516
▁punctuality	-12517
▁researching	-12518
▁socialising	-12519
▁unavoidable	-12520
▁willingness	-12521
▁capabilities	-12522
▁demonstrates	-12523
▁significance	-12524
▁spokesperson	-12525
▁carbohydrates	-12526
▁collaboration	-12527
▁concentrating	-12528
▁conversations	-12529
▁corresponding	-12530
▁independently	-12531
▁knowledgeable	-12532
▁administration	-12533
▁aforementioned	-12534
▁characteristic	-12535
▁investigations	-12536
▁pharmaceutical	-12537
).	-12538
-1	-12539
-3	-12540
.0	-12541
10	-12542
39	-12543
45	-12544
51	-12545
54	-12546
55	-12547
90	-12548
:"	-12549
AE	-12550
At	-12551
FF	-12552
GG	-12553
GL	-12554
HD	-12555
HL	-12556
IB	-12557
II	-12558
IK	-12559
KE	-12560
LL	-12561
OO	-12562
OW	-12563
Oh	-12564
PM	-12565
UB	-12566
VD	-12567
WE	-12568
YS	-12569
hu	-12570
ih	-12571
mn	-12572
ni	-12573
uj	-12574
vs	-12575
▁x	-12576
200	-12577
:15	-12578
AGE	-12579
ANO	-12580
ARD	-12581
ARE	-12582
AVE	-12583
CIL	-12584
CKS	-12585
EVE	-12586
FOR	-12587
For	-12588
ILM	-12589
INO	-12590
ITH	-12591
NTR	-12592
OST	-12593
PCC	-12594
RIS	-12595
RON	-12596
UBL	-12597
USE	-12598
aca	-12599
acc	-12600
anz	-12601
api	-12602
arg	-12603
bas	-12604
box	-12605
ema	-12606
esk	-12607
eto	-12608
gee	-12609
hop	-12610
iac	-12611
iat	-12612
ida	-12613
idy	-12614
iln	-12615
ker	-12616
lif	-12617
nad	-12618
nez	-12619
nga	-12620
nib	-12621
non	-12622
nte	-12623
ogw	-12624
oly	-12625
orc	-12626
orr	-12627
ouz	-12628
owe	-12629
pay	-12630
pro	-12631
rog	-12632
sey	-12633
udd	-12634
uez	-12635
var	-12636
vet	-12637
vis	-12638
wal	-12639
was	-12640
▁00	-12641
▁4-	-12642
▁62	-12643
▁95	-12644
▁AG	-12645
▁AV	-12646
▁BO	-12647
▁ED	-12648
▁FS	-12649
▁Ik	-12650
▁Ja	-12651
▁Ju	-12652
▁KM	-12653
▁Ka	-12654
▁Ku	-12655
▁OM	-12656
▁Ol	-12657
▁Oz	-12658
▁PE	-12659
▁PO	-12660
▁Px	-12661
▁Sn	-12662
▁TI	-12663
▁UP	-12664
▁Um	-12665
▁Vr	-12666
▁WW	-12667
▁Wi	-12668
▁mr	-12669
▁py	-12670
▁si	-12671
▁ty	-12672
....	-12673
6666	-12674
:2:1	-12675
What	-12676
agle	-12677
alst	-12678
alus	-12679
alys	-12680
ania	-12681
arah	-12682
arel	-12683
arna	-12684
arus	-12685
asta	-12686
aste	-12687
atan	-12688
atch	-12689
atra	-12690
auce	-12691
avar	-12692
awes	-12693
axos	-12694
azar	-12695
bean	-12696
beat	-12697
berl	-12698
bert	-12699
born	-12700
ccac	-12701
celo	-12702
chas	-12703
chin	-12704
chor	-12705
club	-12706
cony	-12707
cuit	-12708
dund	-12709
elta	-12710
ener	-12711
eous	-12712
esos	-12713
etic	-12714
fill	-12715
flix	-12716
ghai	-12717
greg	-12718
hail	-12719
hana	-12720
hone	-12721
hony	-12722
igor	-12723
ilee	-12724
indy	-12725
ione	-12726
iors	-12727
ipes	-12728
ipot	-12729
iram	-12730
isen	-12731
ivil	-12732
ixty	-12733
leon	-12734
llab	-12735
lock	-12736
mond	-12737
nels	-12738
nity	-12739
occo	-12740
ocen	-12741
odor	-12742
olar	-12743
oles	-12744
ombs	-12745
onto	-12746
opst	-12747
orig	-12748
otal	-12749
otte	-12750
oyle	-12751
plex	-12752
pret	-12753
quet	-12754
ruff	-12755
seen	-12756
sole	-12757
suit	-12758
test	-12759
thew	-12760
thur	-12761
uite	-12762
ulco	-12763
ummy	-12764
umps	-12765
unte	-12766
uper	-12767
uzzi	-12768
velt	-12769
wear	-12770
xton	-12771
xxxx	-12772
ydia	-12773
zent	-12774
▁12-	-12775
▁250	-12776
▁350	-12777
▁450	-12778
▁Aff	-12779
▁Age	-12780
▁Alc	-12781
▁Aqu	-12782
▁Aud	-12783
▁Bou	-12784
▁CAE	-12785
▁COU	-12786
▁Cec	-12787
▁DEL	-12788
▁DVD	-12789
▁Dim	-12790
▁Div	-12791
▁Duc	-12792
▁ESL	-12793
▁Eas	-12794
▁Ecu	-12795
▁Ent	-12796
▁Era	-12797
▁Eve	-12798
▁FIN	-12799
▁Fig	-12800
▁Foc	-12801
▁Fro	-12802
▁Gil	-12803
▁Gra	-12804
▁Guy	-12805
▁Had	-12806
▁Hud	-12807
▁Hur	-12808
▁Inc	-12809
▁Jav	-12810
▁Job	-12811
▁Kar	-12812
▁Kim	-12813
▁Kuw	-12814
▁LOO	-12815
▁Lam	-12816
▁Lan	-12817
▁Lec	-12818
▁MUx	-12819
▁MUy	-12820
▁McC	-12821
▁Mig	-12822
▁NOT	-12823
▁NOW	-12824
▁Nig	-12825
▁Oko	-12826
▁PRO	-12827
▁Pel	-12828
▁Pic	-12829
▁Rid	-12830
▁Roc	-12831
▁Ron	-12832
▁SPA	-12833
▁Sky	-12834
▁Slo	-12835
▁Sok	-12836
▁Sot	-12837
▁Sou	-12838
▁Sul	-12839
▁Suz	-12840
▁Tag	-12841
▁Tat	-12842
▁Tre	-12843
▁UND	-12844
▁WAT	-12845
▁WHO	-12846
▁WHY	-12847
▁Yin	-12848
▁bun	-12849
▁bye	-12850
▁cel	-12851
▁dia	-12852
▁esc	-12853
▁fox	-12854
▁fuc	-12855
▁gay	-12856
▁gyp	-12857
▁hac	-12858
▁hid	-12859
▁icy	-12860
▁idl	-12861
▁lap	-12862
▁lip	-12863
▁los	-12864
▁mud	-12865
▁nav	-12866
▁nic	-12867
▁pod	-12868
▁rot	-12869
▁rul	-12870
▁sam	-12871
▁tac	-12872
▁tel	-12873
▁une	-12874
▁vel	-12875
▁voy	-12876
▁wax	-12877
CILIT	-12878
GLISH	-12879
UBLIC	-12880
VIRON	-12881
abaya	-12882
abria	-12883
ackin	-12884
andum	-12885
arded	-12886
ashes	-12887
aside	-12888
asons	-12889
assim	-12890
aysia	-12891
ayton	-12892
bacco	-12893
bella	-12894
cases	-12895
cedes	-12896
celer	-12897
chure	-12898
ciety	-12899
comes	-12900
crast	-12901
elect	-12902
elson	-12903
elves	-12904
enezu	-12905
enjoy	-12906
enous	-12907
enter	-12908
ertha	-12909
etery	-12910
feren	-12911
grano	-12912
groom	-12913
henko	-12914
heres	-12915
idate	-12916
ifies	-12917
iftly	-12918
iless	-12919
ilies	-12920
ilton	-12921
image	-12922
inent	-12923
inous	-12924
insic	-12925
ipher	-12926
iseum	-12927
ittee	-12928
ivial	-12929
ivist	-12930
ivoli	-12931
kings	-12932
laved	-12933
lland	-12934
llite	-12935
maker	-12936
mouth	-12937
nibal	-12938
oleta	-12939
olina	-12940
ombok	-12941
oment	-12942
omple	-12943
oneka	-12944
onged	-12945
onial	-12946
onise	-12947
ontin	-12948
opher	-12949
orage	-12950
ordan	-12951
ossal	-12952
othet	-12953
otour	-12954
ourne	-12955
psons	-12956
readm	-12957
reced	-12958
reira	-12959
ribly	-12960
sterm	-12961
tched	-12962
ucena	-12963
ueens	-12964
umbai	-12965
utiny	-12966
venia	-12967
venza	-12968
wayne	-12969
▁1994	-12970
▁2005	-12971
▁4:00	-12972
▁Acap	-12973
▁Azul	-12974
▁BECA	-12975
▁Bart	-12976
▁Bath	-12977
▁Beat	-12978
▁Benz	-12979
▁Bern	-12980
▁Casa	-12981
▁Chap	-12982
▁Code	-12983
▁Cold	-12984
▁Conf	-12985
▁Cong	-12986
▁Cook	-12987
▁Dana	-12988
▁Dome	-12989
▁Duty	-12990
▁FILM	-12991
▁Five	-12992
▁Folk	-12993
▁Foxy	-12994
▁Fund	-12995
▁GOOD	-12996
▁Gall	-12997
▁Gold	-12998
▁Grad	-12999
▁Guad	-13000
▁Half	-13001
▁Help	-13002
▁Hogw	-13003
▁Hous	-13004
▁Hugh	-13005
▁Hung	-13006
▁Init	-13007
▁Iran	-13008
▁Iron	-13009
▁Khan	-13010
▁Lala	-13011
▁Luis	-13012
▁Luke	-13013
▁Ming	-13014
▁Muse	-13015
▁Nich	-13016
▁Noir	-13017
▁Para	-13018
▁Penn	-13019
▁Piot	-13020
▁Poor	-13021
▁Pros	-13022
▁Rick	-13023
▁Room	-13024
▁Rosa	-13025
▁SOME	-13026
▁STUD	-13027
▁Sebu	-13028
▁Send	-13029
▁Serb	-13030
▁Side	-13031
▁Skat	-13032
▁Soft	-13033
▁Spot	-13034
▁Star	-13035
▁Supp	-13036
▁Sust	-13037
▁THAN	-13038
▁Tamp	-13039
▁Test	-13040
▁Unga	-13041
▁Vigo	-13042
▁Viln	-13043
▁WILL	-13044
▁WITH	-13045
▁Wide	-13046
▁Yuan	-13047
▁abol	-13048
▁ache	-13049
▁acid	-13050
▁airy	-13051
▁alim	-13052
▁bake	-13053
▁boyc	-13054
▁bulk	-13055
▁caut	-13056
▁cere	-13057
▁damn	-13058
▁drew	-13059
▁econ	-13060
▁edge	-13061
▁emig	-13062
▁expe	-13063
▁fait	-13064
▁fict	-13065
▁flag	-13066
▁fold	-13067
▁fool	-13068
▁gaze	-13069
▁gest	-13070
▁grat	-13071
▁grin	-13072
▁guts	-13073
▁hips	-13074
▁holy	-13075
▁http	-13076
▁jazz	-13077
▁kaka	-13078
▁kara	-13079
▁labs	-13080
▁lamp	-13081
▁maid	-13082
▁melt	-13083
▁navy	-13084
▁neat	-13085
▁numb	-13086
▁nurs	-13087
▁nuts	-13088
▁odds	-13089
▁papp	-13090
▁pest	-13091
▁phob	-13092
▁pier	-13093
▁pony	-13094
▁pork	-13095
▁pupp	-13096
▁puts	-13097
▁raid	-13098
▁reag	-13099
▁rube	-13100
▁saga	-13101
▁samp	-13102
▁scat	-13103
▁seab	-13104
▁seve	-13105
▁sexy	-13106
▁shoe	-13107
▁sims	-13108
▁sins	-13109
▁sket	-13110
▁smog	-13111
▁stab	-13112
▁stum	-13113
▁suic	-13114
▁sukh	-13115
▁sund	-13116
▁syst	-13117
▁tert	-13118
▁thri	-13119
▁toes	-13120
▁tons	-13121
▁toug	-13122
▁tune	-13123
▁unac	-13124
▁urge	-13125
▁vert	-13126
▁whit	-13127
'(2:2:	-13128
ATIONS	-13129
abelle	-13130
active	-13131
alysis	-13132
aratus	-13133
ardini	-13134
asures	-13135
cepted	-13136
erican	-13137
estyle	-13138
eteria	-13139
harest	-13140
houses	-13141
ilight	-13142
inform	-13143
irrels	-13144
istent	-13145
isters	-13146
leanor	-13147
merman	-13148
ometer	-13149
orcist	-13150
ourite	-13151
payers	-13152
planes	-13153
plings	-13154
ptions	-13155
rosoft	-13156
senada	-13157
umatic	-13158
urring	-13159
ustina	-13160
vation	-13161
wegian	-13162
▁10.00	-13163
▁12:00	-13164
▁ABOUT	-13165
▁Aalst	-13166
▁Again	-13167
▁Ailee	-13168
▁Aisha	-13169
▁Analy	-13170
▁Angie	-13171
▁Arabs	-13172
▁Autom	-13173
▁Balla	-13174
▁Beyaz	-13175
▁Bruce	-13176
▁Bunny	-13177
▁Campo	-13178
▁Caulf	-13179
▁Chain	-13180
▁Chair	-13181
▁Check	-13182
▁Chich	-13183
▁Civil	-13184
▁Cloud	-13185
▁Clown	-13186
▁Clubs	-13187
▁Coyle	-13188
▁Creat	-13189
▁Cupid	-13190
▁Danny	-13191
▁Drive	-13192
▁Dubai	-13193
▁Eleon	-13194
▁Email	-13195
▁Gaudi	-13196
▁Giant	-13197
▁Guido	-13198
▁Heavy	-13199
▁Helen	-13200
▁Horse	-13201
▁INTER	-13202
▁Imple	-13203
▁Innov	-13204
▁Islam	-13205
▁Jesus	-13206
▁Jimmy	-13207
▁Lanka	-13208
▁Learn	-13209
▁Linda	-13210
▁Lives	-13211
▁Lydia	-13212
▁Magda	-13213
▁Marco	-13214
▁Marta	-13215
▁Marte	-13216
▁Miley	-13217
▁Milla	-13218
▁Mindy	-13219
▁Motor	-13220
▁Mount	-13221
▁Movie	-13222
▁Naxos	-13223
▁Padel	-13224
▁Parks	-13225
▁Parli	-13226
▁Paulo	-13227
▁Rules	-13228
▁Sauce	-13229
▁Sense	-13230
▁Seven	-13231
▁Shops	-13232
▁Siles	-13233
▁Simon	-13234
▁Sindh	-13235
▁Stela	-13236
▁TRAIN	-13237
▁Tamil	-13238
▁Thous	-13239
▁Trent	-13240
▁Trust	-13241
▁Venus	-13242
▁Vinci	-13243
▁Woody	-13244
▁aging	-13245
▁aloud	-13246
▁ample	-13247
▁arbit	-13248
▁assem	-13249
▁autop	-13250
▁awake	-13251
▁beard	-13252
▁belly	-13253
▁bloss	-13254
▁bombs	-13255
▁bunny	-13256
▁cared	-13257
▁codes	-13258
▁compr	-13259
▁cones	-13260
▁crawl	-13261
▁cryst	-13262
▁detox	-13263
▁diast	-13264
▁draws	-13265
▁eagle	-13266
▁elite	-13267
▁embod	-13268
▁enlar	-13269
▁faded	-13270
▁fatal	-13271
▁fires	-13272
▁flaws	-13273
▁flies	-13274
▁fluid	-13275
▁fries	-13276
▁frogs	-13277
▁galax	-13278
▁grief	-13279
▁groom	-13280
▁guilt	-13281
▁hills	-13282
▁honey	-13283
▁hopes	-13284
▁ignor	-13285
▁imper	-13286
▁inhum	-13287
▁inton	-13288
▁lawns	-13289
▁lifts	-13290
▁lorry	-13291
▁madam	-13292
▁maker	-13293
▁messy	-13294
▁misch	-13295
▁misle	-13296
▁mixes	-13297
▁monot	-13298
▁myths	-13299
▁nause	-13300
▁packs	-13301
▁pains	-13302
▁panel	-13303
▁panor	-13304
▁patio	-13305
▁pesos	-13306
▁pills	-13307
▁pilot	-13308
▁poles	-13309
▁postc	-13310
▁posts	-13311
▁prote	-13312
▁purse	-13313
▁regul	-13314
▁reign	-13315
▁rescu	-13316
▁reson	-13317
▁rigor	-13318
▁rings	-13319
▁rites	-13320
▁roast	-13321
▁roomm	-13322
▁roses	-13323
▁sadly	-13324
▁scold	-13325
▁seeds	-13326
▁shade	-13327
▁shake	-13328
▁sheer	-13329
▁shiny	-13330
▁sixty	-13331
▁sizes	-13332
▁socks	-13333
▁spice	-13334
▁spine	-13335
▁stall	-13336
▁stare	-13337
▁steep	-13338
▁stric	-13339
▁swear	-13340
▁twins	-13341
▁unden	-13342
▁unity	-13343
▁utter	-13344
▁vigor	-13345
▁wakes	-13346
▁wanna	-13347
▁waved	-13348
▁wings	-13349
▁wiped	-13350
▁wiser	-13351
▁witch	-13352
▁wrist	-13353
'(2:2:2	-13354
ablanca	-13355
actions	-13356
assador	-13357
autions	-13358
berlake	-13359
ccaccio	-13360
chained	-13361
iceship	-13362
imental	-13363
inerary	-13364
ocencio	-13365
omplete	-13366
orarily	-13367
otesque	-13368
ractive	-13369
rolling	-13370
ropolis	-13371
through	-13372
uggling	-13373
ydiving	-13374
zentrum	-13375
▁......	-13376
▁10,000	-13377
▁123456	-13378
▁Adults	-13379
▁Advent	-13380
▁Afghan	-13381
▁Arthur	-13382
▁Austen	-13383
▁Autumn	-13384
▁BLOCKS	-13385
▁Baltic	-13386
▁Bassie	-13387
▁Bennet	-13388
▁Bertha	-13389
▁Better	-13390
▁COUNTR	-13391
▁Camden	-13392
▁Cities	-13393
▁Comedy	-13394
▁Crafts	-13395
▁Cruise	-13396
▁Dublin	-13397
▁Empire	-13398
▁Excuse	-13399
▁Fayoum	-13400
▁Figure	-13401
▁Flower	-13402
▁Frozen	-13403
▁Instit	-13404
▁Johnny	-13405
▁Jordan	-13406
▁Lanjar	-13407
▁Lombok	-13408
▁Mackin	-13409
▁Manche	-13410
▁Mathew	-13411
▁Monroe	-13412
▁Mother	-13413
▁Moving	-13414
▁Mumbai	-13415
▁Napoli	-13416
▁Nelson	-13417
▁Norouz	-13418
▁Office	-13419
▁PUBLIC	-13420
▁Paxton	-13421
▁Places	-13422
▁Pompei	-13423
▁Poznan	-13424
▁Prices	-13425
▁Prince	-13426
▁Prison	-13427
▁REPORT	-13428
▁Recent	-13429
▁Reilly	-13430
▁Saying	-13431
▁Serena	-13432
▁Soneka	-13433
▁Unfort	-13434
▁Varela	-13435
▁Venezu	-13436
▁Visual	-13437
▁Vrinda	-13438
▁Warsaw	-13439
▁acquis	-13440
▁adored	-13441
▁affair	-13442
▁agents	-13443
▁aiming	-13444
▁alleys	-13445
▁amused	-13446
▁anchor	-13447
▁anemia	-13448
▁anonym	-13449
▁antiqu	-13450
▁avoids	-13451
▁banana	-13452
▁belive	-13453
▁biking	-13454
▁bloody	-13455
▁boiled	-13456
▁builds	-13457
▁bungee	-13458
▁bushes	-13459
▁cabins	-13460
▁carpet	-13461
▁cavern	-13462
▁charts	-13463
▁colony	-13464
▁copied	-13465
▁deemed	-13466
▁defeat	-13467
▁denied	-13468
▁donkey	-13469
▁errors	-13470
▁estate	-13471
▁ethics	-13472
▁export	-13473
▁fading	-13474
▁filter	-13475
▁fishes	-13476
▁fluids	-13477
▁foetus	-13478
▁formul	-13479
▁fossil	-13480
▁foster	-13481
▁frater	-13482
▁geomet	-13483
▁gladly	-13484
▁greedy	-13485
▁guards	-13486
▁guidel	-13487
▁hacker	-13488
▁hassle	-13489
▁hearts	-13490
▁heroic	-13491
▁hosted	-13492
▁hybrid	-13493
▁iconic	-13494
▁impede	-13495
▁inject	-13496
▁insane	-13497
▁intake	-13498
▁interd	-13499
▁jailed	-13500
▁joking	-13501
▁kidnap	-13502
▁legisl	-13503
▁listed	-13504
▁louder	-13505
▁marble	-13506
▁melted	-13507
▁midday	-13508
▁mining	-13509
▁misuse	-13510
▁multid	-13511
▁muscle	-13512
▁newcom	-13513
▁nitric	-13514
▁notion	-13515
▁observ	-13516
▁outlet	-13517
▁paddle	-13518
▁paella	-13519
▁paints	-13520
▁parcel	-13521
▁pepper	-13522
▁perpet	-13523
▁pillow	-13524
▁poeple	-13525
▁priest	-13526
▁puplic	-13527
▁racism	-13528
▁redund	-13529
▁resume	-13530
▁richer	-13531
▁ritual	-13532
▁rubber	-13533
▁rustic	-13534
▁salads	-13535
▁scruff	-13536
▁sensit	-13537
▁sexist	-13538
▁shield	-13539
▁slides	-13540
▁slogan	-13541
▁smoked	-13542
▁solder	-13543
▁sorrow	-13544
▁sought	-13545
▁speedy	-13546
▁storey	-13547
▁strain	-13548
▁stream	-13549
▁tenses	-13550
▁tested	-13551
▁towels	-13552
▁towers	-13553
▁treadm	-13554
▁tunnel	-13555
▁united	-13556
▁upward	-13557
▁venues	-13558
▁verbal	-13559
▁voyage	-13560
▁waking	-13561
▁worthy	-13562
▁youths	-13563
CILITIES	-13564
ationale	-13565
bearable	-13566
ceptible	-13567
hensible	-13568
kenstein	-13569
opsticks	-13570
otourism	-13571
ribution	-13572
ructures	-13573
▁200,000	-13574
▁Anatomy	-13575
▁Andalus	-13576
▁Andreas	-13577
▁Andreia	-13578
▁Anthony	-13579
▁Anyways	-13580
▁Azucena	-13581
▁BECAUSE	-13582
▁Belarus	-13583
▁Blanche	-13584
▁Bridget	-13585
▁Cecilia	-13586
▁Chachas	-13587
▁Clayton	-13588
▁Cookery	-13589
▁Cordoba	-13590
▁Cunning	-13591
▁Discuss	-13592
▁Downton	-13593
▁ENGLISH	-13594
▁ENVIRON	-13595
▁Eastern	-13596
▁Ecuador	-13597
▁Eleanor	-13598
▁Finland	-13599
▁Friberg	-13600
▁Galicia	-13601
▁Getting	-13602
▁Holland	-13603
▁Housing	-13604
▁Install	-13605
▁Johnson	-13606
▁Kitchen	-13607
▁Kongers	-13608
▁Linares	-13609
▁Mandela	-13610
▁Mankind	-13611
▁Marcelo	-13612
▁Matthew	-13613
▁Mikhail	-13614
▁Mondays	-13615
▁Monthly	-13616
▁Natalia	-13617
▁Nations	-13618
▁Netflix	-13619
▁Network	-13620
▁Palerma	-13621
▁Palermo	-13622
▁Paulina	-13623
▁Pilates	-13624
▁Players	-13625
▁Popular	-13626
▁Princip	-13627
▁Purpose	-13628
▁Regular	-13629
▁Seaside	-13630
▁Shuttle	-13631
▁Silence	-13632
▁Society	-13633
▁Spencer	-13634
▁Success	-13635
▁Suzanne	-13636
▁Tampico	-13637
▁Teacher	-13638
▁Tonight	-13639
▁Toronto	-13640
▁Vikings	-13641
▁Village	-13642
▁Vilnius	-13643
▁acceler	-13644
▁accused	-13645
▁advices	-13646
▁apprent	-13647
▁babysit	-13648
▁balcony	-13649
▁barrier	-13650
▁baskets	-13651
▁batting	-13652
▁blender	-13653
▁blessed	-13654
▁briefly	-13655
▁brushed	-13656
▁burying	-13657
▁chemist	-13658
▁collage	-13659
▁console	-13660
▁crushed	-13661
▁daytime	-13662
▁dischar	-13663
▁disgust	-13664
▁disrupt	-13665
▁dynamic	-13666
▁elected	-13667
▁emerged	-13668
▁enforce	-13669
▁ensures	-13670
▁explode	-13671
▁flavors	-13672
▁forgave	-13673
▁fragile	-13674
▁glowing	-13675
▁grandpa	-13676
▁greener	-13677
▁guiding	-13678
▁handing	-13679
▁handled	-13680
▁healing	-13681
▁horizon	-13682
▁insight	-13683
▁jackets	-13684
▁karaoke	-13685
▁kingdom	-13686
▁lactate	-13687
▁largely	-13688
▁lifting	-13689
▁lighter	-13690
▁microsc	-13691
▁mothers	-13692
▁nephews	-13693
▁nursery	-13694
▁nurture	-13695
▁offline	-13696
▁outfits	-13697
▁paradig	-13698
▁pastime	-13699
▁proport	-13700
▁protest	-13701
▁qualify	-13702
▁queries	-13703
▁rainbow	-13704
▁rectang	-13705
▁reliant	-13706
▁renting	-13707
▁roaming	-13708
▁rumours	-13709
▁screams	-13710
▁sellers	-13711
▁serials	-13712
▁shortly	-13713
▁sighted	-13714
▁simpler	-13715
▁sinking	-13716
▁slipped	-13717
▁smokers	-13718
▁spheres	-13719
▁squeeze	-13720
▁stepdad	-13721
▁storage	-13722
▁stunned	-13723
▁surrend	-13724
▁suspect	-13725
▁swiftly	-13726
▁symbols	-13727
▁tablets	-13728
▁tallest	-13729
▁targets	-13730
▁testing	-13731
▁texting	-13732
▁thrones	-13733
▁tobacco	-13734
▁toilets	-13735
▁trailer	-13736
▁trusted	-13737
▁unenjoy	-13738
▁updated	-13739
▁villain	-13740
▁weights	-13741
▁winding	-13742
▁wrongdo	-13743
▁yelling	-13744
▁youtube	-13745
cientious	-13746
conscious	-13747
hematical	-13748
robiology	-13749
▁Acapulco	-13750
▁Agustina	-13751
▁Approach	-13752
▁Belgrano	-13753
▁Bulgaria	-13754
▁Bullying	-13755
▁Caroline	-13756
▁Coliseum	-13757
▁Eleonora	-13758
▁Ensenada	-13759
▁Exorcist	-13760
▁Ferreira	-13761
▁Findings	-13762
▁Francois	-13763
▁Giardini	-13764
▁Hannibal	-13765
▁Hogwarts	-13766
▁Horsemen	-13767
▁Independ	-13768
▁Kateryna	-13769
▁Malaysia	-13770
▁Mandarin	-13771
▁Mercedes	-13772
▁Military	-13773
▁Northern	-13774
▁Portugal	-13775
▁Sanabria	-13776
▁Shanghai	-13777
▁Simpsons	-13778
▁Slovenia	-13779
▁Strategy	-13780
▁Surabaya	-13781
▁Suspects	-13782
▁Thinking	-13783
▁Warriors	-13784
▁Williams	-13785
▁adopting	-13786
▁adoption	-13787
▁advocate	-13788
▁alarming	-13789
▁animated	-13790
▁autonomy	-13791
▁backyard	-13792
▁believer	-13793
▁betrayed	-13794
▁biscuits	-13795
▁bleeding	-13796
▁booklets	-13797
▁brochure	-13798
▁bushfire	-13799
▁catching	-13800
▁charcoal	-13801
▁childish	-13802
▁circuits	-13803
▁clapping	-13804
▁cleanest	-13805
▁coherent	-13806
▁combines	-13807
▁commands	-13808
▁compares	-13809
▁competit	-13810
▁contests	-13811
▁counties	-13812
▁counting	-13813
▁crashing	-13814
▁crawling	-13815
▁credible	-13816
▁deadline	-13817
▁debaters	-13818
▁decisive	-13819
▁declared	-13820
▁decorate	-13821
▁demanded	-13822
▁deserted	-13823
▁devoting	-13824
▁disputes	-13825
▁dissuade	-13826
▁dividing	-13827
▁donating	-13828
▁downhill	-13829
▁dreadful	-13830
▁dropping	-13831
▁droughts	-13832
▁economet	-13833
▁endeavor	-13834
▁enslaved	-13835
▁exceeded	-13836
▁extended	-13837
▁failures	-13838
▁faithful	-13839
▁feasible	-13840
▁forehead	-13841
▁fraction	-13842
▁freshman	-13843
▁governed	-13844
▁graphics	-13845
▁guidance	-13846
▁handmade	-13847
▁harmless	-13848
▁hygienic	-13849
▁hypothet	-13850
▁ideology	-13851
▁idleness	-13852
▁impolite	-13853
▁incompet	-13854
▁infected	-13855
▁innovate	-13856
▁instinct	-13857
▁interrog	-13858
▁juvenile	-13859
▁kayaking	-13860
▁laziness	-13861
▁limiting	-13862
▁lowering	-13863
▁majoring	-13864
▁migrants	-13865
▁minority	-13866
▁needless	-13867
▁noticing	-13868
▁organism	-13869
▁outcomes	-13870
▁outdated	-13871
▁persever	-13872
▁petition	-13873
▁photocop	-13874
▁portrait	-13875
▁probable	-13876
▁procrast	-13877
▁profiles	-13878
▁province	-13879
▁psychiat	-13880
▁quarters	-13881
▁republic	-13882
▁restrain	-13883
▁revolves	-13884
▁roleplay	-13885
▁scrutiny	-13886
▁sequence	-13887
▁severely	-13888
▁sexually	-13889
▁stresses	-13890
▁suburban	-13891
▁sunbathe	-13892
▁surfaces	-13893
▁surgical	-13894
▁swimmers	-13895
▁swimsuit	-13896
▁systolic	-13897
▁teleport	-13898
▁tertiary	-13899
▁theories	-13900
▁thrilled	-13901
▁tomatoes	-13902
▁tutoring	-13903
▁underest	-13904
▁unpreced	-13905
▁vanished	-13906
▁versions	-13907
▁visually	-13908
▁workouts	-13909
▁youngest	-13910
omplicated	-13911
▁Airplanes	-13912
▁Alexandra	-13913
▁Annabelle	-13914
▁Boccaccio	-13915
▁Bucharest	-13916
▁Caucasian	-13917
▁Caulfield	-13918
▁Charlotte	-13919
▁Committee	-13920
▁Depending	-13921
▁Detective	-13922
▁Effective	-13923
▁Financial	-13924
▁Implement	-13925
▁Initially	-13926
▁Inocencio	-13927
▁Languages	-13928
▁Mackinley	-13929
▁Spaniards	-13930
▁Technical	-13931
▁Thousands	-13932
▁Venezuela	-13933
▁accepting	-13934
▁advisable	-13935
▁allergies	-13936
▁alleviate	-13937
▁appointed	-13938
▁assisting	-13939
▁astronomy	-13940
▁attacking	-13941
▁attentive	-13942
▁autograph	-13943
▁believing	-13944
▁bookcases	-13945
▁boutiques	-13946
▁cafeteria	-13947
▁candidacy	-13948
▁circulate	-13949
▁cognition	-13950
▁comforted	-13951
▁commodity	-13952
▁conserved	-13953
▁considers	-13954
▁corporate	-13955
▁cosmetics	-13956
▁courtyard	-13957
▁developer	-13958
▁dialogues	-13959
▁diastolic	-13960
▁discourse	-13961
▁discovers	-13962
▁districts	-13963
▁emphasise	-13964
▁eradicate	-13965
▁exploding	-13966
▁foreigner	-13967
▁formation	-13968
▁freestyle	-13969
▁gardening	-13970
▁gentleman	-13971
▁genuinely	-13972
▁godfather	-13973
▁governing	-13974
▁grotesque	-13975
▁hospitals	-13976
▁housewife	-13977
▁humankind	-13978
▁incorrect	-13979
▁inflation	-13980
▁investing	-13981
▁jewellery	-13982
▁landmarks	-13983
▁linearity	-13984
▁malicious	-13985
▁merchants	-13986
▁messenger	-13987
▁motorways	-13988
▁multitude	-13989
▁obedience	-13990
▁obtaining	-13991
▁officials	-13992
▁orchestra	-13993
▁organiser	-13994
▁parachute	-13995
▁penalties	-13996
▁permitted	-13997
▁persuaded	-13998
▁pleasures	-13999
▁pointless	-14000
▁positives	-14001
▁preceding	-14002
▁precision	-14003
▁premature	-14004
▁pressures	-14005
▁pretended	-14006
▁printable	-14007
▁privilege	-14008
▁proceeded	-14009
▁processor	-14010
▁providers	-14011
▁purifying	-14012
▁quotation	-14013
▁recruited	-14014
▁releasing	-14015
▁reporters	-14016
▁retention	-14017
▁righteous	-14018
▁riverside	-14019
▁roommates	-14020
▁satellite	-14021
▁scattered	-14022
▁selective	-14023
▁sixteenth	-14024
▁southeast	-14025
▁specified	-14026
▁squirrels	-14027
▁stiffness	-14028
▁struggled	-14029
▁submerged	-14030
▁summarise	-14031
▁suppliers	-14032
▁sweetened	-14033
▁taxpayers	-14034
▁teachings	-14035
▁technolgy	-14036
▁unchanged	-14037
▁vibration	-14038
▁waterfall	-14039
▁wrestling	-14040
▁Casablanca	-14041
▁Cunningham	-14042
▁Developing	-14043
▁FACILITIES	-14044
▁Facilities	-14045
▁Fellowship	-14046
▁Floribella	-14047
▁Innovative	-14048
▁Manchester	-14049
▁Memorandum	-14050
▁Midsummers	-14051
▁Parliament	-14052
▁Timberlake	-14053
▁Wednesdays	-14054
▁accidental	-14055
▁adrenaline	-14056
▁apologised	-14057
▁applicants	-14058
▁attendance	-14059
▁auditioned	-14060
▁beforehand	-14061
▁belongings	-14062
▁betterment	-14063
▁bridegroom	-14064
▁broadening	-14065
▁calculated	-14066
▁cellphones	-14067
▁compensate	-14068
▁conducting	-14069
▁containing	-14070
▁continents	-14071
▁controller	-14072
▁courtyards	-14073
▁cricketers	-14074
▁critically	-14075
▁delivering	-14076
▁dependence	-14077
▁directions	-14078
▁dispatcher	-14079
▁distribute	-14080
▁driverless	-14081
▁enormously	-14082
▁excellence	-14083
▁extracting	-14084
▁forgetting	-14085
▁fraternity	-14086
▁gastronomy	-14087
▁goalkeeper	-14088
▁guarantees	-14089
▁immigrants	-14090
▁incomplete	-14091
▁indigenous	-14092
▁insecurity	-14093
▁intonation	-14094
▁membership	-14095
▁metabolism	-14096
▁negatively	-14097
▁objections	-14098
▁oppressive	-14099
▁organizers	-14100
▁performers	-14101
▁persuading	-14102
▁pesticides	-14103
▁pilgrimage	-14104
▁predicting	-14105
▁prejudices	-14106
▁profitable	-14107
▁prohibited	-14108
▁prosperity	-14109
▁reassuring	-14110
▁recovering	-14111
▁registered	-14112
▁researcher	-14113
▁separately	-14114
▁settlement	-14115
▁snorkeling	-14116
▁starvation	-14117
▁sympathize	-14118
▁thoughtful	-14119
▁transporte	-14120
▁treatments	-14121
▁undeniable	-14122
▁variations	-14123
▁vegetarian	-14124
▁viewpoints	-14125
▁vocational	-14126
▁waitresses	-14127
▁whispering	-14128
▁Afghanistan	-14129
▁Conclusions	-14130
▁ENVIRONMENT	-14131
▁Scientology	-14132
▁accordingly	-14133
▁adversaries	-14134
▁brotherhood	-14135
▁businessman	-14136
▁centimeters	-14137
▁charismatic	-14138
▁commodities	-14139
▁coordinator	-14140
▁corporation	-14141
▁definitions	-14142
▁diminishing	-14143
▁disciplines	-14144
▁enterprises	-14145
▁equilibrium	-14146
▁exclusively	-14147
▁forthcoming	-14148
▁impressions	-14149
▁indifferent	-14150
▁inefficient	-14151
▁investments	-14152
▁kitesurfing	-14153
▁masterpiece	-14154
▁methodology	-14155
▁nationality	-14156
▁obligations	-14157
▁originality	-14158
▁overcrowded	-14159
▁partnership	-14160
▁pleasurable	-14161
▁potentially	-14162
▁precautions	-14163
▁publication	-14164
▁schoolmates	-14165
▁sentimental	-14166
▁stereotypes	-14167
▁substantial	-14168
▁transferred	-14169
▁transformed	-14170
▁transmitted	-14171
▁unenjoyable	-14172
▁utilization	-14173
▁Donauzentrum	-14174
▁Frankenstein	-14175
▁accidentally	-14176
▁amphitheater	-14177
▁arrangements	-14178
▁associations	-14179
▁catastrophes	-14180
▁certificates	-14181
▁distractions	-14182
▁explanations	-14183
▁harmoniously	-14184
▁investigated	-14185
▁manipulation	-14186
▁mathematical	-14187
▁mistreatment	-14188
▁photographer	-14189
▁transactions	-14190
▁unacceptable	-14191
▁unattractive	-14192
▁unexpectedly	-14193
▁Interestingly	-14194
▁accomplishing	-14195
▁certification	-14196
▁comprehensive	-14197
▁constructions	-14198
▁demonstration	-14199
▁differentiate	-14200
▁exceptionally	-14201
▁functionality	-14202
▁globalisation	-14203
▁grandchildren	-14204
▁investigating	-14205
▁modernisation	-14206
▁underestimate	-14207
▁vulnerability	-14208
▁Administration	-14209
▁Recommendation	-14210
▁apprenticeship	-14211
▁archaeological	-14212
▁specialization	-14213
▁sustainability	-14214
▁transformations	-14215
Al	-14216
MI	-14217
We	-14218
eb	-14219
of	-14220
ok	-14221
wr	-14222
And	-14223
ELL	-14224
ERE	-14225
ETH	-14226
IST	-14227
URE	-14228
Yes	-14229
afr	-14230
ask	-14231
azi	-14232
bag	-14233
bie	-14234
dge	-14235
ean	-14236
fun	-14237
gre	-14238
iel	-14239
inn	-14240
iri	-14241
jas	-14242
kok	-14243
nar	-14244
nie	-14245
opa	-14246
oug	-14247
rot	-14248
sof	-14249
ucr	-14250
uri	-14251
yde	-14252
▁AA	-14253
▁Ah	-14254
▁Bi	-14255
▁DI	-14256
▁Id	-14257
▁Jr	-14258
▁Ra	-14259
▁Rs	-14260
▁du	-14261
.000	-14262
acen	-14263
anim	-14264
atre	-14265
awel	-14266
bank	-14267
boll	-14268
cell	-14269
cend	-14270
chip	-14271
cock	-14272
conf	-14273
eled	-14274
etly	-14275
eton	-14276
etta	-14277
free	-14278
hero	-14279
ibes	-14280
icip	-14281
idal	-14282
idly	-14283
igue	-14284
irls	-14285
isel	-14286
mans	-14287
mont	-14288
olei	-14289
oria	-14290
ourt	-14291
oval	-14292
rado	-14293
rens	-14294
rike	-14295
sius	-14296
this	-14297
uced	-14298
vide	-14299
▁15-	-14300
▁6.5	-14301
▁ARE	-14302
▁Ald	-14303
▁BEA	-14304
▁Bam	-14305
▁Bur	-14306
▁Buy	-14307
▁Cab	-14308
▁Cum	-14309
▁Dam	-14310
▁Dog	-14311
▁Hag	-14312
▁Kaz	-14313
▁Les	-14314
▁Paz	-14315
▁Say	-14316
▁Set	-14317
▁Six	-14318
▁Sor	-14319
▁Way	-14320
▁Win	-14321
▁asc	-14322
▁bay	-14323
▁ben	-14324
▁buc	-14325
▁exh	-14326
▁foc	-14327
▁foe	-14328
▁ome	-14329
▁por	-14330
▁sev	-14331
▁sor	-14332
▁tan	-14333
▁vas	-14334
▁yog	-14335
acher	-14336
acion	-14337
acity	-14338
acuse	-14339
agger	-14340
apear	-14341
athic	-14342
avity	-14343
azill	-14344
berry	-14345
cribe	-14346
edent	-14347
erant	-14348
erent	-14349
games	-14350
hears	-14351
heric	-14352
icacy	-14353
inian	-14354
izens	-14355
matic	-14356
media	-14357
ocity	-14358
ocket	-14359
omend	-14360
ommon	-14361
onous	-14362
overs	-14363
quash	-14364
rious	-14365
robes	-14366
senal	-14367
shine	-14368
sibly	-14369
stead	-14370
uated	-14371
woman	-14372
▁2500	-14373
▁5500	-14374
▁Abul	-14375
▁Alps	-14376
▁Cand	-14377
▁Comb	-14378
▁Crow	-14379
▁Dogs	-14380
▁Encl	-14381
▁Gram	-14382
▁Hyde	-14383
▁Iraq	-14384
▁Khal	-14385
▁Maze	-14386
▁Mona	-14387
▁Must	-14388
▁Pain	-14389
▁Pets	-14390
▁Pope	-14391
▁Roma	-14392
▁Song	-14393
▁Sukh	-14394
▁Ways	-14395
▁Wind	-14396
▁blan	-14397
▁boom	-14398
▁bord	-14399
▁chee	-14400
▁chic	-14401
▁crue	-14402
▁cuts	-14403
▁dies	-14404
▁diox	-14405
▁emit	-14406
▁evol	-14407
▁fart	-14408
▁fist	-14409
▁flee	-14410
▁iPad	-14411
▁inch	-14412
▁incl	-14413
▁kitt	-14414
▁mant	-14415
▁mint	-14416
▁nets	-14417
▁neur	-14418
▁sank	-14419
▁sore	-14420
▁thie	-14421
▁unde	-14422
▁utop	-14423
▁wast	-14424
▁worm	-14425
▁wrec	-14426
▁yogh	-14427
acelet	-14428
acious	-14429
afrana	-14430
atural	-14431
ctions	-14432
earing	-14433
iators	-14434
icable	-14435
imbing	-14436
imedia	-14437
inable	-14438
itates	-14439
itutes	-14440
lining	-14441
master	-14442
mental	-14443
ocated	-14444
orists	-14445
ressed	-14446
rivals	-14447
sernal	-14448
unteer	-14449
▁Abbey	-14450
▁Heart	-14451
▁Homes	-14452
▁Jerry	-14453
▁Jumps	-14454
▁Mekka	-14455
▁Pizza	-14456
▁Plane	-14457
▁Ships	-14458
▁Shows	-14459
▁Smart	-14460
▁Store	-14461
▁Telev	-14462
▁Tokyo	-14463
▁Waste	-14464
▁Wawel	-14465
▁altru	-14466
▁anger	-14467
▁await	-14468
▁backs	-14469
▁basil	-14470
▁bleed	-14471
▁canal	-14472
▁cance	-14473
▁cease	-14474
▁cheat	-14475
▁chore	-14476
▁corps	-14477
▁dilig	-14478
▁exped	-14479
▁ferry	-14480
▁finan	-14481
▁folks	-14482
▁freel	-14483
▁greed	-14484
▁hinds	-14485
▁hurts	-14486
▁imply	-14487
▁intim	-14488
▁links	-14489
▁liver	-14490
▁loose	-14491
▁maxim	-14492
▁meats	-14493
▁mekka	-14494
▁mines	-14495
▁moped	-14496
▁olden	-14497
▁opini	-14498
▁opted	-14499
▁patch	-14500
▁picks	-14501
▁plate	-14502
▁plent	-14503
▁remin	-14504
▁repet	-14505
▁resid	-14506
▁saled	-14507
▁sarah	-14508
▁scram	-14509
▁scrap	-14510
▁stray	-14511
▁stren	-14512
▁sweep	-14513
▁tease	-14514
▁trace	-14515
▁trunk	-14516
▁volei	-14517
▁yards	-14518
▁yells	-14519
Michael	-14520
antaged	-14521
ativity	-14522
atories	-14523
berries	-14524
cellent	-14525
emetery	-14526
entives	-14527
manship	-14528
mercial	-14529
minster	-14530
oppable	-14531
organic	-14532
ossible	-14533
rection	-14534
ultures	-14535
ustomer	-14536
▁Bamboo	-14537
▁Beyond	-14538
▁Bridge	-14539
▁Buying	-14540
▁Dwayne	-14541
▁Flying	-14542
▁Hereby	-14543
▁Import	-14544
▁Kuwait	-14545
▁Leader	-14546
▁Mental	-14547
▁Online	-14548
▁Player	-14549
▁Remark	-14550
▁Sandra	-14551
▁Strike	-14552
▁Things	-14553
▁Valley	-14554
▁Within	-14555
▁Wuther	-14556
▁abused	-14557
▁assets	-14558
▁asthma	-14559
▁beaten	-14560
▁betray	-14561
▁blonde	-14562
▁brakes	-14563
▁bumped	-14564
▁calmly	-14565
▁cheeky	-14566
▁cherry	-14567
▁cooker	-14568
▁diners	-14569
▁dispos	-14570
▁exited	-14571
▁facial	-14572
▁filmed	-14573
▁fisher	-14574
▁fitter	-14575
▁friday	-14576
▁german	-14577
▁gloomy	-14578
▁greens	-14579
▁hairst	-14580
▁heroes	-14581
▁honour	-14582
▁incons	-14583
▁inhale	-14584
▁losses	-14585
▁makers	-14586
▁mathem	-14587
▁metros	-14588
▁modify	-14589
▁molest	-14590
▁neglig	-14591
▁patron	-14592
▁persec	-14593
▁pirate	-14594
▁polish	-14595
[...]
