[PAD]	0
[UNK]	0
[BOS]	0
[EOS]	0
▁.	-3.16166
▁,	-3.29452
▁the	-3.31249
s	-3.47798
▁to	-3.69258
▁and	-3.87379
▁I	-3.94891
▁a	-3.98803
▁of	-4.10154
▁in	-4.31881
▁is	-4.35389
ing	-4.41346
▁	-4.4424
▁that	-4.70788
▁you	-4.74323
y	-4.74807
ed	-4.78213
e	-4.87515
▁it	-4.87596
▁for	-4.90238
▁be	-4.94639
ly	-4.9743
▁are	-5.12932
▁have	-5.13725
▁'	-5.15752
▁my	-5.18518
▁with	-5.19767
t	-5.26968
▁was	-5.29935
d	-5.31874
▁on	-5.33158
▁can	-5.43346
▁people	-5.47481
▁we	-5.5219
▁not	-5.558
▁The	-5.56927
▁this	-5.61407
▁will	-5.66252
▁as	-5.67849
▁do	-5.73746
'	-5.78885
▁but	-5.82638
▁more	-5.83842
▁time	-5.86648
▁n	-5.88698
▁like	-5.89364
▁or	-5.89586
▁becaus	-5.90135
▁he	-5.92065
▁at	-5.93362
▁by	-5.95684
▁your	-5.96651
▁about	-5.97055
▁so	-5.97554
▁all	-5.9866
▁an	-5.98685
▁me	-5.99211
▁their	-6.02324
▁from	-6.03142
very	-6.07456
▁It	-6.08614
▁there	-6.1096
▁would	-6.11198
▁-	-6.11862
▁"	-6.11944
▁some	-6.12736
▁In	-6.14174
▁our	-6.15813
n	-6.16758
▁one	-6.21478
▁transport	-6.22614
▁has	-6.2431
▁had	-6.25157
▁public	-6.28966
▁which	-6.31254
▁also	-6.31681
▁am	-6.34223
▁if	-6.34754
▁when	-6.35901
▁good	-6.37939
▁go	-6.39496
▁think	-6.40247
en	-6.40461
▁his	-6.41831
▁them	-6.42952
▁other	-6.43381
▁lot	-6.45239
▁car	-6.48385
▁us	-6.50681
▁could	-6.50869
▁want	-6.51853
▁many	-6.53615
▁who	-6.53628
▁most	-6.55771
▁work	-6.55915
m	-6.56656
▁her	-6.58505
▁life	-6.58584
▁?	-6.58944
▁every	-6.59287
▁know	-6.65061
▁!	-6.65685
▁should	-6.69287
▁help	-6.69931
▁day	-6.70451
▁what	-6.72016
▁get	-6.72062
▁need	-6.73207
▁were	-6.73743
▁up	-6.73793
▁way	-6.74225
▁use	-6.74553
▁really	-6.75612
▁years	-6.76975
▁she	-6.78096
▁A	-6.78207
▁than	-6.79041
▁make	-6.85523
▁new	-6.85682
es	-6.86521
▁important	-6.87249
▁We	-6.87388
▁sport	-6.87738
▁He	-6.89931
▁love	-6.90119
▁out	-6.90158
▁al	-6.90903
▁how	-6.92112
▁best	-6.92428
▁see	-6.92434
▁:	-6.92953
▁take	-6.932
able	-6.93533
▁world	-6.94119
▁On	-6.94264
▁just	-6.96195
f	-6.97354
▁different	-6.97483
▁This	-6.98536
▁much	-6.9857
▁My	-6.99603
▁t	-7.00133
▁city	-7.00187
▁no	-7.02339
ways	-7.03877
▁place	-7.04681
▁him	-7.05581
▁friends	-7.05928
er	-7.06457
▁future	-7.06651
▁children	-7.08796
▁find	-7.09434
▁where	-7.09462
▁There	-7.1086
▁job	-7.12177
▁school	-7.13078
▁enjoy	-7.13275
▁great	-7.14803
a	-7.15178
one	-7.16047
▁things	-7.16838
▁But	-7.16936
▁going	-7.16986
▁first	-7.17091
▁You	-7.17996
▁well	-7.18145
▁play	-7.18542
▁did	-7.20043
▁live	-7.20283
▁give	-7.21178
▁any	-7.22209
▁For	-7.22698
▁family	-7.23523
▁English	-7.23611
▁old	-7.23716
ever	-7.2466
▁They	-7.26052
.	-7.27967
▁own	-7.29466
▁How	-7.31747
▁better	-7.32236
▁look	-7.32542
▁)	-7.3309
r	-7.33263
on	-7.33979
▁even	-7.3457
ies	-7.34675
▁experience	-7.35082
▁When	-7.35105
▁person	-7.35883
▁two	-7.36248
▁As	-7.36382
▁these	-7.36879
▁learn	-7.37129
▁travel	-7.37568
al	-7.38224
▁say	-7.38347
▁watch	-7.40643
▁too	-7.41111
▁money	-7.41594
▁something	-7.41846
▁So	-7.42057
▁long	-7.42216
▁To	-7.42441
▁cars	-7.43137
▁environment	-7.43319
▁start	-7.43378
▁food	-7.43401
▁bus	-7.43561
▁same	-7.4362
▁example	-7.43719
▁change	-7.43909
▁country	-7.44392
▁feel	-7.44473
▁home	-7.44558
▁after	-7.45791
other	-7.4585
▁First	-7.46014
▁year	-7.46695
▁kind	-7.47115
▁hand	-7.47156
▁try	-7.4722
▁(	-7.47426
▁Michael	-7.47538
out	-7.47692
▁students	-7.47695
▁must	-7.48963
▁last	-7.49335
▁part	-7.49941
▁mad	-7.50049
▁into	-7.50456
▁now	-7.52878
▁She	-7.53189
▁big	-7.53532
▁;	-7.54095
▁visit	-7.56283
▁call	-7.5694
▁course	-7.57671
▁town	-7.58136
▁problem	-7.58774
▁language	-7.59266
uch	-7.5927
ve	-7.59782
▁house	-7.60477
▁around	-7.61294
▁opinion	-7.61628
▁And	-7.6191
▁may	-7.62361
▁show	-7.62406
▁thing	-7.64306
▁Dear	-7.64365
▁spend	-7.64745
st	-7.64759
▁s	-7.65793
▁travell	-7.6619
▁sports	-7.66541
▁never	-7.66725
▁over	-7.67072
▁believe	-7.67534
cause	-7.67685
▁hard	-7.67823
▁high	-7.67893
▁being	-7.69922
▁young	-7.70006
▁summer	-7.7008
▁keep	-7.70134
▁still	-7.70391
▁before	-7.70883
▁problems	-7.71092
▁th	-7.7152
▁care	-7.71779
▁working	-7.72781
ce	-7.72814
▁since	-7.72991
▁lives	-7.73526
▁hope	-7.73547
little	-7.73622
▁main	-7.75748
▁order	-7.76048
▁parent	-7.76189
▁become	-7.76907
went	-7.78166
▁team	-7.78593
▁shopping	-7.78871
▁reason	-7.78943
next	-7.79072
▁come	-7.79116
▁started	-7.79382
▁why	-7.79408
▁each	-7.79494
self	-7.79635
▁doing	-7.79843
▁got	-7.80121
▁ca	-7.81093
le	-7.81843
▁mean	-7.81871
▁skill	-7.82069
o	-7.82187
▁fact	-7.82668
▁whil	-7.82764
▁said	-7.82989
▁buy	-7.83113
▁b	-7.83202
ten	-7.83279
▁does	-7.83375
▁tell	-7.84175
▁improve	-7.84398
▁idea	-7.84717
▁moment	-7.85171
ll	-7.85392
▁football	-7.85472
▁information	-7.85524
▁bad	-7.85847
▁S	-7.86043
▁through	-7.8673
▁i	-7.86827
h	-7.87147
▁favourite	-7.87936
▁name	-7.88234
▁both	-7.88289
▁movie	-7.89157
▁thought	-7.89399
▁writing	-7.89532
▁teacher	-7.90211
▁week	-7.90285
▁activities	-7.90427
th	-7.9068
▁read	-7.90833
▁transportation	-7.91095
▁interest	-7.91462
▁beautiful	-7.91499
▁back	-7.92061
▁everything	-7.92267
▁soon	-7.9272
▁number	-7.92809
▁fun	-7.93059
▁few	-7.93245
▁T	-7.93635
▁education	-7.93896
▁small	-7.94012
▁famous	-7.94106
▁After	-7.95478
▁dur	-7.95882
w	-7.96154
▁happy	-7.9638
ful	-7.96424
▁un	-7.96455
▁point	-7.96483
▁its	-7.96621
re	-7.97428
▁free	-7.97771
▁consider	-7.97949
▁follow	-7.98006
▁What	-7.98115
▁talk	-7.98141
▁C	-7.98352
▁looking	-7.9864
▁places	-7.99167
▁ask	-7.99181
▁film	-7.99243
▁learning	-8.00381
▁water	-8.00756
▁door	-8.01105
▁makes	-8.01217
▁month	-8.01284
▁wait	-8.01612
▁end	-8.0174
▁friend	-8.01772
▁right	-8.02386
▁convenient	-8.02768
▁speak	-8.03603
▁human	-8.0455
▁study	-8.0496
▁service	-8.05169
▁countries	-8.05998
▁hear	-8.06053
▁recommend	-8.06178
▁enough	-8.06205
▁prefer	-8.0662
▁hav	-8.07011
▁music	-8.07802
▁happen	-8.08478
▁decide	-8.08611
▁restaurant	-8.08899
▁choose	-8.09113
▁near	-8.09371
▁man	-8.09624
▁special	-8.09682
▁difficult	-8.09811
▁addition	-8.09861
▁found	-8.09951
▁saw	-8.10115
▁train	-8.10247
▁again	-8.10806
▁playing	-8.10922
▁girl	-8.1095
▁pollution	-8.10967
ther	-8.11261
ity	-8.11408
▁At	-8.1251
▁might	-8.1322
▁eat	-8.13855
▁meet	-8.14071
▁days	-8.14456
ose	-8.14533
▁put	-8.14754
▁private	-8.14819
▁knowledge	-8.14822
▁sure	-8.14844
▁society	-8.1485
an	-8.15351
▁technology	-8.15587
▁open	-8.15597
ion	-8.15967
twe	-8.16466
▁M	-8.16771
▁usual	-8.1703
▁...	-8.1709
▁mind	-8.17385
▁second	-8.17603
▁down	-8.17708
▁1	-8.1789
over	-8.17911
▁cause	-8.17919
▁system	-8.18315
▁type	-8.18321
▁living	-8.18683
▁room	-8.18685
▁less	-8.18915
▁forward	-8.19081
▁street	-8.19092
▁w	-8.19349
▁TV	-8.20012
▁People	-8.20016
▁health	-8.20072
▁traffic	-8.20298
▁night	-8.20597
▁ever	-8.20855
▁easy	-8.20869
▁stay	-8.20924
side	-8.21001
▁offer	-8.21383
▁reasons	-8.21483
in	-8.21606
body	-8.21707
ness	-8.21728
▁More	-8.21766
▁others	-8.21914
▁especial	-8.22204
▁government	-8.22228
▁face	-8.22402
▁stop	-8.22955
used	-8.23006
▁kne	-8.23544
ld	-8.23728
▁here	-8.23775
▁save	-8.2442
▁Second	-8.24471
▁social	-8.24574
▁B	-8.24604
▁clean	-8.25123
▁thre	-8.25588
▁Every	-8.25869
▁strong	-8.26034
▁ago	-8.26528
▁seem	-8.27276
▁All	-8.27278
▁hours	-8.27304
▁comfortable	-8.27617
▁clothes	-8.27825
▁let	-8.28082
▁turn	-8.28175
▁body	-8.28178
▁wo	-8.28268
▁mother	-8.28317
▁class	-8.29146
ether	-8.29835
▁park	-8.29998
▁television	-8.30754
▁game	-8.30899
▁fast	-8.31155
▁boy	-8.31248
▁citie	-8.31257
▁understand	-8.31266
▁tru	-8.31354
▁Some	-8.31595
▁cook	-8.31659
▁dream	-8.31664
possible	-8.31721
▁develop	-8.32805
▁sometime	-8.33031
lso	-8.33176
ally	-8.33652
▁F	-8.33657
▁interested	-8.3392
▁opportunit	-8.34655
▁far	-8.34841
▁conclusion	-8.34869
ation	-8.35237
▁An	-8.35595
▁view	-8.3571
▁expensive	-8.35721
c	-8.36189
▁mistake	-8.36208
▁away	-8.36378
▁popular	-8.3694
▁Your	-8.3714
▁book	-8.37147
▁word	-8.37346
▁walk	-8.37893
▁Tha	-8.38114
▁pay	-8.38149
▁came	-8.38388
▁Be	-8.38425
▁quit	-8.3857
▁provide	-8.38704
ers	-8.38829
▁favorite	-8.38885
▁kid	-8.38901
▁case	-8.39221
▁Although	-8.39221
▁cost	-8.39314
▁personal	-8.39417
▁swimming	-8.39497
▁whole	-8.39841
▁increase	-8.40574
▁quality	-8.40743
▁complete	-8.41001
est	-8.41337
▁P	-8.41501
▁nice	-8.41994
ry	-8.42024
▁university	-8.42235
▁exercise	-8.42315
hose	-8.42392
▁present	-8.42812
ty	-8.43009
▁morning	-8.43072
▁H	-8.43578
▁Final	-8.4364
▁brother	-8.43707
▁move	-8.43729
▁group	-8.43921
▁healthy	-8.43971
▁energ	-8.44017
▁2	-8.44107
▁chance	-8.44308
▁relax	-8.44892
▁agree	-8.4511
▁result	-8.45123
ays	-8.4527
▁off	-8.4543
▁large	-8.45545
▁company	-8.45908
▁local	-8.45917
▁child	-8.45947
▁situation	-8.46425
▁perfect	-8.47093
ment	-8.47115
▁air	-8.47164
▁late	-8.47446
is	-8.476
▁full	-8.47642
▁question	-8.47767
▁anything	-8.47799
▁letter	-8.47806
▁waste	-8.4782
l	-8.48276
▁remember	-8.49058
▁fel	-8.49683
▁area	-8.50123
▁bring	-8.50224
▁camp	-8.50487
at	-8.50616
▁necessar	-8.51043
▁past	-8.51098
▁known	-8.51226
▁real	-8.51446
▁useful	-8.51572
▁animal	-8.52398
ok	-8.52542
▁N	-8.52602
▁reduce	-8.52655
dy	-8.53052
▁support	-8.53154
and	-8.53313
g	-8.53449
▁feeling	-8.53823
▁due	-8.53932
▁several	-8.54038
▁story	-8.54389
▁product	-8.54925
▁easi	-8.5502
▁wonder	-8.55054
▁building	-8.5528
▁trip	-8.55301
▁studying	-8.55429
▁process	-8.55776
▁shops	-8.55814
▁Man	-8.55818
▁answer	-8.56127
▁tog	-8.56336
▁Th	-8.56351
▁No	-8.56819
▁amazing	-8.57206
i	-8.57207
▁bank	-8.57263
▁drink	-8.57519
▁instead	-8.57564
▁runn	-8.57696
▁role	-8.57728
ting	-8.57744
▁choice	-8.5785
▁today	-8.58122
▁Now	-8.58229
▁Do	-8.58247
▁option	-8.58249
▁listen	-8.5842
day	-8.585
▁explain	-8.5856
▁run	-8.58584
▁Hi	-8.58942
▁sister	-8.58944
▁finish	-8.5916
▁age	-8.59211
▁suc	-8.59299
▁E	-8.59383
▁position	-8.5942
▁close	-8.59495
▁deal	-8.5965
▁until	-8.59672
▁allow	-8.59672
▁apply	-8.59767
▁leave	-8.59778
▁With	-8.6009
▁etc	-8.60722
▁Peter	-8.6111
aking	-8.61362
▁bit	-8.61414
▁vehicle	-8.61456
ous	-8.61822
▁step	-8.61936
▁drive	-8.62155
▁Therefor	-8.62322
▁advantage	-8.62365
▁student	-8.62387
most	-8.62495
us	-8.6251
▁write	-8.6255
▁concern	-8.62726
▁walking	-8.62849
▁matter	-8.62947
less	-8.63165
▁advice	-8.63314
▁culture	-8.63329
▁final	-8.6369
▁light	-8.6378
▁thinking	-8.63824
▁huge	-8.6418
more	-8.64413
▁create	-8.64551
▁recent	-8.64635
▁program	-8.64689
▁Al	-8.64877
▁grow	-8.64946
▁mak	-8.65991
▁side	-8.66284
▁ways	-8.66478
▁father	-8.66803
▁closed	-8.67031
▁advertisement	-8.67134
▁reach	-8.67478
▁rubbish	-8.67505
▁alrea	-8.67643
▁Sir	-8.67969
▁concert	-8.68019
▁modern	-8.68434
▁done	-8.68495
▁arrive	-8.68901
▁village	-8.69077
▁project	-8.69085
▁effect	-8.69534
▁These	-8.69748
▁books	-8.69949
▁research	-8.704
▁event	-8.7049
▁level	-8.70501
▁development	-8.7073
▁space	-8.70793
▁games	-8.70969
▁price	-8.70974
▁Internet	-8.71549
▁onl	-8.71581
▁design	-8.71922
▁nowadays	-8.72076
▁Further	-8.72295
▁avoid	-8.73134
▁plan	-8.73139
▁reading	-8.73391
▁centre	-8.73474
▁amount	-8.73658
▁talking	-8.73661
tion	-8.73837
k	-8.74028
▁lead	-8.74377
▁share	-8.74432
▁under	-8.74468
▁driv	-8.74597
▁though	-8.74847
▁character	-8.75027
asketball	-8.752
coming	-8.75362
▁suitable	-8.75664
▁maybe	-8.75699
▁break	-8.76106
▁Beside	-8.76498
A	-8.76772
▁cheap	-8.76773
▁dai	-8.76835
▁warm	-8.77046
▁factor	-8.77126
▁power	-8.77247
▁quick	-8.77268
▁hotel	-8.77335
▁notes	-8.77442
▁depend	-8.77753
▁activity	-8.78217
▁short	-8.78266
▁US	-8.78372
ble	-8.78399
▁easier	-8.78715
▁four	-8.789
▁5	-8.78948
▁field	-8.79257
▁phone	-8.7972
ng	-8.79781
▁gett	-8.79824
▁p	-8.80001
▁friendly	-8.80276
ch	-8.80833
▁common	-8.80888
▁aspect	-8.80902
▁10	-8.80974
▁aware	-8.80995
▁plane	-8.81035
▁sheets	-8.81137
ge	-8.81248
▁suggest	-8.8125
▁relationship	-8.81284
or	-8.81451
lthough	-8.81465
▁particular	-8.81726
▁increasing	-8.81925
▁subject	-8.81939
▁3	-8.82244
▁abilit	-8.82355
▁certain	-8.82655
▁later	-8.82793
▁physical	-8.82796
▁forget	-8.82815
▁condition	-8.83552
▁set	-8.83597
▁W	-8.83649
▁beach	-8.83735
▁art	-8.83835
▁heard	-8.84167
▁market	-8.84355
▁positive	-8.84509
▁themselves	-8.84515
▁Even	-8.8457
▁professional	-8.84621
▁Du	-8.84763
cy	-8.85456
▁c	-8.85476
▁contact	-8.85853
▁teach	-8.85893
▁natural	-8.85979
▁competition	-8.86353
▁minutes	-8.86383
▁50	-8.86528
▁green	-8.8667
tic	-8.86706
▁members	-8.86768
▁chang	-8.86854
▁computer	-8.86963
history	-8.86974
▁sea	-8.87052
▁realize	-8.87071
▁actual	-8.87084
▁continue	-8.87274
▁surprise	-8.87403
weather	-8.87484
▁yourself	-8.87519
▁teaching	-8.87759
▁front	-8.87863
▁Tom	-8.87933
▁alone	-8.88267
▁mention	-8.88392
▁nature	-8.88762
▁report	-8.88776
▁sum	-8.88849
▁tak	-8.89117
▁general	-8.89167
▁task	-8.89221
as	-8.89768
nce	-8.89815
▁evening	-8.89876
▁international	-8.90163
▁nothing	-8.90339
▁business	-8.90392
ring	-8.90396
▁manage	-8.90479
▁g	-8.91001
▁protect	-8.91032
▁safe	-8.91213
▁areas	-8.91352
▁Spain	-8.91635
▁Last	-8.91728
▁serious	-8.91761
▁Thank	-8.91855
▁leas	-8.91953
▁m	-8.91953
ite	-8.92129
▁decision	-8.92154
▁global	-8.9223
▁clear	-8.92306
▁environmental	-8.92351
▁imagine	-8.92533
▁left	-8.92591
▁museum	-8.9264
▁facilities	-8.92642
▁center	-8.92679
where	-8.92744
▁faster	-8.92789
▁club	-8.93014
▁station	-8.93416
▁population	-8.9366
▁control	-8.93982
▁communication	-8.94213
▁attend	-8.94319
▁instance	-8.94713
▁definite	-8.95
▁ticket	-8.95184
▁foreign	-8.95203
▁bigge	-8.95298
▁current	-8.9541
▁pass	-8.95532
▁join	-8.95538
▁Nowad	-8.95656
ary	-8.95835
▁lesson	-8.96278
nt	-8.96453
▁sleep	-8.96564
▁studies	-8.96604
▁excit	-8.96692
▁includ	-8.96798
▁customer	-8.97083
▁focus	-8.97216
▁availab	-8.97331
▁journey	-8.97776
▁resource	-8.97783
▁material	-8.98306
so	-8.98365
▁taken	-8.98464
▁wear	-8.98683
▁classes	-8.98733
▁affect	-8.98734
▁fit	-8.98793
▁self	-8.98999
▁method	-8.9903
▁6	-8.99202
▁goal	-8.99216
▁From	-8.99372
▁colour	-8.99392
▁per	-8.99395
▁news	-8.99634
▁co	-8.99673
▁solve	-9.00091
man	-9.00409
▁Europe	-9.00502
▁road	-9.00631
▁changes	-9.00818
▁takes	-9.00895
▁eyes	-9.0124
▁prepare	-9.01506
▁rest	-9.01647
▁heart	-9.01719
▁immediatel	-9.02089
▁store	-9.02165
refore	-9.02202
▁office	-9.02257
▁economic	-9.02353
▁discover	-9.02565
▁University	-9.02653
▁among	-9.02765
▁probabl	-9.03265
▁normal	-9.03561
▁faithfully	-9.03774
ent	-9.03982
▁ones	-9.04139
▁O	-9.04301
owever	-9.0432
▁value	-9.04394
▁ten	-9.04715
▁ball	-9.05255
ish	-9.05429
▁influence	-9.05474
aught	-9.05597
▁Most	-9.05741
ic	-9.05851
▁issues	-9.05912
▁cinema	-9.06021
▁sound	-9.06096
▁period	-9.06442
▁kitchen	-9.06596
▁hour	-9.06698
▁pool	-9.0674
▁wide	-9.06858
▁Madam	-9.06942
▁Spanish	-9.07176
▁Russia	-9.07188
▁statement	-9.07192
▁purpose	-9.07198
▁five	-9.07276
▁player	-9.07724
▁Not	-9.07742
▁stress	-9.08162
▁college	-9.08347
▁achieve	-9.0838
▁afford	-9.08401
▁needed	-9.08578
▁By	-9.08799
ree	-9.08911
▁destination	-9.08935
▁Publi	-9.09245
▁benefits	-9.0929
-	-9.09471
▁mobile	-9.09491
▁London	-9.09519
▁centur	-9.09527
▁abroad	-9.09541
▁shop	-9.09814
▁simple	-9.09822
▁D	-9.09967
▁excellent	-9.1014
▁search	-9.10221
▁discuss	-9.10238
▁teenager	-9.10323
▁wrong	-9.10719
▁Of	-9.10878
▁American	-9.10894
▁head	-9.10925
ried	-9.11121
▁notice	-9.11136
▁comes	-9.11219
▁aim	-9.11319
▁effort	-9.11337
ious	-9.11399
▁paper	-9.11476
▁met	-9.11826
▁impact	-9.11924
▁please	-9.12108
▁practise	-9.12819
be	-9.12852
▁meeting	-9.13098
▁anyone	-9.13166
▁beginning	-9.13188
▁possibilit	-9.13215
▁rules	-9.13483
cer	-9.13556
▁R	-9.13745
▁lose	-9.1376
▁o	-9.13903
▁located	-9.14425
▁Chin	-9.14571
▁career	-9.14748
▁regard	-9.14767
▁begin	-9.15033
▁responsibl	-9.15056
▁4	-9.15066
▁suffer	-9.15382
▁issue	-9.15428
▁New	-9.1545
▁Since	-9.15638
▁Wh	-9.16259
▁Sometime	-9.16301
▁smile	-9.16445
line	-9.16698
▁training	-9.16813
▁practice	-9.16886
▁describe	-9.16903
▁effective	-9.16991
▁communit	-9.17091
media	-9.17107
▁gain	-9.17414
▁party	-9.17481
▁further	-9.1755
▁players	-9.17849
▁computers	-9.18156
▁damage	-9.18158
rs	-9.18256
▁20	-9.18429
▁essential	-9.18845
▁atmosphere	-9.18881
▁miss	-9.19182
▁style	-9.19267
▁degree	-9.19572
um	-9.1965
▁lack	-9.19872
▁newspaper	-9.20165
▁distance	-9.20178
▁article	-9.20218
▁receive	-9.20309
▁accept	-9.20797
▁negative	-9.20871
▁cold	-9.20957
▁disadvantages	-9.21006
▁along	-9.21189
▁term	-9.21485
▁interview	-9.21503
▁lost	-9.21714
▁respect	-9.21781
▁planet	-9.21949
▁citizens	-9.22001
▁topic	-9.22128
▁network	-9.22171
▁above	-9.22203
▁difference	-9.22523
▁wants	-9.22675
▁require	-9.22862
▁science	-9.22879
I	-9.23009
it	-9.23224
▁schools	-9.23737
▁fall	-9.23745
ought	-9.23745
▁worth	-9.23797
▁major	-9.241
▁His	-9.24113
▁dangerous	-9.24206
ar	-9.24531
▁May	-9.24757
▁wish	-9.24809
▁consequence	-9.24948
▁excited	-9.24986
▁advertis	-9.25128
age	-9.2515
▁build	-9.25394
▁return	-9.25579
▁adult	-9.25589
▁enter	-9.25705
▁whe	-9.25937
▁extreme	-9.26048
u	-9.26159
0	-9.26364
▁source	-9.26377
▁sense	-9.26442
▁early	-9.2648
▁habit	-9.26683
▁organization	-9.26722
▁fresh	-9.27015
▁careful	-9.27052
▁police	-9.27251
▁limit	-9.27721
▁website	-9.27976
▁six	-9.28175
▁meal	-9.28429
een	-9.28557
▁tired	-9.28652
▁kill	-9.29046
▁bar	-9.29094
▁ra	-9.29131
▁specific	-9.29153
▁Hello	-9.29171
▁robot	-9.29188
▁else	-9.29202
▁r	-9.29211
▁law	-9.29298
▁act	-9.29315
▁efficient	-9.2934
▁individual	-9.29391
▁involve	-9.29599
▁mountain	-9.29881
▁sad	-9.29983
▁send	-9.3015
▁restaurants	-9.30156
▁cultural	-9.30321
ave	-9.30377
once	-9.30481
▁low	-9.30701
▁Best	-9.30827
▁de	-9.31117
▁maintain	-9.31241
▁stand	-9.313
▁plastic	-9.31317
▁variety	-9.31359
▁films	-9.3143
▁attenti	-9.31529
▁form	-9.31534
▁season	-9.31543
▁plant	-9.31922
▁holiday	-9.3193
▁couple	-9.32062
▁companies	-9.32071
▁glad	-9.3208
S	-9.32282
▁table	-9.32411
▁trains	-9.32433
▁su	-9.32516
▁key	-9.3257
▁similar	-9.3284
▁Italian	-9.3284
▁funny	-9.32862
▁account	-9.32863
▁soc	-9.3291
▁vari	-9.3292
▁fantas	-9.33005
to	-9.33064
▁land	-9.33319
▁challenge	-9.33328
▁communicate	-9.33353
▁separate	-9.33385
▁Japan	-9.33551
▁entertainment	-9.3358
▁toward	-9.339
▁19	-9.33946
▁appreciate	-9.34115
▁encourage	-9.34218
▁argument	-9.34328
▁application	-9.34379
▁include	-9.34405
▁direct	-9.34407
▁swim	-9.34512
▁engineer	-9.34512
▁hot	-9.34529
▁song	-9.34557
▁k	-9.34564
▁successful	-9.3461
ities	-9.34631
▁Hav	-9.34739
▁produce	-9.34744
▁recycl	-9.34817
▁test	-9.35011
eless	-9.35186
▁fight	-9.35395
▁detail	-9.35843
▁spen	-9.35868
▁action	-9.35998
▁exam	-9.36082
▁cut	-9.36341
▁importan	-9.36355
▁programme	-9.36467
▁fashion	-9.36542
▁floor	-9.36638
▁writ	-9.36684
king	-9.36953
▁match	-9.37134
▁younger	-9.37178
▁win	-9.37309
▁sudden	-9.37415
▁prevent	-9.37437
▁historical	-9.37523
▁basic	-9.37524
▁star	-9.38072
gainst	-9.38164
▁militar	-9.38188
▁post	-9.38408
▁responsibilit	-9.38762
▁John	-9.38982
▁dark	-9.3899
▁holidays	-9.39117
▁tourists	-9.39234
▁improvement	-9.39426
▁chose	-9.39444
▁cover	-9.39684
▁Well	-9.39715
▁poor	-9.39837
▁born	-9.3987
▁Jo	-9.4005
▁results	-9.40053
▁total	-9.40104
▁line	-9.40127
▁glass	-9.40203
▁buil	-9.40232
▁camps	-9.40493
▁top	-9.4073
▁color	-9.4076
▁attitude	-9.4083
▁cafe	-9.40956
rench	-9.41017
▁solution	-9.41061
▁carry	-9.41233
▁jobs	-9.41364
▁experiences	-9.4162
▁improved	-9.41946
▁Let	-9.42022
▁L	-9.42047
▁dinner	-9.42221
▁Neverth	-9.42248
▁men	-9.42706
gan	-9.42734
▁expect	-9.4281
▁appear	-9.4285
te	-9.42872
de	-9.4292
▁state	-9.43051
▁background	-9.43052
▁fan	-9.43203
▁mom	-9.43239
▁re	-9.43332
▁painting	-9.43364
▁exist	-9.43542
▁mov	-9.43555
2	-9.43595
▁worker	-9.43826
hind	-9.43829
▁nervous	-9.43883
▁rich	-9.43892
▁f	-9.44098
▁Travell	-9.44141
▁band	-9.44217
▁base	-9.44473
▁stage	-9.44589
▁impossible	-9.4474
▁demand	-9.44761
▁roads	-9.44787
▁half	-9.44878
▁bee	-9.4491
▁Mr	-9.45187
▁buildings	-9.45319
▁tree	-9.45466
▁gym	-9.45566
▁range	-9.45566
▁disease	-9.45572
▁winter	-9.45592
▁single	-9.45622
▁pleasure	-9.45719
▁stopp	-9.45903
▁dog	-9.46009
ily	-9.46086
▁becam	-9.46424
▁third	-9.46457
▁entertain	-9.46457
▁plann	-9.46713
▁educate	-9.46718
▁calm	-9.46736
advantages	-9.46782
▁raise	-9.46814
▁mall	-9.46886
ne	-9.46907
▁throw	-9.4694
▁taste	-9.47198
▁fish	-9.47242
▁series	-9.47346
▁friendship	-9.47489
▁journalist	-9.47511
▁advance	-9.47617
▁luck	-9.47741
▁machine	-9.47887
▁German	-9.48154
▁worry	-9.4824
▁pick	-9.48258
▁happi	-9.48277
▁earn	-9.48657
▁interne	-9.4877
▁magazine	-9.49031
▁volunteer	-9.49032
▁catch	-9.49295
▁compare	-9.49413
▁mental	-9.4954
▁200	-9.49622
▁forest	-9.4992
▁voice	-9.4993
▁Pleas	-9.50051
▁significant	-9.50109
▁weekend	-9.50288
▁sales	-9.50338
▁pret	-9.50339
▁benefit	-9.50633
▁active	-9.50703
▁strange	-9.50706
▁alw	-9.5082
▁express	-9.5082
▁Anna	-9.50862
▁boat	-9.50963
▁attractive	-9.50977
▁wind	-9.51036
▁bike	-9.51336
▁success	-9.51392
▁12	-9.51433
▁doctor	-9.51442
▁magic	-9.5147
▁rid	-9.51637
▁families	-9.51715
▁lifestyle	-9.51719
▁programmes	-9.51749
▁simply	-9.51806
▁deep	-9.51905
▁fair	-9.52168
▁photo	-9.52615
▁conclude	-9.52627
▁earth	-9.52645
▁piece	-9.52658
▁relat	-9.52676
▁security	-9.5278
ance	-9.5284
▁sit	-9.52894
▁inform	-9.53079
▁developing	-9.53265
▁performance	-9.53549
▁contrast	-9.53559
▁boring	-9.53592
▁regular	-9.53611
▁situations	-9.53734
▁connect	-9.53746
however	-9.54065
▁G	-9.54154
▁laugh	-9.54172
▁st	-9.54231
▁garba	-9.54338
ese	-9.54469
▁claim	-9.54626
▁Whi	-9.54782
▁fuel	-9.54786
▁speed	-9.54889
▁dress	-9.55028
▁Unfortunatel	-9.55399
▁obvious	-9.55414
▁check	-9.55535
▁opportunities	-9.55553
▁touch	-9.55665
▁Thus	-9.55757
ir	-9.55767
ted	-9.55767
▁image	-9.55818
▁bag	-9.55903
all	-9.55995
▁l	-9.56135
▁prepar	-9.56197
▁Y	-9.5629
▁afternoon	-9.5634
▁typical	-9.56345
▁Hong	-9.5645
▁discussion	-9.56452
older	-9.56524
▁hold	-9.56648
▁busy	-9.56893
▁30	-9.57027
▁dishe	-9.57122
▁scene	-9.57163
▁wom	-9.57321
▁access	-9.57394
▁proud	-9.57529
▁participate	-9.57544
ur	-9.57555
ts	-9.5762
▁sun	-9.5764
▁sign	-9.57667
eating	-9.57856
▁jams	-9.57861
▁collect	-9.58183
▁organise	-9.58236
▁World	-9.58251
▁disappear	-9.5855
▁decid	-9.5921
▁dance	-9.59309
▁video	-9.59328
▁model	-9.59359
▁proper	-9.59391
▁ye	-9.59402
ook	-9.59423
▁crowded	-9.59672
▁guy	-9.59957
▁correct	-9.60083
▁red	-9.6012
▁channel	-9.60203
▁absolute	-9.60204
▁black	-9.60219
▁hospital	-9.60221
▁convenience	-9.60255
▁ran	-9.60786
▁regards	-9.6082
▁dad	-9.60851
▁Co	-9.60864
▁industr	-9.61184
▁audience	-9.61194
▁U	-9.61205
▁hurt	-9.61216
▁consideration	-9.61468
land	-9.61687
▁pet	-9.61802
▁rain	-9.61832
▁vacation	-9.61993
▁war	-9.6205
▁garden	-9.62196
▁birthday	-9.622
▁Anyway	-9.62234
▁sincerely	-9.62288
▁jump	-9.62291
▁constant	-9.6233
▁patient	-9.6242
▁thanks	-9.62468
▁K	-9.62573
▁wall	-9.62575
▁plays	-9.62732
▁doubt	-9.62865
ter	-9.62936
▁worse	-9.62944
▁improv	-9.63181
tention	-9.6327
▁Desp	-9.63313
▁invite	-9.63398
▁State	-9.63439
▁national	-9.63521
▁groups	-9.63544
ather	-9.63562
▁shape	-9.6365
he	-9.63668
▁fell	-9.63752
▁Ou	-9.6383
▁prices	-9.63834
▁lunch	-9.64222
▁Kong	-9.64227
▁See	-9.64274
▁heav	-9.64361
▁reality	-9.64366
ago	-9.64441
▁anymore	-9.64468
▁tourist	-9.64779
▁eye	-9.64967
owadays	-9.65109
se	-9.6519
▁15	-9.65251
▁argue	-9.65273
▁passion	-9.65313
▁rush	-9.65319
▁scientific	-9.6532
nnis	-9.65447
▁Her	-9.65852
▁cheape	-9.65924
▁ages	-9.6607
▁graduate	-9.66147
▁confident	-9.66245
▁blood	-9.66298
▁attract	-9.66316
▁according	-9.66349
▁broke	-9.66424
▁pleasant	-9.6672
raid	-9.66765
▁destroyed	-9.66775
▁hi	-9.67043
Y	-9.67063
▁decrease	-9.6717
▁staff	-9.67348
▁freedom	-9.67356
▁risk	-9.67375
▁ma	-9.67462
▁recycle	-9.67491
▁ground	-9.67572
▁creat	-9.67838
▁wishes	-9.6788
el	-9.68105
▁shar	-9.68203
▁valu	-9.68353
raditional	-9.68415
▁incredibl	-9.6845
kept	-9.68465
▁academic	-9.68584
▁scar	-9.686
▁Un	-9.6861
▁plent	-9.68614
▁invention	-9.68685
▁print	-9.68846
▁Sudde	-9.69124
▁schedule	-9.69146
thing	-9.69284
friend	-9.69291
▁thank	-9.69305
▁organize	-9.69394
▁wedding	-9.69504
▁actors	-9.69526
▁talent	-9.6956
▁bird	-9.69581
▁According	-9.69584
▁exact	-9.69635
▁response	-9.69714
▁tend	-9.69803
by	-9.70082
▁Thanks	-9.70171
▁ride	-9.70178
▁beside	-9.70461
▁essay	-9.70581
▁remain	-9.70584
▁secret	-9.70649
▁works	-9.7072
▁native	-9.70736
▁author	-9.7105
ext	-9.71372
▁add	-9.7162
▁Brazil	-9.71668
▁Madrid	-9.71672
▁entire	-9.71674
▁routine	-9.71674
▁School	-9.71674
▁cousin	-9.71675
▁brain	-9.71754
▁introduce	-9.71755
▁reply	-9.7177
▁appropriate	-9.71805
▁guide	-9.71856
▁movement	-9.71898
▁woke	-9.71908
▁box	-9.72035
▁Unit	-9.72148
▁adapt	-9.72555
▁won	-9.72565
▁fee	-9.72567
▁creativ	-9.72626
▁Sunday	-9.72789
▁middle	-9.72789
il	-9.72852
ure	-9.72855
▁cultures	-9.72866
▁bet	-9.72952
▁Other	-9.72981
▁forgot	-9.73041
the	-9.731
▁progress	-9.73105
▁happening	-9.73137
▁saving	-9.73176
giving	-9.73234
▁charge	-9.73254
▁speaker	-9.73268
rote	-9.73273
▁force	-9.73567
▁required	-9.73709
▁Paul	-9.73885
▁feature	-9.73908
▁thousand	-9.73919
▁castle	-9.73989
new	-9.74151
▁provided	-9.74152
▁fine	-9.74429
▁emotion	-9.74479
▁Ital	-9.74679
▁accidents	-9.74861
▁majorit	-9.74862
▁Taiwan	-9.75042
▁underground	-9.75079
▁stars	-9.75091
▁brand	-9.751
▁relate	-9.75134
▁Faceboo	-9.75139
▁cool	-9.75152
▁seven	-9.75319
hile	-9.75341
▁feed	-9.75402
▁climb	-9.75457
▁wake	-9.75573
▁extra	-9.75635
▁fear	-9.75658
▁dead	-9.75704
▁bas	-9.75981
▁Just	-9.75992
ood	-9.76013
▁lower	-9.76079
▁hands	-9.76107
▁Saturday	-9.76194
▁quiet	-9.76203
▁message	-9.76214
▁airport	-9.76227
▁sing	-9.7623
ship	-9.76345
▁gas	-9.76386
▁prove	-9.76614
▁million	-9.76806
▁previous	-9.76835
na	-9.7692
▁weekends	-9.76944
ould	-9.77176
▁horse	-9.77367
▁reference	-9.77384
▁Good	-9.77397
▁concept	-9.77417
▁subway	-9.77454
▁angry	-9.77491
▁contain	-9.77525
me	-9.7763
▁date	-9.77656
▁member	-9.77816
▁island	-9.78023
▁organis	-9.78376
▁river	-9.78514
▁Monday	-9.78538
▁2014	-9.78556
▁region	-9.78615
▁sorry	-9.78623
▁opera	-9.78742
▁capital	-9.78928
▁plot	-9.78991
men	-9.79021
▁visitor	-9.7931
▁Pol	-9.79457
played	-9.79532
▁worried	-9.7989
▁regret	-9.79896
▁sitt	-9.79902
▁thriller	-9.79908
▁master	-9.79962
lison	-9.80266
▁delic	-9.80446
▁trust	-9.80567
ked	-9.80567
▁h	-9.80584
ctual	-9.80806
▁independent	-9.80881
▁decade	-9.80931
▁church	-9.80948
▁breath	-9.80962
▁generation	-9.81121
▁bicycle	-9.81224
▁spread	-9.81249
▁memor	-9.81323
▁taxi	-9.8141
▁size	-9.81437
time	-9.81438
fast	-9.8157
▁lea	-9.81609
▁serve	-9.81702
▁colleague	-9.82147
▁Summer	-9.82151
▁director	-9.82262
▁understanding	-9.82279
▁countryside	-9.82327
▁count	-9.82627
▁score	-9.83038
▁Here	-9.83144
▁email	-9.83384
▁ourselves	-9.83428
▁attack	-9.83473
we	-9.83496
▁cup	-9.83564
teresting	-9.83809
wice	-9.83813
hat	-9.83831
ternet	-9.84052
▁Franc	-9.84243
▁fly	-9.8444
▁Club	-9.84625
▁unique	-9.8463
▁pressure	-9.84635
▁financial	-9.84653
▁Park	-9.84668
▁Hope	-9.84685
▁twenty	-9.84688
▁white	-9.84774
▁trend	-9.84803
▁deserve	-9.84869
▁ancient	-9.84916
▁haven	-9.84982
standing	-9.85075
▁te	-9.85111
wise	-9.85136
▁cat	-9.85162
ember	-9.85241
▁contribute	-9.85543
go	-9.85728
▁parks	-9.85893
▁Friday	-9.85895
▁behaviour	-9.85898
▁alternative	-9.859
▁survive	-9.85935
▁blue	-9.85956
▁homework	-9.85962
▁pizza	-9.86004
▁represent	-9.86034
▁leav	-9.86035
▁ice	-9.86055
▁burn	-9.86162
▁pair	-9.86321
▁sent	-9.8633
▁hobby	-9.86504
▁wif	-9.86546
▁tradition	-9.86634
▁skat	-9.86737
▁strength	-9.87015
▁bedroom	-9.8718
▁original	-9.87184
▁earlie	-9.8721
9	-9.87238
▁mood	-9.87301
▁terribl	-9.87303
▁anywhere	-9.87422
ped	-9.8759
▁practical	-9.87599
▁weight	-9.87652
ive	-9.87822
▁e	-9.87952
▁court	-9.88102
▁sell	-9.8812
nd	-9.88236
▁suit	-9.88244
▁race	-9.88332
▁standard	-9.88403
▁inter	-9.88419
▁energetic	-9.8848
▁equipment	-9.88484
▁cheerful	-9.88487
▁tri	-9.88518
▁pm	-9.88536
▁connection	-9.88619
▁adventure	-9.88723
▁sweet	-9.88783
ory	-9.88842
▁leader	-9.88909
▁possibl	-9.89076
▁9	-9.89135
use	-9.89204
▁request	-9.89208
▁accident	-9.89223
▁destroy	-9.89236
▁sort	-9.89317
et	-9.89353
ver	-9.89429
▁ver	-9.8945
3	-9.89537
▁nation	-9.8956
▁receiv	-9.89562
▁Yes	-9.89742
▁brought	-9.89795
▁dis	-9.89799
▁death	-9.89803
▁Third	-9.8982
▁La	-9.89957
▁novel	-9.90131
▁chair	-9.90509
▁trouble	-9.90675
▁driver	-9.90743
▁employees	-9.90891
▁window	-9.91018
taly	-9.91032
▁volleyball	-9.91127
▁element	-9.91142
▁married	-9.91151
▁THE	-9.91212
▁menu	-9.9138
▁technologie	-9.91695
▁metal	-9.91864
▁Who	-9.92064
▁manager	-9.92152
▁UK	-9.92465
▁husband	-9.92476
▁Triv	-9.92477
▁comfort	-9.92591
▁fix	-9.92801
▁replace	-9.92966
▁loud	-9.93241
▁spoke	-9.93271
▁meaning	-9.93426
▁ski	-9.93489
▁hit	-9.93575
ew	-9.93629
▁path	-9.93676
▁rock	-9.93812
▁CV	-9.93839
▁librar	-9.93845
▁Consequentl	-9.93855
▁balance	-9.93879
▁fruit	-9.93887
▁caus	-9.93912
ture	-9.94152
▁apartment	-9.94186
▁crime	-9.94325
▁Brit	-9.94479
▁provid	-9.94668
▁Sep	-9.94757
D	-9.94925
▁pain	-9.95182
la	-9.95197
▁dessert	-9.95234
▁measure	-9.95239
▁device	-9.95274
▁Par	-9.95422
▁die	-9.95472
given	-9.95488
▁mine	-9.95501
▁passengers	-9.95608
▁polic	-9.95614
▁shoes	-9.95674
▁fire	-9.95701
▁13	-9.95921
▁becomes	-9.95991
▁petrol	-9.96023
▁deliver	-9.96263
▁arriv	-9.9638
▁ensure	-9.96401
▁Mos	-9.96463
ling	-9.96639
▁honest	-9.96645
▁carbon	-9.9667
▁fail	-9.96934
▁organiz	-9.96952
▁perform	-9.97156
▁approach	-9.97187
▁actions	-9.97254
▁gets	-9.97279
▁artist	-9.97285
▁becom	-9.97313
▁studie	-9.97367
▁desp	-9.97407
nis	-9.97544
▁considering	-9.97656
▁mark	-9.97973
▁100	-9.97999
▁disagree	-9.98
ra	-9.98077
▁emission	-9.98087
▁cr	-9.98095
▁2012	-9.98153
▁realise	-9.98271
▁hang	-9.98596
lly	-9.98714
▁com	-9.98744
x	-9.99018
▁America	-9.99094
▁Engl	-9.99242
▁cricket	-9.9936
▁invent	-9.99476
▁picture	-9.99521
▁Television	-9.99525
▁department	-9.99544
▁advise	-9.9963
cross	-9.99642
▁disaster	-9.99658
▁candidate	-9.99711
▁wor	-9.9972
▁danc	-9.99807
▁consumpti	-9.99886
▁safet	-10.002
▁desire	-10.0026
▁tall	-10.0033
▁smart	-10.0042
▁list	-10.0048
▁Mrs	-10.0056
▁trie	-10.0072
▁jam	-10.0074
▁cry	-10.0076
ball	-10.0076
ork	-10.0082
5	-10.009
▁ei	-10.0093
▁metro	-10.0102
▁danger	-10.0107
▁scientist	-10.0114
▁Introduction	-10.0121
▁City	-10.0121
▁oil	-10.0126
▁16	-10.0129
▁le	-10.0142
▁ga	-10.015
▁Bo	-10.0171
▁dramatic	-10.0174
▁homes	-10.018
▁solutions	-10.0231
bout	-10.0235
▁treat	-10.024
▁supermarket	-10.0249
▁pub	-10.0255
▁belief	-10.0261
▁timetable	-10.0264
cow	-10.0265
ice	-10.0271
▁Love	-10.0289
▁frequent	-10.0291
▁percent	-10.0298
paid	-10.0303
▁leg	-10.0307
part	-10.032
▁priva	-10.0324
▁primar	-10.0325
▁celebrit	-10.0328
▁salar	-10.0332
▁boss	-10.0333
▁suppose	-10.0339
▁recognize	-10.0365
ian	-10.0373
▁writer	-10.0382
▁almo	-10.039
▁generations	-10.0391
ine	-10.0396
wadays	-10.0399
▁enormous	-10.04
▁Like	-10.04
▁drawback	-10.04
▁2010	-10.04
▁International	-10.0401
▁instrument	-10.0401
▁bored	-10.0406
▁soap	-10.041
ga	-10.0421
▁invest	-10.0426
▁electric	-10.0435
▁pupils	-10.0436
▁suggestion	-10.0441
seen	-10.046
▁hobb	-10.0479
oman	-10.0518
▁route	-10.0534
▁baby	-10.0534
▁campaign	-10.0554
▁Earth	-10.0554
▁electronic	-10.0554
▁fift	-10.0558
▁potential	-10.0559
ate	-10.056
hood	-10.0565
▁25	-10.0566
▁sheet	-10.0566
▁whom	-10.0566
z	-10.0567
▁hate	-10.0569
▁af	-10.0578
▁spring	-10.0596
working	-10.0605
▁text	-10.0616
▁sh	-10.0632
▁cream	-10.0643
▁choos	-10.0653
▁crowd	-10.0655
ceres	-10.0675
▁ha	-10.0678
ffe	-10.0698
▁14	-10.0703
▁politician	-10.071
▁classmate	-10.0711
▁Sweden	-10.0711
▁chef	-10.0713
▁fame	-10.0716
▁rule	-10.0752
▁Take	-10.0756
▁cris	-10.0776
▁lake	-10.0779
▁Re	-10.079
▁sp	-10.0792
ie	-10.0806
▁lecture	-10.0807
▁harm	-10.0821
her	-10.0824
▁push	-10.0824
▁pre	-10.0834
▁alive	-10.0843
▁except	-10.0863
▁welcome	-10.0865
▁Brazilian	-10.0869
▁review	-10.087
trees	-10.087
▁Jack	-10.0872
▁experiment	-10.0875
▁location	-10.0876
▁slight	-10.0877
▁reduc	-10.0885
▁Camp	-10.0891
▁fluent	-10.0893
▁overcom	-10.0895
▁sky	-10.091
▁expert	-10.0912
▁exams	-10.0917
!	-10.0934
▁wild	-10.0952
▁levels	-10.0956
▁familiar	-10.096
ublic	-10.0978
ia	-10.0999
▁technological	-10.1031
▁stuff	-10.1038
▁temperature	-10.104
▁stori	-10.1044
▁hair	-10.1054
▁plate	-10.1055
▁drama	-10.1072
▁unfortunate	-10.1083
▁econom	-10.1086
▁cross	-10.1124
▁south	-10.1125
▁India	-10.1132
▁noise	-10.1152
▁confiden	-10.1159
▁Will	-10.1162
▁ordina	-10.1172
son	-10.1179
▁enhance	-10.1187
▁climate	-10.1194
▁conversation	-10.1194
▁Doctor	-10.1195
▁draw	-10.1196
▁male	-10.1196
▁motivation	-10.1201
▁institution	-10.1202
▁South	-10.1202
ization	-10.1209
▁zoo	-10.121
▁assistant	-10.1214
▁political	-10.1215
ey	-10.1223
que	-10.1234
▁fill	-10.1237
▁foot	-10.1292
▁flower	-10.1296
▁explore	-10.1297
azy	-10.1299
▁bu	-10.1324
▁wa	-10.1325
▁drivers	-10.134
▁compar	-10.1341
p	-10.1343
00	-10.1346
▁grammar	-10.136
▁implement	-10.136
▁hundred	-10.1361
▁Sincerely	-10.1361
▁sentence	-10.1362
▁unknown	-10.1363
▁dollar	-10.1364
▁harmful	-10.1367
▁Recent	-10.137
▁construction	-10.1372
▁technical	-10.1372
▁Ho	-10.1395
▁guess	-10.1398
cycling	-10.1399
▁shout	-10.1401
▁section	-10.1406
▁pollute	-10.1409
▁challeng	-10.1411
▁kn	-10.1471
▁Australia	-10.1493
▁Barc	-10.1499
▁finding	-10.1505
▁dirt	-10.1508
▁mass	-10.1522
house	-10.1529
▁obtain	-10.153
▁Education	-10.153
▁professor	-10.153
▁Mexico	-10.1533
▁screen	-10.1535
▁track	-10.1535
▁outdoor	-10.1542
▁protection	-10.1542
▁interact	-10.1542
unny	-10.1557
▁landscape	-10.156
▁beaut	-10.1577
▁surround	-10.159
▁Students	-10.1592
▁Yo	-10.1598
▁flexib	-10.1602
▁rent	-10.1621
▁shot	-10.1623
▁rise	-10.1635
whil	-10.165
▁willing	-10.1656
▁fascinat	-10.1665
▁fac	-10.1668
ade	-10.167
▁exchange	-10.1681
▁non	-10.1681
▁vegetables	-10.171
▁hesitate	-10.1712
▁commercial	-10.1713
▁medicine	-10.1714
▁injur	-10.1718
▁homeless	-10.1726
▁admire	-10.1728
▁sick	-10.1729
▁production	-10.174
▁alcohol	-10.175
▁whose	-10.1753
▁wood	-10.1758
way	-10.178
▁printed	-10.1782
▁promote	-10.1804
▁St	-10.1819
▁hall	-10.183
▁Can	-10.1843
▁reflect	-10.1846
▁promise	-10.1852
▁wi	-10.1852
▁sexual	-10.1864
▁produc	-10.1874
▁ocean	-10.1877
▁budget	-10.1877
▁Science	-10.1878
▁board	-10.1878
▁Look	-10.1879
▁Are	-10.1879
rk	-10.1879
▁opposite	-10.1882
▁client	-10.1883
inton	-10.1892
T	-10.1896
▁eight	-10.1905
▁item	-10.1907
▁11	-10.1912
▁wh	-10.1916
▁difficulties	-10.1919
▁theatre	-10.1921
▁Us	-10.1931
▁renew	-10.1976
▁slow	-10.1981
▁convince	-10.1989
▁north	-10.1992
▁surrounding	-10.1993
▁practic	-10.2005
▁Asia	-10.2008
▁stone	-10.2018
▁note	-10.2023
ps	-10.2052
▁female	-10.2056
▁perspective	-10.2056
▁qualification	-10.2056
▁urban	-10.2057
▁classroom	-10.2057
▁flight	-10.2058
▁preparation	-10.2064
▁participant	-10.2067
▁treatment	-10.207
▁consist	-10.2077
▁furni	-10.208
▁achievement	-10.2086
▁vital	-10.2089
▁Jane	-10.2112
▁Sport	-10.213
▁bed	-10.2137
1	-10.2138
▁content	-10.2138
▁grade	-10.2139
▁diet	-10.2142
▁parties	-10.2144
▁user	-10.2217
▁actor	-10.2227
▁ecological	-10.2238
▁radio	-10.224
▁capacit	-10.2246
▁stressful	-10.2255
tter	-10.2282
▁clock	-10.2289
▁complex	-10.2305
fully	-10.2318
▁mode	-10.2323
▁youth	-10.2325
4	-10.2328
▁admit	-10.2336
▁meat	-10.2341
▁Go	-10.2357
▁escape	-10.2361
▁J	-10.237
▁sight	-10.2373
▁giv	-10.2377
▁bin	-10.2386
ny	-10.2393
came	-10.2395
▁Shakespeare	-10.2423
▁illness	-10.2424
▁Korea	-10.2428
▁daughter	-10.2434
▁di	-10.2437
▁jogg	-10.244
▁enable	-10.2445
iness	-10.2448
▁soft	-10.2451
za	-10.2457
ial	-10.249
▁surf	-10.2492
life	-10.2508
▁situat	-10.2513
▁199	-10.2519
ping	-10.2524
▁stor	-10.2534
▁wine	-10.2535
▁arm	-10.2541
▁disadvantage	-10.2561
▁da	-10.2579
▁pace	-10.2611
▁pictures	-10.2612
▁horror	-10.2612
▁artwork	-10.2614
▁electricity	-10.2615
bul	-10.2617
▁Cars	-10.262
▁rapid	-10.2623
▁collection	-10.2625
aybe	-10.2628
▁structure	-10.263
▁Or	-10.2641
▁Per	-10.2641
lled	-10.2641
▁expectation	-10.2652
hopping	-10.2659
▁exhaust	-10.2663
▁celebrate	-10.2664
▁illustrate	-10.2693
▁secure	-10.27
▁rang	-10.2701
▁figure	-10.2715
id	-10.2717
▁Personal	-10.2717
▁Mar	-10.2744
▁demonstrate	-10.2772
ust	-10.2778
▁individuals	-10.2802
▁crucial	-10.2804
▁festival	-10.2804
▁shadow	-10.2804
▁behavior	-10.2806
▁competitive	-10.2806
▁conflict	-10.2809
▁grateful	-10.2815
▁disappointed	-10.282
sure	-10.2822
elon	-10.2826
wards	-10.2827
▁guest	-10.2833
▁d	-10.2846
▁personalit	-10.2879
▁presentation	-10.2885
▁War	-10.2901
▁mail	-10.2905
▁flat	-10.2935
▁multi	-10.2944
▁Aug	-10.2945
▁singer	-10.2954
▁V	-10.2961
low	-10.2976
▁container	-10.2989
work	-10.2993
▁opponent	-10.3
▁succeed	-10.3001
▁arrange	-10.3001
▁Ukrain	-10.3001
▁uncomfortable	-10.3003
ical	-10.3012
▁Egypt	-10.3022
▁appeal	-10.3025
▁Green	-10.3027
▁satisfy	-10.3029
▁nine	-10.3033
▁requirement	-10.3039
▁cell	-10.3056
expected	-10.3095
▁sat	-10.3108
▁drop	-10.3108
▁yes	-10.312
▁revolution	-10.3121
▁release	-10.3124
am	-10.3145
▁engine	-10.3147
▁techniques	-10.3154
▁creates	-10.3158
▁camera	-10.3165
▁coach	-10.317
▁Ca	-10.3178
▁delight	-10.3183
ize	-10.3185
▁purchase	-10.3197
▁David	-10.32
▁weapon	-10.32
▁relevan	-10.32
▁awesome	-10.32
▁straight	-10.32
▁manner	-10.3213
▁Everybody	-10.3217
▁girlfriend	-10.3217
▁discipline	-10.3222
▁peaceful	-10.3222
▁packed	-10.3239
▁chocolate	-10.3239
▁rely	-10.3246
▁attraction	-10.3249
▁God	-10.3257
▁address	-10.3314
▁Pa	-10.3333
▁press	-10.3341
town	-10.335
ics	-10.3377
▁ex	-10.3387
▁debate	-10.3389
▁via	-10.3391
▁General	-10.3404
▁Sara	-10.3406
per	-10.3406
▁memori	-10.3407
▁spot	-10.3409
▁regulation	-10.3411
▁curricul	-10.3426
some	-10.343
▁consumer	-10.3432
▁muscles	-10.3433
▁cloth	-10.3435
▁direction	-10.3436
cial	-10.344
ries	-10.3442
achel	-10.3469
(	-10.3474
▁minds	-10.3477
▁tea	-10.3553
▁basi	-10.3553
▁card	-10.356
▁Nation	-10.3576
▁tool	-10.358
▁Car	-10.3591
ant	-10.3595
▁ignore	-10.361
▁circumstance	-10.3612
▁romantic	-10.3613
▁Louis	-10.3613
▁conscious	-10.3615
▁grew	-10.3616
▁passage	-10.3618
▁Over	-10.362
▁manual	-10.3629
ach	-10.3631
▁authorities	-10.3635
▁Luck	-10.3636
▁Mean	-10.3644
▁page	-10.3651
▁organisation	-10.3657
▁van	-10.3666
▁safer	-10.3668
▁slowly	-10.367
ta	-10.3676
ans	-10.369
▁complain	-10.3697
▁bear	-10.3713
▁engage	-10.3714
▁income	-10.3715
▁identit	-10.3739
▁shoulder	-10.374
uck	-10.3759
▁cake	-10.3765
hap	-10.3774
▁De	-10.3783
▁minute	-10.3809
▁leaders	-10.3811
▁site	-10.3814
▁bathroom	-10.3825
▁speech	-10.3825
▁characteristic	-10.3826
▁spirit	-10.3826
▁Central	-10.3827
▁survey	-10.3828
▁satisfie	-10.3841
▁smoke	-10.3843
▁Time	-10.3843
▁define	-10.3845
▁appearance	-10.3848
▁..	-10.3872
▁nu	-10.3876
▁Lu	-10.388
ated	-10.3889
▁Footbal	-10.3894
▁guys	-10.39
red	-10.3902
▁hous	-10.3914
▁monuments	-10.3919
▁polluted	-10.3928
omen	-10.3936
▁Ba	-10.3942
ely	-10.3964
▁economical	-10.3977
▁Joe	-10.3979
▁snow	-10.4
ck	-10.403
:00	-10.4037
offe	-10.4037
▁summar	-10.404
▁Sarah	-10.4049
▁shirt	-10.4049
▁mum	-10.4057
▁genetic	-10.4058
▁mouth	-10.408
▁spit	-10.4082
our	-10.4084
▁web	-10.4099
E	-10.4109
▁Hence	-10.4113
▁conduct	-10.4114
▁son	-10.4152
▁learner	-10.4159
ma	-10.4162
▁recover	-10.4164
▁led	-10.4164
▁principle	-10.4167
▁Kate	-10.4167
▁fo	-10.4186
▁expense	-10.4194
▁coat	-10.421
▁Huan	-10.4225
▁lines	-10.4252
▁accommodati	-10.4263
▁gift	-10.4264
▁hockey	-10.4264
▁magnificent	-10.4265
▁smell	-10.4266
▁massive	-10.4266
▁Oct	-10.4267
▁awful	-10.4267
▁24	-10.4269
▁mechanical	-10.4273
▁grant	-10.4273
▁blog	-10.4275
▁infrastructure	-10.428
▁elder	-10.4281
ning	-10.4285
▁finger	-10.4285
▁kick	-10.4291
ada	-10.4293
▁confused	-10.4294
▁spare	-10.43
▁bright	-10.4313
▁setting	-10.4327
▁waiter	-10.433
▁involv	-10.4352
▁la	-10.4354
▁truly	-10.4367
▁perha	-10.4379
▁IN	-10.4387
▁occasion	-10.4396
▁tram	-10.44
▁con	-10.4406
clock	-10.4423
▁seat	-10.4424
▁pop	-10.4436
▁establish	-10.4446
▁dish	-10.4462
▁King	-10.4464
▁object	-10.4467
▁weird	-10.4475
▁occur	-10.4483
b	-10.4484
ober	-10.4487
▁manag	-10.449
▁investment	-10.4497
▁Turkey	-10.4497
▁grass	-10.4501
▁interaction	-10.4504
▁Kind	-10.4506
▁trick	-10.4507
▁reward	-10.4509
▁Where	-10.4511
▁eco	-10.4533
▁youngster	-10.4555
▁tour	-10.4558
▁sites	-10.4566
▁math	-10.4584
▁custom	-10.4585
▁Red	-10.4608
▁rate	-10.4618
wide	-10.4631
▁paint	-10.4638
▁divers	-10.4651
▁Work	-10.4654
▁refuse	-10.4659
▁North	-10.4663
▁educat	-10.4677
,	-10.4684
?	-10.4694
▁attach	-10.4721
▁phenomen	-10.4722
▁Regard	-10.4725
▁obesity	-10.4725
▁trash	-10.4726
▁Life	-10.4726
▁grandmother	-10.4726
▁proposal	-10.4726
▁border	-10.4729
▁bottle	-10.4732
▁ideal	-10.4732
▁Angel	-10.4732
▁machinists	-10.4734
ile	-10.4739
wo	-10.4755
▁encourag	-10.4755
▁threat	-10.4756
▁expression	-10.4758
▁statu	-10.4764
▁hire	-10.4768
▁Cam	-10.4781
▁happene	-10.4783
▁acquire	-10.4786
▁remind	-10.4789
▁centres	-10.4793
▁intend	-10.4794
▁indoor	-10.4815
▁stranger	-10.4818
▁critical	-10.483
▁remarkabl	-10.4865
till	-10.4867
▁scream	-10.4877
▁block	-10.4879
▁traveling	-10.4903
▁motivate	-10.491
aid	-10.4913
sh	-10.4914
▁kee	-10.4937
ona	-10.4938
▁neighbour	-10.4952
▁Fuji	-10.4962
▁target	-10.4962
▁intelligen	-10.4963
▁combination	-10.4964
old	-10.4965
▁Milan	-10.4966
▁egg	-10.4966
▁central	-10.4966
▁Computer	-10.4967
▁weak	-10.497
▁square	-10.4973
▁maintena	-10.4975
▁windows	-10.4983
▁wheel	-10.4998
▁Sov	-10.5001
▁40	-10.5019
▁partner	-10.5039
ulous	-10.5042
▁Squa	-10.5051
▁finishe	-10.5063
▁bully	-10.5066
▁clubs	-10.5086
▁po	-10.5086
year	-10.5103
▁gradual	-10.5113
any	-10.5114
▁Cup	-10.5122
▁benefi	-10.5123
▁souvenir	-10.5132
▁bodie	-10.5135
▁recommendations	-10.5137
▁yell	-10.5146
dden	-10.515
▁queue	-10.5161
▁belong	-10.5161
iet	-10.5164
▁gold	-10.5165
▁ba	-10.5172
▁pro	-10.5173
den	-10.5176
▁none	-10.5177
lic	-10.5185
▁gar	-10.519
▁wealth	-10.5193
ill	-10.5195
▁lo	-10.52
▁sto	-10.5207
▁Through	-10.5208
▁Current	-10.5213
▁inspection	-10.5214
▁certificate	-10.5214
▁Dick	-10.522
▁temple	-10.5234
▁religion	-10.5238
▁skate	-10.5245
▁Art	-10.5252
▁citizen	-10.5264
▁trips	-10.5267
▁surprising	-10.5278
▁documentar	-10.5288
▁strategi	-10.5297
▁j	-10.5327
▁profit	-10.535
▁chat	-10.5379
▁cycle	-10.5391
▁repeat	-10.54
▁Write	-10.542
▁hide	-10.5421
▁CO	-10.5424
▁Max	-10.5437
▁surger	-10.5439
ife	-10.5441
▁farm	-10.5442
▁Technolog	-10.5448
▁practis	-10.545
▁Miche	-10.5455
▁stupid	-10.5456
▁2013	-10.5456
▁eager	-10.5457
▁anyway	-10.5458
▁sector	-10.5459
▁objective	-10.5459
▁corner	-10.546
▁High	-10.5466
▁map	-10.5467
▁gap	-10.5469
▁Christ	-10.5479
▁session	-10.5484
▁Swit	-10.5499
▁gases	-10.5501
erous	-10.5509
▁diving	-10.5517
efore	-10.5518
▁construct	-10.5541
ig	-10.5541
▁sold	-10.555
ham	-10.5568
▁musical	-10.5576
ors	-10.5582
▁Oh	-10.5582
▁Mary	-10.5585
▁Maria	-10.5598
back	-10.5605
▁wise	-10.5605
▁Thai	-10.5614
▁Transport	-10.5625
doubted	-10.564
▁Canad	-10.5648
▁civil	-10.5653
▁relations	-10.5659
▁Metro	-10.566
▁expand	-10.566
com	-10.5667
uses	-10.5673
▁rais	-10.5682
▁combine	-10.5694
▁Ashby	-10.5712
▁CAMPS	-10.5712
▁Google	-10.5712
▁yesterday	-10.5713
▁extraordinar	-10.5713
▁drug	-10.5713
▁Regards	-10.5713
▁confirm	-10.5713
▁stadium	-10.5713
▁Laura	-10.5713
▁brilliant	-10.5716
▁mathematic	-10.5717
▁translation	-10.5718
courage	-10.572
▁assessment	-10.5721
zerl	-10.5723
▁21	-10.5724
▁Learning	-10.573
▁luxury	-10.5734
▁visual	-10.5742
▁foods	-10.5756
▁annoying	-10.576
▁touris	-10.577
P	-10.5773
▁immediate	-10.5788
▁owner	-10.5799
▁assist	-10.5805
dependent	-10.5812
▁matche	-10.5818
▁apart	-10.5822
▁died	-10.5823
▁pa	-10.5828
ying	-10.583
▁Usuall	-10.5834
▁wen	-10.5841
▁concentrate	-10.5842
▁sacrifice	-10.5854
tual	-10.5859
▁comed	-10.5872
▁dedicate	-10.5877
▁slave	-10.5905
▁kiss	-10.5907
▁Roman	-10.592
▁equal	-10.5936
▁passe	-10.5939
▁San	-10.5941
clear	-10.5948
xtrema	-10.5949
▁li	-10.5951
▁realis	-10.596
▁strict	-10.5963
dura	-10.5972
▁attempt	-10.5975
▁dioxide	-10.5976
▁Stephan	-10.5977
▁disposal	-10.5978
▁Ma	-10.5981
▁abandon	-10.5981
do	-10.5982
▁Easter	-10.5983
▁scal	-10.5984
▁Alice	-10.5988
▁league	-10.5988
▁impress	-10.5988
▁vast	-10.599
▁qualified	-10.5992
▁crop	-10.5992
▁Mi	-10.5998
▁cuisine	-10.6
▁TO	-10.6002
▁fulfill	-10.6007
▁Apr	-10.6014
▁tv	-10.6014
▁switch	-10.6023
▁fat	-10.603
▁coun	-10.6031
▁brave	-10.6033
▁loss	-10.6058
▁flood	-10.606
▁healthie	-10.6063
▁greatly	-10.6069
▁residents	-10.6077
▁Vi	-10.6085
▁mature	-10.6086
▁se	-10.6096
ca	-10.6101
ight	-10.6103
▁bikes	-10.6106
▁importa	-10.6108
▁GM	-10.6108
▁rare	-10.6117
▁relatives	-10.6132
co	-10.6144
▁ban	-10.616
6	-10.6173
▁consum	-10.6193
adays	-10.6197
deed	-10.6201
▁agent	-10.6205
▁link	-10.6211
▁ruin	-10.6214
head	-10.6227
▁peace	-10.6231
ton	-10.6232
▁mix	-10.6237
▁addict	-10.6244
▁propose	-10.6245
▁championship	-10.6247
▁failure	-10.6247
oday	-10.625
▁clever	-10.625
▁nor	-10.6251
▁bi	-10.6252
▁reduction	-10.6253
▁taxes	-10.6255
▁steal	-10.6257
▁Late	-10.6262
▁Sports	-10.6263
▁industrial	-10.6266
▁beca	-10.6268
▁lie	-10.6279
▁promotion	-10.6289
▁thirt	-10.6321
▁lover	-10.6327
▁assure	-10.6333
▁considere	-10.6347
▁household	-10.6362
led	-10.637
▁del	-10.638
)	-10.6383
my	-10.6385
▁smil	-10.6388
C	-10.6394
▁Home	-10.6396
▁Ji	-10.6405
▁era	-10.6406
▁architectur	-10.641
▁shower	-10.6411
▁introduc	-10.6412
▁fi	-10.6422
▁fa	-10.6424
▁legal	-10.6427
▁du	-10.6442
▁Day	-10.6442
rent	-10.6456
▁consume	-10.6461
▁hunt	-10.6478
▁sex	-10.6479
ay	-10.6494
fer	-10.6504
bell	-10.6504
▁lov	-10.6516
▁fin	-10.6518
hey	-10.6519
▁Smith	-10.6523
▁victim	-10.6523
▁approx	-10.6523
▁Street	-10.6523
▁pattern	-10.6523
▁album	-10.6523
▁Government	-10.6524
▁skateboard	-10.6524
▁tournament	-10.6524
▁software	-10.6525
▁brown	-10.6525
▁internship	-10.6526
▁grabb	-10.6526
▁investigation	-10.6528
▁humor	-10.6528
▁average	-10.6533
▁version	-10.6533
▁emergenc	-10.6533
▁lazy	-10.6538
▁Rome	-10.6538
▁smartphone	-10.6539
▁June	-10.654
▁arrival	-10.6543
▁reaction	-10.6545
▁brea	-10.6545
▁workplace	-10.6547
▁quarter	-10.6547
▁Li	-10.6552
▁hop	-10.6556
▁2015	-10.6556
▁charit	-10.6561
▁durin	-10.657
▁divide	-10.6577
▁underst	-10.658
▁litera	-10.6582
▁num	-10.6582
▁hung	-10.6597
▁ti	-10.6601
ching	-10.6633
▁stole	-10.6639
▁incident	-10.6663
▁meter	-10.6664
▁round	-10.6688
▁evaluate	-10.6691
om	-10.6696
▁mo	-10.6705
tory	-10.671
fore	-10.6711
▁broad	-10.6714
io	-10.6734
▁tower	-10.6738
▁empt	-10.6753
▁Ann	-10.6754
▁stair	-10.6769
▁officer	-10.6772
▁historic	-10.6774
▁Africa	-10.6779
CE	-10.6782
▁graduat	-10.6794
imate	-10.6804
ING	-10.6808
▁motorbike	-10.6809
▁December	-10.6809
▁enrich	-10.6809
▁function	-10.6809
▁prize	-10.681
▁drought	-10.681
▁palace	-10.6812
▁selection	-10.682
▁Law	-10.6821
▁continuous	-10.6823
▁impression	-10.6825
▁existence	-10.6828
▁deny	-10.6831
▁chemist	-10.6836
▁reader	-10.6838
abilit	-10.6844
▁opene	-10.6844
▁costume	-10.6856
▁tools	-10.6862
▁Mt	-10.6865
▁comment	-10.6889
▁ta	-10.6917
▁delay	-10.692
▁cha	-10.6926
ER	-10.6931
▁accomplish	-10.6935
lar	-10.6941
▁relation	-10.695
▁emotional	-10.6961
ilit	-10.697
▁universit	-10.6979
▁agenc	-10.6986
vision	-10.6987
▁additional	-10.7004
▁enclose	-10.7005
▁insuranc	-10.7027
▁adopt	-10.7028
▁....	-10.705
ology	-10.7075
als	-10.7103
▁junk	-10.7103
▁procedure	-10.7103
▁Adam	-10.7103
▁favour	-10.7104
▁Jason	-10.7104
▁cheese	-10.7104
▁distribution	-10.7105
▁instructor	-10.7106
▁pr	-10.7116
▁enthusiastic	-10.7117
▁soul	-10.7119
▁domestic	-10.7121
▁classic	-10.7122
▁Bi	-10.7136
▁select	-10.7138
▁sweat	-10.7143
are	-10.7149
▁former	-10.7158
▁realiz	-10.7164
▁Play	-10.7165
board	-10.7166
▁cons	-10.7168
▁Australian	-10.7169
▁grandpa	-10.7171
▁severe	-10.7174
▁sights	-10.7175
▁Gre	-10.7183
▁probab	-10.7197
▁blow	-10.7201
▁employee	-10.7209
cious	-10.7213
▁societ	-10.7231
▁extensi	-10.7245
▁horribl	-10.725
▁dear	-10.7259
▁consequent	-10.7265
▁ink	-10.7272
▁Real	-10.7278
▁studi	-10.7296
urious	-10.73
▁complicate	-10.7303
▁priorit	-10.731
j	-10.7313
▁Dr	-10.7315
v	-10.7323
▁fund	-10.7328
▁pull	-10.7341
▁YOU	-10.7345
night	-10.7361
▁cope	-10.7372
cil	-10.7375
of	-10.738
▁lonel	-10.7387
wood	-10.7393
▁coast	-10.7401
▁guitar	-10.7405
healthy	-10.7406
▁obstacle	-10.7407
▁farmland	-10.7407
▁suburb	-10.7407
▁laborator	-10.7407
▁Jenni	-10.7411
▁fiction	-10.7412
▁Gran	-10.7412
▁partial	-10.7413
▁Health	-10.7414
▁creature	-10.7414
▁data	-10.7414
▁River	-10.7414
dditional	-10.7415
bridge	-10.7418
▁eventual	-10.742
▁airplane	-10.7424
▁tension	-10.7426
▁repair	-10.7429
▁23	-10.7448
▁technique	-10.7476
▁pros	-10.7493
ti	-10.7496
▁zone	-10.7531
▁sofa	-10.756
▁contra	-10.758
UMM	-10.7592
elephone	-10.7593
▁sand	-10.7607
▁respond	-10.7615
bins	-10.7623
aring	-10.7625
▁researcher	-10.7631
▁Da	-10.7645
The	-10.7661
▁blame	-10.7673
▁owners	-10.7687
▁seats	-10.7692
iano	-10.7709
▁inspir	-10.7718
▁ingredient	-10.7719
▁Future	-10.7719
▁neighbourhood	-10.7719
▁agricultur	-10.772
▁mysterious	-10.772
▁gorge	-10.772
▁cloud	-10.772
▁vacanc	-10.7721
▁monster	-10.7722
ney	-10.7722
▁unexpected	-10.7724
▁orient	-10.7727
▁bother	-10.7728
▁Fortunat	-10.7729
▁spectacul	-10.7734
▁strategy	-10.7738
▁Juan	-10.7747
weight	-10.7755
▁organic	-10.7767
like	-10.7784
▁employment	-10.7786
▁Jan	-10.7787
▁distract	-10.7805
ism	-10.7817
nstead	-10.7818
olic	-10.7821
city	-10.7823
▁automobile	-10.7833
os	-10.7837
▁scare	-10.784
▁tight	-10.7869
▁employer	-10.7881
ties	-10.7883
▁sail	-10.7883
▁achiev	-10.7893
▁publish	-10.7897
ded	-10.7898
▁assess	-10.7921
table	-10.7929
▁sustain	-10.7958
▁judge	-10.796
artial	-10.7962
dom	-10.7968
▁Train	-10.7973
▁joy	-10.7984
▁fare	-10.7985
▁relative	-10.7988
▁Fin	-10.7995
▁Sh	-10.8002
▁Ne	-10.8017
▁Br	-10.8018
ber	-10.8022
▁Wat	-10.8034
▁Lo	-10.804
▁vocabular	-10.8041
istic	-10.8041
▁district	-10.8041
▁reception	-10.8042
▁illegal	-10.8042
▁weakness	-10.8044
▁title	-10.8046
▁identify	-10.8046
▁boost	-10.8048
▁grandfather	-10.805
▁aggressive	-10.805
▁pasta	-10.8055
▁dining	-10.8059
▁galler	-10.8061
▁gather	-10.8061
▁broaden	-10.8073
▁tir	-10.8077
▁determine	-10.8086
▁Me	-10.8087
▁whi	-10.8087
▁fashionable	-10.8089
OK	-10.8095
▁official	-10.8108
▁Luc	-10.8109
▁preserve	-10.8111
▁expose	-10.8132
▁Conclusion	-10.8137
▁counter	-10.8138
▁sufficient	-10.8143
▁quantit	-10.8151
mas	-10.8162
▁mayor	-10.8168
▁afr	-10.817
ake	-10.8172
ns	-10.8179
forgett	-10.8205
mental	-10.8213
▁meant	-10.8244
▁univers	-10.8247
▁falls	-10.8249
▁photograph	-10.8249
▁record	-10.8262
▁advertise	-10.8279
▁House	-10.828
▁mid	-10.8327
▁depress	-10.8331
▁Sa	-10.8334
▁Alex	-10.8339
▁checking	-10.8344
ast	-10.8346
ving	-10.837
▁rivers	-10.8372
▁Monica	-10.8374
▁disorder	-10.8375
▁deforest	-10.8375
▁Scout	-10.8375
▁criminal	-10.8375
▁chicken	-10.8375
▁resort	-10.8376
▁invitation	-10.8378
▁desk	-10.8378
▁skin	-10.8379
▁Human	-10.8383
▁cleaner	-10.8385
mission	-10.8389
▁froze	-10.8409
▁sightsee	-10.841
▁hero	-10.8411
▁limitation	-10.8414
habitants	-10.8419
▁Friends	-10.8425
▁Pat	-10.8464
▁entra	-10.8469
▁magical	-10.8493
▁chart	-10.8502
▁recommendation	-10.8515
ence	-10.852
▁useless	-10.8523
▁intention	-10.8528
sible	-10.8547
▁charm	-10.855
▁resolve	-10.8555
▁pe	-10.8563
▁Beca	-10.8578
▁basket	-10.8588
▁Uni	-10.8595
▁reli	-10.8597
▁ok	-10.8603
▁trainer	-10.8604
▁heat	-10.8613
▁outline	-10.8613
▁explor	-10.8623
▁tast	-10.8624
▁AC	-10.8628
▁Ver	-10.8658
up	-10.8672
▁lift	-10.8686
ania	-10.8706
▁mu	-10.8713
▁Vietnam	-10.8718
▁episode	-10.8719
▁encounter	-10.8719
▁evidence	-10.8719
▁context	-10.8719
▁comparison	-10.872
▁psychological	-10.872
▁Egyptian	-10.872
▁remote	-10.872
▁Especial	-10.872
▁tip	-10.872
▁commitment	-10.8721
▁innocent	-10.8723
▁fault	-10.8727
▁principal	-10.873
▁lugg	-10.873
▁tomorrow	-10.8739
▁innovation	-10.874
evil	-10.874
ise	-10.8742
▁package	-10.8754
for	-10.8759
▁witness	-10.8762
▁inspected	-10.8772
nic	-10.8782
▁managem	-10.879
▁Lot	-10.8811
▁Think	-10.8813
ard	-10.8813
▁Ju	-10.8814
useum	-10.8848
da	-10.8861
ions	-10.8861
▁tough	-10.8863
▁Environment	-10.887
iring	-10.8878
▁Bye	-10.8882
ears	-10.8883
▁jokes	-10.889
▁Jul	-10.8892
▁engag	-10.8904
▁behave	-10.8917
▁boil	-10.893
ady	-10.8944
▁struggle	-10.8958
▁Was	-10.899
▁impressi	-10.901
▁specie	-10.9014
no	-10.9018
ric	-10.9048
▁Marian	-10.9052
▁invit	-10.9055
▁publishe	-10.9058
▁cave	-10.9068
mate	-10.9069
▁necessit	-10.9074
▁gadget	-10.9076
▁diagram	-10.9076
▁Danderyd	-10.9076
▁ecosystem	-10.9076
▁treasure	-10.9076
ding	-10.9077
▁senior	-10.9077
▁loyal	-10.9077
▁James	-10.9077
▁soldier	-10.9078
▁contest	-10.9079
▁Mark	-10.908
▁Master	-10.9082
▁tutor	-10.9083
▁wetland	-10.9085
▁definition	-10.9087
▁celebration	-10.9089
▁highlight	-10.9092
▁AND	-10.9092
ka	-10.9095
▁forbid	-10.9099
▁En	-10.9105
▁automatic	-10.9108
▁fond	-10.9109
▁cap	-10.9109
▁outcome	-10.9116
▁decreas	-10.9125
▁polite	-10.913
▁Bali	-10.9136
▁handle	-10.9154
▁nei	-10.9163
▁soup	-10.917
▁sensitiv	-10.9171
▁Speak	-10.9172
ell	-10.9174
ged	-10.9185
tha	-10.9191
▁respective	-10.9197
▁Parent	-10.92
viously	-10.92
M	-10.9206
▁instant	-10.9212
berg	-10.9221
▁moral	-10.9234
▁transform	-10.9241
▁motivat	-10.9244
▁farmer	-10.9247
▁mil	-10.9248
▁reputa	-10.9249
▁Arab	-10.925
let	-10.9254
▁decline	-10.9255
▁abuse	-10.926
▁Scot	-10.9264
▁highway	-10.9277
ley	-10.9278
▁Jak	-10.9284
▁compete	-10.9286
▁Na	-10.9293
▁analyse	-10.9301
▁controll	-10.9314
R	-10.9319
▁atten	-10.9322
▁sa	-10.9322
▁Turk	-10.9335
▁ending	-10.9336
▁Dis	-10.9344
▁commute	-10.9351
▁crash	-10.9358
▁reserve	-10.9358
▁worrie	-10.936
pe	-10.9363
▁develope	-10.9368
hildren	-10.9372
▁22	-10.9378
▁spell	-10.9387
▁contribut	-10.9395
▁Sp	-10.9399
▁medi	-10.9402
▁flow	-10.9415
▁shock	-10.9419
ems	-10.9425
ru	-10.9444
▁Mont	-10.9444
▁marriage	-10.9446
▁tremendous	-10.9446
▁kindergarten	-10.9447
▁violence	-10.9447
▁unnecessar	-10.9447
▁narrow	-10.9448
▁tr	-10.9448
▁civilization	-10.9448
▁kilometre	-10.945
▁paparazzi	-10.9453
ery	-10.9453
▁western	-10.9453
▁stick	-10.9455
▁Sevill	-10.9458
▁angel	-10.9459
▁26	-10.9467
▁independence	-10.9468
▁passionate	-10.9475
▁Twi	-10.9478
▁Cafe	-10.948
▁Wall	-10.9484
▁Ali	-10.9485
▁chase	-10.949
▁retire	-10.9493
▁button	-10.9497
▁respondent	-10.9504
▁Sky	-10.9508
can	-10.951
▁seek	-10.9527
ke	-10.9531
▁Natural	-10.9564
EC	-10.9567
▁guard	-10.9583
▁height	-10.9586
▁desert	-10.9589
▁destructi	-10.9593
iro	-10.9597
▁Ka	-10.9601
chi	-10.9609
▁Mo	-10.9611
▁Marc	-10.9612
▁nois	-10.9617
▁Mala	-10.9619
▁east	-10.9621
▁pursue	-10.9621
▁Ky	-10.963
ement	-10.9636
ide	-10.9652
bal	-10.9652
verybody	-10.9656
▁associate	-10.9669
port	-10.9679
▁doors	-10.968
▁ring	-10.9682
action	-10.9689
orthern	-10.9692
ced	-10.97
▁recipe	-10.9703
SA	-10.972
▁dresses	-10.973
▁poet	-10.9733
▁lad	-10.9738
▁rat	-10.9753
▁command	-10.9754
▁entr	-10.9757
▁happ	-10.9757
▁Charl	-10.976
ught	-10.976
▁enthusias	-10.976
▁commut	-10.9775
ni	-10.9775
ha	-10.9781
▁therap	-10.979
book	-10.9791
.00	-10.9792
▁wash	-10.9803
▁Tit	-10.9805
▁finance	-10.9822
▁disturb	-10.9828
▁rhythm	-10.9829
▁ghost	-10.9829
▁vivid	-10.9829
▁Thomas	-10.9829
▁fridge	-10.983
▁profile	-10.983
▁President	-10.9831
▁guarantee	-10.9831
▁controversi	-10.9831
▁paragraph	-10.9831
▁evident	-10.9831
▁endanger	-10.9831
▁Engineer	-10.9832
▁sixteen	-10.9832
▁garage	-10.9832
▁silence	-10.9833
▁representative	-10.9833
▁Director	-10.9833
▁battle	-10.9834
▁theoretical	-10.9836
▁punishment	-10.9836
▁Relations	-10.984
▁bride	-10.9841
▁Christian	-10.9841
▁medium	-10.9842
▁orange	-10.9843
▁beyo	-10.9846
▁copy	-10.9849
▁precise	-10.9849
▁neighbor	-10.9851
▁punctual	-10.9853
▁cruise	-10.9857
▁shift	-10.9857
▁participat	-10.9859
▁thrill	-10.9862
▁Am	-10.9887
▁lips	-10.99
▁fume	-10.9901
▁CD	-10.9905
▁gaso	-10.9911
▁pray	-10.9916
▁Year	-10.9916
▁expos	-10.992
▁knock	-10.9933
nts	-10.9936
▁skirt	-10.9938
▁exhausted	-10.9941
▁Famil	-10.9946
▁u	-10.9951
▁Bu	-10.9957
elling	-10.9971
isation	-10.9973
▁Los	-10.9974
▁preference	-10.9974
hand	-10.9984
000	-10.9987
lf	-10.9989
▁patien	-10.9996
hing	-11.0006
▁hug	-11.0013
▁viewer	-11.0019
▁peer	-11.0021
50	-11.0021
▁Start	-11.003
▁hill	-11.0037
▁host	-11.0043
▁load	-11.0045
▁cure	-11.0056
light	-11.0064
▁Though	-11.0064
▁refresh	-11.0064
stan	-11.0066
▁Medi	-11.0077
▁appli	-11.008
▁reliab	-11.0083
▁par	-11.009
▁Arabia	-11.0103
ual	-11.0111
▁modes	-11.0116
iterature	-11.0128
hip	-11.013
▁predict	-11.014
sleep	-11.0145
▁beg	-11.0152
▁reveal	-11.017
▁ab	-11.0175
▁religio	-11.0179
audi	-11.0191
▁Aga	-11.0208
▁west	-11.0214
▁exception	-11.0216
▁surviv	-11.0217
tation	-11.0221
▁announce	-11.0228
wimming	-11.0229
▁immense	-11.0229
▁laptop	-11.0229
▁astonish	-11.0229
▁hurry	-11.023
▁discount	-11.023
▁equip	-11.023
▁Dream	-11.0231
▁Yesterday	-11.0231
▁broadcast	-11.0231
▁description	-11.0231
▁Manager	-11.0232
▁Fernand	-11.0233
▁cathedral	-11.0236
▁considerabl	-11.0238
▁depart	-11.0245
▁White	-11.0249
▁flavor	-11.0252
▁Po	-11.0278
▁habitat	-11.028
▁Se	-11.0284
ments	-11.0286
▁yog	-11.029
▁athlete	-11.0299
H	-11.0303
▁smok	-11.0318
▁Ki	-11.0321
▁origin	-11.0324
ural	-11.0336
▁cooperati	-11.0337
▁Ob	-11.0341
▁thin	-11.0341
▁Le	-11.0347
▁exploit	-11.0354
▁usage	-11.0355
▁facult	-11.0364
▁stu	-11.0368
▁gun	-11.0378
▁import	-11.0379
▁yo	-11.0387
logical	-11.0389
▁reasonabl	-11.0393
evolution	-11.0401
ster	-11.0404
▁wors	-11.0407
▁analysi	-11.0482
▁Ri	-11.0488
kay	-11.049
▁rose	-11.049
▁Gro	-11.0499
wever	-11.0505
sia	-11.0508
▁carrie	-11.0509
▁Pu	-11.0513
,000	-11.0518
cal	-11.0528
▁grown	-11.0535
▁mi	-11.0547
▁indicate	-11.0576
▁Give	-11.0576
▁clue	-11.0579
sk	-11.0595
▁remove	-11.06
ruth	-11.0602
▁Ye	-11.0608
▁Histor	-11.0609
cia	-11.0628
▁Fe	-11.0641
▁birth	-11.0645
▁satisfact	-11.0645
▁Professor	-11.0646
▁smooth	-11.0646
▁Business	-11.0646
▁brief	-11.0646
▁virtu	-11.0647
▁Dutch	-11.0647
▁Vietnamese	-11.0647
▁examination	-11.0647
▁playground	-11.0648
▁Music	-11.0649
▁prison	-11.065
▁billion	-11.065
▁eighteen	-11.0651
▁Hol	-11.0651
▁edition	-11.0651
▁Buda	-11.0652
▁genre	-11.0656
ri	-11.0668
▁Sophie	-11.067
▁IT	-11.0671
▁painful	-11.0674
▁categorie	-11.0687
▁solved	-11.0691
▁pack	-11.07
▁Michel	-11.0703
▁Sam	-11.0703
▁award	-11.0719
▁initial	-11.0727
▁arise	-11.073
▁happie	-11.0731
▁resistan	-11.0735
▁killer	-11.0736
▁instruction	-11.0739
sion	-11.0744
▁workshop	-11.075
▁grand	-11.0752
▁distan	-11.0753
mber	-11.0753
ybody	-11.0753
▁Mia	-11.0756
▁compet	-11.0757
▁elev	-11.0765
iff	-11.0778
▁32	-11.0779
▁distribute	-11.0785
▁trait	-11.0795
▁melt	-11.0807
ollege	-11.0814
▁90	-11.0817
▁OF	-11.0824
▁double	-11.0841
▁cruel	-11.0841
▁utilit	-11.0845
▁aid	-11.0845
sz	-11.0845
▁determin	-11.0861
▁looke	-11.0862
▁congest	-11.0862
ations	-11.0863
rising	-11.087
ept	-11.0872
ace	-11.0875
▁maxim	-11.0879
▁inner	-11.088
▁earning	-11.0892
▁ar	-11.0925
▁Dan	-11.093
ational	-11.0936
ible	-11.0936
appointment	-11.0939
▁partners	-11.0947
▁Ven	-11.0948
▁Ana	-11.0968
▁accessib	-11.0983
▁referr	-11.0986
▁Di	-11.0991
▁stunn	-11.0998
▁annoy	-11.101
▁alarm	-11.1017
ink	-11.1018
▁symbol	-11.1021
▁Che	-11.1024
ngue	-11.1033
▁Tenn	-11.104
▁los	-11.1041
magination	-11.1042
ison	-11.1046
▁Cent	-11.1047
▁packag	-11.1047
▁net	-11.105
▁confront	-11.1079
▁oxygen	-11.1081
▁Probabl	-11.1081
▁chapter	-11.1081
▁frighten	-11.1081
▁sibling	-11.1081
▁calorie	-11.1081
▁embarrass	-11.1081
▁Film	-11.1081
▁semester	-11.1081
▁president	-11.1081
▁register	-11.1083
▁Ph	-11.1083
▁neighborhood	-11.1084
▁sociable	-11.1084
▁pocket	-11.1085
rry	-11.1085
▁interior	-11.1085
▁winner	-11.1088
▁digital	-11.1088
▁Literature	-11.109
▁sharp	-11.1094
▁conquer	-11.1095
▁railway	-11.1101
▁Long	-11.1106
▁generate	-11.1108
▁dispute	-11.111
▁defend	-11.1118
▁firm	-11.113
▁adequate	-11.1134
ist	-11.1136
▁strengthen	-11.1137
pest	-11.1138
▁script	-11.1139
▁Martin	-11.1144
▁beginner	-11.1145
amous	-11.1148
▁inspire	-11.1162
▁welcom	-11.1162
▁Berl	-11.1167
▁situate	-11.1182
power	-11.1201
▁port	-11.1201
▁IS	-11.1204
▁careless	-11.1213
▁gra	-11.1216
tips	-11.1219
▁honor	-11.124
▁150	-11.1258
▁fortunate	-11.1261
▁cash	-11.1277
▁ship	-11.1278
▁previously	-11.1282
hould	-11.1283
▁dedicat	-11.1287
ens	-11.1287
rue	-11.1292
ro	-11.1294
ler	-11.1299
▁Sant	-11.132
▁format	-11.1326
▁innovati	-11.1328
▁Try	-11.1348
IES	-11.1353
otic	-11.1356
▁medica	-11.1365
▁pitch	-11.1366
tting	-11.1369
OD	-11.1372
▁toys	-11.1372
▁Jew	-11.1375
▁document	-11.1383
▁luxuri	-11.1394
room	-11.1394
▁murder	-11.142
tri	-11.1422
▁mess	-11.1425
▁pollut	-11.1432
▁occupie	-11.1456
▁lion	-11.1466
▁functions	-11.1474
▁gre	-11.1515
▁serv	-11.1519
▁Thursday	-11.1535
▁marathon	-11.1535
▁Portug	-11.1535
▁shelter	-11.1536
▁unusual	-11.1536
▁guilt	-11.1536
▁Emma	-11.1536
▁surface	-11.1538
funda	-11.1538
▁blink	-11.1542
▁athletic	-11.1544
▁minor	-11.1549
▁core	-11.155
▁clinic	-11.1551
▁repli	-11.1552
▁credit	-11.1552
▁roof	-11.1555
▁programming	-11.1558
▁enemy	-11.1562
▁Subject	-11.1563
▁alien	-11.1564
▁Pe	-11.1572
▁Bad	-11.1573
▁formal	-11.1575
▁evolve	-11.158
▁tendenc	-11.158
▁waitress	-11.1587
▁Ms	-11.1589
▁unemploy	-11.1597
▁offence	-11.1597
arassment	-11.1598
▁Recommendations	-11.16
▁60	-11.1607
ev	-11.1608
stry	-11.1613
istan	-11.1617
▁cabin	-11.1622
▁Develop	-11.1622
▁vi	-11.1624
latter	-11.1625
▁convert	-11.1637
▁gate	-11.1657
▁temporar	-11.166
ative	-11.166
▁Talk	-11.1663
▁discovery	-11.1666
▁dust	-11.1668
▁Grand	-11.1681
▁moon	-11.1695
▁miles	-11.1712
▁joint	-11.1712
nia	-11.1715
▁investigate	-11.1736
rage	-11.1738
ricket	-11.1741
▁devote	-11.1741
▁Old	-11.1748
ating	-11.1749
aged	-11.175
▁super	-11.1753
▁unit	-11.1778
▁Lei	-11.1792
▁imagin	-11.1813
▁joke	-11.1822
▁decreased	-11.1826
ety	-11.1834
ov	-11.1836
▁gon	-11.1843
▁Centr	-11.186
zy	-11.1869
tors	-11.187
▁profession	-11.1874
▁puzzle	-11.1876
▁municipal	-11.1879
▁wave	-11.1883
▁min	-11.1885
wee	-11.1886
▁lay	-11.1902
▁gossip	-11.1903
ara	-11.1904
ad	-11.1913
▁shore	-11.1917
▁Inde	-11.1922
▁satisfac	-11.193
▁preserv	-11.1938
▁cab	-11.1939
▁Tim	-11.194
▁Marcu	-11.1953
inning	-11.197
▁Mini	-11.1975
▁Colombia	-11.1975
▁observe	-11.198
▁bridge	-11.1991
▁Daniel	-11.1995
ze	-11.2008
▁pronunciat	-11.2011
▁Wednesday	-11.2011
▁Language	-11.2011
▁democra	-11.2011
▁Argentin	-11.2011
▁niece	-11.2012
▁soundtrack	-11.2012
▁sensation	-11.2013
▁exten	-11.2014
▁cartoon	-11.2016
▁genius	-11.2018
▁musician	-11.2018
▁Ocean	-11.2019
▁Physical	-11.202
▁servant	-11.2021
▁Temple	-11.2026
▁inconvenience	-11.2035
▁planne	-11.2036
▁graph	-11.2037
▁kilometer	-11.2039
▁composition	-11.204
▁twist	-11.2045
▁decoration	-11.2045
▁Colombian	-11.2048
▁elegan	-11.2051
▁ultimate	-11.2054
▁motor	-11.2056
▁Town	-11.2068
▁myster	-11.2079
▁shocked	-11.2082
▁separat	-11.2091
▁trail	-11.2095
▁HE	-11.2104
▁strike	-11.2106
▁flash	-11.2115
▁disabilit	-11.2123
ological	-11.2131
mint	-11.2156
▁fed	-11.2162
▁refer	-11.2166
▁uncle	-11.2184
▁critic	-11.22
▁Jon	-11.2208
▁interrupt	-11.2213
▁Nor	-11.2221
racle	-11.2225
▁Indian	-11.2226
▁mate	-11.2237
▁employ	-11.2242
▁chip	-11.2246
▁Sea	-11.2248
▁Ow	-11.2255
▁differ	-11.2259
▁root	-11.2272
ads	-11.2273
▁complet	-11.2288
arcelo	-11.2293
J	-11.2297
▁nitr	-11.2302
▁Different	-11.2302
ww	-11.2312
▁tra	-11.2312
▁bone	-11.2316
▁Mon	-11.2318
▁minimu	-11.2325
▁Con	-11.2328
▁Gra	-11.2331
illa	-11.2338
▁fu	-11.2342
▁talks	-11.2357
▁pure	-11.2359
▁purchas	-11.2364
▁dive	-11.2367
▁na	-11.2368
athedral	-11.2383
▁cou	-11.2403
▁Ben	-11.2405
▁acquir	-11.2414
scope	-11.245
▁cur	-11.2464
▁var	-11.2474
▁Feb	-11.2479
zing	-11.2483
▁foreigner	-11.2492
▁supp	-11.2492
if	-11.2495
▁solid	-11.2496
▁emphasize	-11.2502
▁Pala	-11.2506
▁twel	-11.2508
▁Certificate	-11.2511
▁Tuesday	-11.2511
▁excursion	-11.2511
▁questionnaire	-11.2511
▁Katowice	-11.2511
▁pellet	-11.2511
▁ceiling	-11.2511
▁curtain	-11.2511
▁Ronald	-11.2511
▁lounge	-11.2512
▁turtle	-11.2512
▁Isabel	-11.2512
▁Follow	-11.2512
▁Stock	-11.2512
▁jacket	-11.2512
▁affair	-11.2512
▁gender	-11.2512
▁lawyer	-11.2514
▁Greek	-11.2514
▁2009	-11.2514
▁Jenny	-11.2516
▁blind	-11.2516
▁Running	-11.2517
▁announcement	-11.2517
▁translator	-11.2518
▁Lucas	-11.2519
▁hydroge	-11.2521
▁Wang	-11.2521
▁transformation	-11.2522
95	-11.2525
▁juice	-11.2527
▁Daniela	-11.2529
▁anxious	-11.2529
▁George	-11.2529
▁terrorist	-11.2533
▁hunger	-11.2533
▁Welcom	-11.2534
▁statue	-11.2535
▁shortage	-11.2538
▁pride	-11.2538
ned	-11.254
▁Gothi	-11.254
▁v	-11.2547
▁distinct	-11.2547
▁damag	-11.2551
▁Indonesian	-11.2553
gar	-11.256
ina	-11.2566
▁Historical	-11.2568
▁warning	-11.2569
▁salad	-11.2569
▁stock	-11.2572
▁shooting	-11.258
▁creation	-11.2581
▁proportion	-11.2581
tube	-11.2583
▁Valen	-11.2591
▁excuse	-11.2596
▁batter	-11.2597
un	-11.2598
▁asset	-11.2599
▁Ros	-11.2599
lot	-11.2602
▁visi	-11.2604
sing	-11.2606
ds	-11.2613
gging	-11.2617
▁Cz	-11.262
▁Games	-11.2622
▁Mike	-11.2622
▁unfair	-11.2623
▁kissed	-11.2634
ana	-11.2645
ut	-11.265
ins	-11.265
hen	-11.2651
hi	-11.2652
▁resident	-11.2664
▁Kara	-11.2666
▁snacks	-11.2673
▁peak	-11.27
▁shorter	-11.2711
▁sale	-11.2717
▁troubles	-11.2725
▁intern	-11.2729
▁brush	-11.2732
▁Cast	-11.2733
▁Compare	-11.2746
▁scarc	-11.2752
▁bio	-11.2754
▁operation	-11.2755
▁designer	-11.2762
▁ve	-11.2771
crew	-11.2772
▁roll	-11.2789
ak	-11.2792
▁km	-11.2797
epartment	-11.2798
▁notic	-11.2801
▁dropp	-11.2803
▁Usual	-11.2804
gen	-11.2808
▁stem	-11.2813
▁Wait	-11.2816
worth	-11.2825
▁embrace	-11.2829
▁Lat	-11.2832
eline	-11.2833
▁recognise	-11.2837
ime	-11.2843
▁fairy	-11.2844
ellow	-11.2854
▁runner	-11.2854
▁bo	-11.2854
▁chatt	-11.2855
▁Read	-11.2862
▁Jessi	-11.2864
ars	-11.2865
▁Ed	-11.2867
K	-11.2868
▁dump	-11.2872
▁hell	-11.2873
how	-11.2888
▁ador	-11.2893
▁chill	-11.2905
▁entrepreneur	-11.2909
▁code	-11.2909
▁lock	-11.2921
▁ju	-11.2927
▁bench	-11.293
▁suspens	-11.296
▁Mal	-11.2967
eval	-11.2971
▁201	-11.2984
lway	-11.2984
▁spa	-11.2989
▁availa	-11.2991
"	-11.2991
▁beat	-11.2991
▁Indonesia	-11.2994
UM	-11.3021
▁argu	-11.3023
pleasant	-11.3027
▁punish	-11.3031
▁Victoria	-11.3033
▁adjust	-11.3035
▁skyscraper	-11.3038
▁incentive	-11.3038
▁wardrobe	-11.3038
▁pregnant	-11.3038
▁drunk	-11.3038
▁Nonethe	-11.3039
▁grocer	-11.3039
▁Friendship	-11.3039
▁contract	-11.3041
▁Wonder	-11.3041
▁Youtube	-11.3042
▁cooperat	-11.3046
▁nutrition	-11.3047
▁establishment	-11.3048
▁proficien	-11.3049
▁spoil	-11.305
▁mask	-11.3055
▁rail	-11.3056
▁hello	-11.3063
▁facilitate	-11.3065
▁accompanie	-11.3066
▁actress	-11.3071
▁english	-11.3071
▁tidy	-11.3072
▁Natur	-11.3072
▁supervis	-11.3074
▁lern	-11.3075
▁Ea	-11.3077
lack	-11.3078
▁abort	-11.3082
▁examine	-11.3087
▁Soc	-11.309
▁curse	-11.3095
▁somehow	-11.3096
▁disable	-11.3117
ons	-11.312
itness	-11.3121
U	-11.3128
▁rational	-11.3131
fe	-11.3139
nted	-11.3141
▁quicker	-11.3145
right	-11.3147
▁Emil	-11.3151
icious	-11.3157
▁combusti	-11.3164
▁snake	-11.3168
▁pen	-11.3172
▁invi	-11.3173
▁ac	-11.3175
▁Any	-11.3176
▁chemicals	-11.3181
▁Julia	-11.319
▁tap	-11.3192
▁promises	-11.3196
▁300	-11.3212
▁pu	-11.3223
parent	-11.3226
▁Gree	-11.3234
▁nurse	-11.3241
going	-11.325
▁comfortabl	-11.3253
▁hasn	-11.3261
▁Fred	-11.3267
convenient	-11.3283
▁highe	-11.3285
▁Bal	-11.329
ved	-11.329
▁hel	-11.3295
ano	-11.3315
iz	-11.3315
iv	-11.3317
▁tho	-11.3318
▁East	-11.3334
▁serving	-11.3337
▁bann	-11.3352
BC	-11.3354
▁cancer	-11.3381
▁frustrat	-11.3384
▁Associat	-11.3385
ol	-11.3394
▁promot	-11.34
tr	-11.3401
▁Ro	-11.3434
▁tear	-11.3439
▁caring	-11.3449
▁exclude	-11.3463
▁Cook	-11.3464
▁admir	-11.3467
▁Gi	-11.3478
▁Casa	-11.348
rely	-11.3481
nning	-11.3485
▁fil	-11.351
▁Hall	-11.3512
▁putt	-11.3519
IL	-11.3523
▁fulfil	-11.3526
▁assume	-11.3528
▁shoot	-11.3531
▁interpret	-11.3542
▁Mit	-11.3546
▁relie	-11.3555
▁fille	-11.3557
▁institute	-11.3558
ces	-11.3562
▁litter	-11.357
▁trans	-11.357
end	-11.3573
▁runni	-11.3574
▁fab	-11.3582
▁inspect	-11.3588
▁mis	-11.3591
▁Aurora	-11.3593
▁Maleficen	-11.3593
▁awkward	-11.3593
▁cigarette	-11.3593
▁nephew	-11.3593
▁outweigh	-11.3593
▁sandwich	-11.3593
▁slalom	-11.3593
▁explanation	-11.3593
▁monitor	-11.3593
▁depict	-11.3593
▁Colosseum	-11.3593
▁narrator	-11.3594
▁Hotel	-11.3594
▁gymnastic	-11.3594
▁perception	-11.3594
▁yield	-11.3594
▁detective	-11.3594
▁evaluation	-11.3595
▁occupation	-11.3595
▁chamber	-11.3595
▁Elena	-11.3595
▁Yellow	-11.3595
▁editor	-11.3595
▁violent	-11.3596
holm	-11.3596
▁thief	-11.3597
▁butterfl	-11.3597
▁pound	-11.3598
▁Keep	-11.3599
▁Bright	-11.3599
▁textbook	-11.3599
▁Bob	-11.3599
▁multiple	-11.36
▁interactive	-11.3601
▁sheep	-11.3604
▁branch	-11.3604
▁headache	-11.3605
▁contribution	-11.3606
▁marry	-11.3606
▁Harry	-11.3606
▁solv	-11.3607
▁panic	-11.3609
▁fiance	-11.361
▁Food	-11.361
▁restriction	-11.361
▁babysitter	-11.361
▁analytic	-11.3611
▁portion	-11.3618
▁roller	-11.3618
▁concentrat	-11.3627
▁Ober	-11.3627
▁transfer	-11.363
▁celebrat	-11.3632
▁pretend	-11.3632
ier	-11.3634
▁modifi	-11.3634
▁Pro	-11.3637
▁downside	-11.364
▁guides	-11.3642
▁globaliz	-11.3644
ified	-11.3658
▁Never	-11.3667
▁Cath	-11.3671
▁conference	-11.3684
ses	-11.3694
▁motorway	-11.3696
mong	-11.3698
▁fake	-11.3701
▁forgive	-11.3702
diz	-11.3703
ncil	-11.3705
▁describ	-11.3705
▁soil	-11.3707
mark	-11.3708
▁handy	-11.3717
▁undergo	-11.3724
▁advis	-11.3725
▁Bor	-11.3728
▁teen	-11.373
▁depressi	-11.3733
▁Chand	-11.3734
▁West	-11.3735
▁Near	-11.3737
▁sphere	-11.374
▁oppos	-11.3741
water	-11.3744
happy	-11.3745
▁venue	-11.3745
▁acceptable	-11.3759
▁Almos	-11.3762
EST	-11.3786
▁struggl	-11.3798
▁CL	-11.3801
▁El	-11.3802
▁Wi	-11.3804
▁Need	-11.3806
▁commun	-11.3806
mankind	-11.3825
rd	-11.3829
odern	-11.3845
▁Ch	-11.385
▁impose	-11.3854
jean	-11.3857
▁End	-11.3865
▁Bot	-11.387
▁Yel	-11.3875
L	-11.3876
live	-11.3887
familiar	-11.3888
ford	-11.391
toxic	-11.3915
▁caf	-11.3918
▁capabilit	-11.3924
em	-11.3927
▁monument	-11.3938
▁Richard	-11.3941
▁toleran	-11.3942
▁gene	-11.3947
▁sw	-11.3953
res	-11.3956
tten	-11.3957
round	-11.3957
▁dut	-11.3958
▁Driv	-11.3961
lity	-11.3969
▁Academ	-11.3974
▁Lor	-11.3976
▁lab	-11.3984
agreement	-11.3986
▁196	-11.3988
▁universal	-11.3991
▁calculate	-11.3994
▁chao	-11.3997
▁Gar	-11.4002
dical	-11.4004
▁committe	-11.4008
▁balle	-11.4013
med	-11.4013
▁govern	-11.4023
pover	-11.4042
▁hid	-11.4044
tries	-11.4048
▁truck	-11.4052
ei	-11.4059
pping	-11.406
proved	-11.4073
▁Bon	-11.4079
▁Edi	-11.4081
▁hik	-11.4084
▁FOR	-11.4086
▁Ku	-11.4102
▁squa	-11.4103
▁amuse	-11.4103
▁Brita	-11.4105
▁trap	-11.4113
▁fr	-11.4118
▁expans	-11.412
▁bulb	-11.4127
▁Night	-11.4156
▁ambitio	-11.4159
aches	-11.4159
there	-11.4164
▁possess	-11.4174
▁Yu	-11.418
▁vulnerab	-11.4181
▁pyramid	-11.4181
▁superior	-11.4181
▁Muslim	-11.4181
▁external	-11.4181
▁whisper	-11.4182
▁substance	-11.4182
▁exquisit	-11.4182
▁Olympic	-11.4182
▁stylish	-11.4183
▁dissatisf	-11.4183
▁protagonist	-11.4183
▁humour	-11.4183
▁2006	-11.4183
▁panel	-11.4184
▁GP	-11.419
▁persuade	-11.419
▁cellphone	-11.4191
▁dispose	-11.4191
▁Surprising	-11.4192
▁shut	-11.4195
▁alert	-11.42
▁assert	-11.42
▁distraction	-11.4205
▁Tower	-11.4208
mediate	-11.421
▁workout	-11.4218
▁desperate	-11.4219
▁relaxation	-11.4221
▁anxi	-11.4222
▁apparent	-11.4227
▁exceptional	-11.4228
▁Rid	-11.4232
▁Min	-11.4233
▁euro	-11.4237
▁va	-11.4239
▁gran	-11.4247
▁cop	-11.4252
▁organizer	-11.4264
▁quote	-11.4267
▁revealed	-11.4274
case	-11.4291
▁bond	-11.4294
▁deli	-11.4296
▁mar	-11.4297
▁theater	-11.4298
tom	-11.4304
▁admitted	-11.431
think	-11.4319
▁Chi	-11.4322
▁densit	-11.4323
▁bargain	-11.4324
▁hugg	-11.4328
▁elde	-11.4335
▁analyze	-11.4341
dvantages	-11.4342
▁pity	-11.4345
▁teache	-11.4349
▁torture	-11.4352
ms	-11.4361
▁Rus	-11.4364
▁bill	-11.4364
read	-11.4376
▁Serg	-11.4385
ick	-11.4386
▁literal	-11.4392
ied	-11.4413
▁shine	-11.4414
▁ki	-11.4414
▁reache	-11.4416
▁Craco	-11.4421
▁complicat	-11.4421
▁rank	-11.4427
▁cast	-11.4429
▁communicat	-11.4429
▁metre	-11.4429
ug	-11.4435
▁Hug	-11.444
▁manufacturer	-11.4457
ot	-11.4477
ised	-11.4478
cular	-11.4485
▁timing	-11.4485
ters	-11.4491
▁donate	-11.4493
phones	-11.4496
▁bat	-11.4501
raining	-11.4504
▁35	-11.4505
▁Respons	-11.4512
▁ill	-11.4514
▁cri	-11.4529
▁stimulate	-11.4536
▁dispatche	-11.4542
sed	-11.455
▁cal	-11.4557
▁transmit	-11.4561
▁bott	-11.4561
▁Tri	-11.4562
▁sta	-11.4564
own	-11.4585
▁Lion	-11.4606
▁Kar	-11.4608
lk	-11.4608
▁authorit	-11.4636
▁Mua	-11.4637
solution	-11.4639
▁Lim	-11.4649
▁airway	-11.4649
acus	-11.4662
eans	-11.4666
ow	-11.4668
▁hike	-11.4675
▁Luci	-11.468
ION	-11.469
▁categor	-11.4701
ents	-11.4703
▁considerate	-11.4704
▁beer	-11.471
nformation	-11.4711
yone	-11.4717
▁proceed	-11.472
▁si	-11.4722
▁mobil	-11.4724
▁curren	-11.4724
ilver	-11.4729
▁formula	-11.4735
▁divid	-11.474
motion	-11.4741
▁ro	-11.4744
ran	-11.475
▁resist	-11.4752
▁qualiti	-11.4753
umber	-11.4756
▁pl	-11.4762
▁Gu	-11.4775
▁PA	-11.4784
▁tense	-11.4786
▁Robert	-11.4789
▁jog	-11.4797
▁politic	-11.4798
▁matur	-11.4803
▁Bulgaria	-11.4806
▁Gorbach	-11.4806
▁hurricane	-11.4806
▁mirror	-11.4806
▁esteem	-11.4806
▁technician	-11.4806
▁platform	-11.4806
▁jungle	-11.4806
▁devastati	-11.4806
▁download	-11.4807
frai	-11.4807
▁brutal	-11.4807
▁Ferrari	-11.4807
▁Leonard	-11.4807
▁retail	-11.4807
▁fingermark	-11.4807
▁unbelievable	-11.4807
▁trauma	-11.4807
▁obsession	-11.4807
▁drastic	-11.4808
▁grasp	-11.4808
▁assault	-11.4808
▁thirteen	-11.4808
▁giant	-11.4808
▁jail	-11.4809
▁Costa	-11.4809
ffle	-11.481
▁contamination	-11.481
▁labor	-11.4811
▁pi	-11.4811
▁serial	-11.4811
▁exhibition	-11.4812
▁artificial	-11.4813
▁booklet	-11.4813
▁silent	-11.4814
▁annual	-11.4815
▁recall	-11.4817
▁Allison	-11.4819
▁inherit	-11.4821
▁election	-11.4822
▁Recycling	-11.4823
▁toilet	-11.4825
▁Juliet	-11.4826
▁urgent	-11.4827
▁addiction	-11.4829
burden	-11.4831
▁virus	-11.4831
▁Visit	-11.4832
▁arrangement	-11.4832
rious	-11.4835
▁Helen	-11.4836
▁accurate	-11.4837
▁swimmer	-11.4837
▁Far	-11.4837
▁wander	-11.4839
▁spi	-11.4841
imilar	-11.4848
▁association	-11.4848
▁SP	-11.4851
raffi	-11.4852
▁selfish	-11.4854
▁booking	-11.4856
▁Teacher	-11.4857
▁kisses	-11.4858
▁graphic	-11.4862
▁Franco	-11.4863
▁comic	-11.4864
▁unlike	-11.4865
TS	-11.4868
▁prejudice	-11.4884
▁coca	-11.4887
▁ships	-11.4888
polit	-11.4888
▁doubts	-11.4892
▁shade	-11.4892
▁Post	-11.4893
▁Jose	-11.49
▁stabili	-11.4908
nes	-11.4914
les	-11.4914
mach	-11.4918
▁reuse	-11.4923
▁Bronte	-11.493
▁cheer	-11.4933
▁vacations	-11.4938
▁extend	-11.4941
▁fanc	-11.4946
▁45	-11.4961
▁Princes	-11.4966
▁capture	-11.4971
▁potion	-11.4972
▁Ham	-11.4972
bilit	-11.4977
▁phrase	-11.4983
▁angle	-11.4989
ists	-11.4993
merous	-11.5005
▁cheat	-11.5006
unning	-11.5011
iting	-11.5012
view	-11.5024
cultural	-11.5025
▁presen	-11.5027
▁vary	-11.5027
▁healthi	-11.5034
▁king	-11.5036
▁sin	-11.5039
▁photographer	-11.5049
personal	-11.5054
▁intens	-11.5058
ls	-11.5059
▁applie	-11.5059
lin	-11.5062
uese	-11.5065
▁Sharm	-11.507
▁liv	-11.507
▁salt	-11.507
▁occurre	-11.5074
▁programmer	-11.5074
▁Belgi	-11.5074
ater	-11.5076
▁bath	-11.5079
▁sir	-11.5104
G	-11.5124
▁butter	-11.5125
urs	-11.5131
aving	-11.5135
▁scen	-11.514
▁Cop	-11.5142
get	-11.5148
▁worsen	-11.5153
bi	-11.5157
▁Gal	-11.5161
▁im	-11.5175
▁specialize	-11.5183
▁efficien	-11.5185
ward	-11.5189
tw	-11.5192
▁complaint	-11.5201
ella	-11.522
▁Student	-11.5228
▁plu	-11.5233
▁thirst	-11.5237
ba	-11.526
B	-11.5265
▁commit	-11.5269
▁Mari	-11.5274
▁outsi	-11.5275
▁Back	-11.5276
▁seas	-11.5288
▁subl	-11.5295
V	-11.5299
▁nerve	-11.5302
▁accommodat	-11.5313
eaten	-11.5313
TION	-11.5314
▁Mor	-11.5318
▁floods	-11.5321
▁degrad	-11.5339
ango	-11.5355
▁Discover	-11.5355
In	-11.5359
magine	-11.5365
▁Bus	-11.5388
:	-11.5389
ul	-11.5401
▁Bra	-11.5415
ussel	-11.542
▁defin	-11.543
▁threaten	-11.5431
▁upset	-11.5437
▁conserv	-11.5451
▁terrifi	-11.5454
▁sub	-11.5458
▁drag	-11.5459
▁Si	-11.5465
▁Netherlands	-11.5473
▁Restaurant	-11.5473
▁prestig	-11.5473
▁compromise	-11.5473
▁enterprise	-11.5473
▁declare	-11.5473
▁apologize	-11.5473
▁thorough	-11.5474
▁reckon	-11.5474
▁fingerprint	-11.5474
▁2011	-11.5474
▁elevator	-11.5474
▁uncertain	-11.5474
▁initiative	-11.5475
▁stretch	-11.5475
▁Little	-11.5476
▁famine	-11.5477
▁depth	-11.5477
▁beverage	-11.5477
▁circle	-11.5481
▁sickness	-11.5481
▁neck	-11.5483
▁decorate	-11.5486
▁obligation	-11.549
▁obey	-11.5491
▁stroke	-11.5492
▁complication	-11.55
▁advancement	-11.5502
BI	-11.5507
▁criteri	-11.551
▁Place	-11.551
▁Basketball	-11.5516
▁Four	-11.5517
der	-11.5517
▁isolate	-11.5519
▁aerobic	-11.5519
▁combin	-11.552
▁Cause	-11.5521
▁frog	-11.5522
▁Clean	-11.5527
▁grandm	-11.5531
▁ke	-11.5535
▁convey	-11.554
▁sportsman	-11.5541
!.	-11.5544
▁Island	-11.555
▁exit	-11.5558
▁stepp	-11.5564
slim	-11.5566
▁bless	-11.5575
▁extract	-11.5576
▁threatening	-11.558
▁reform	-11.5583
▁Study	-11.5586
▁liter	-11.5619
▁lane	-11.562
ue	-11.5623
ael	-11.5634
▁preferr	-11.5639
▁Nov	-11.5642
▁injure	-11.5645
▁judg	-11.5648
▁Did	-11.5652
▁trainee	-11.5652
▁kara	-11.5652
▁fal	-11.5655
▁proof	-11.5668
12	-11.5678
▁preci	-11.5688
what	-11.5705
▁nap	-11.5706
▁manda	-11.5707
▁pant	-11.5715
▁allergi	-11.5715
▁Dat	-11.5717
nteresting	-11.5724
▁updat	-11.5738
▁Plane	-11.5745
laza	-11.5749
▁Cas	-11.5761
va	-11.5767
field	-11.5767
▁pra	-11.5776
▁launch	-11.5779
ang	-11.5789
▁shin	-11.5792
▁trad	-11.5799
▁Susan	-11.58
▁Live	-11.581
ium	-11.5821
▁prospect	-11.5821
▁architectural	-11.5827
▁Head	-11.5828
iserable	-11.5843
▁yours	-11.5853
▁dys	-11.5854
▁gradua	-11.5856
▁--	-11.5865
▁socialize	-11.5872
▁alre	-11.5878
▁advanc	-11.5881
▁lands	-11.5883
nternet	-11.589
ates	-11.5892
▁dr	-11.591
▁curios	-11.5919
▁physic	-11.5919
graduate	-11.5924
els	-11.593
LY	-11.593
▁Abo	-11.5931
▁stable	-11.594
▁Afterward	-11.5941
▁integrate	-11.5961
▁teenage	-11.5964
with	-11.5974
servation	-11.5983
▁philosoph	-11.5994
tly	-11.6
▁capab	-11.6028
▁endure	-11.6034
tery	-11.604
▁Catal	-11.6053
▁plain	-11.6055
stic	-11.6063
epper	-11.607
▁stat	-11.6073
▁Bull	-11.6075
▁confus	-11.6077
ger	-11.609
▁Act	-11.6097
▁tax	-11.6107
pass	-11.6114
▁deposit	-11.612
▁excessive	-11.613
▁arrang	-11.6158
▁Euro	-11.6175
▁Su	-11.6176
▁destin	-11.6184
▁grab	-11.6184
▁Alhambra	-11.6187
▁Fashion	-11.6187
▁coincide	-11.6187
▁franchise	-11.6187
▁marvellous	-11.6187
▁mechanism	-11.6187
▁scooter	-11.6187
▁sophisticate	-11.6187
▁snorkel	-11.6187
▁astronaut	-11.6187
▁collapse	-11.6187
▁handicap	-11.6187
▁intellectual	-11.6187
▁jealous	-11.6187
▁autograph	-11.6187
▁detriment	-11.6187
▁genuine	-11.6188
▁cogniti	-11.6188
▁multinational	-11.6188
▁William	-11.6188
▁Java	-11.6188
▁wizard	-11.6188
▁Midsummer	-11.6188
▁Petersburg	-11.6188
▁unsuccessful	-11.6188
▁refuge	-11.6188
▁receptionist	-11.6188
▁immun	-11.6188
▁Tij	-11.6188
▁psychologist	-11.6189
▁divorce	-11.6189
▁royal	-11.6189
▁kung	-11.6189
▁mixture	-11.6189
▁Republic	-11.6189
▁complement	-11.619
▁overse	-11.619
▁viewpoint	-11.619
▁Animal	-11.619
▁1990	-11.6191
▁Margar	-11.6191
▁audition	-11.6192
▁Taip	-11.6193
▁Marina	-11.6193
▁Fox	-11.6193
▁cheek	-11.6193
▁Communist	-11.6193
▁prohibit	-11.6194
▁deadline	-11.6196
jk	-11.6196
▁favor	-11.6196
▁y	-11.6197
▁vanish	-11.6198
▁originat	-11.6198
▁assignment	-11.6199
▁licen	-11.6199
▁Messi	-11.6199
agline	-11.62
▁nightmare	-11.6201
▁LO	-11.6201
▁sword	-11.6201
▁geographical	-11.6205
▁synthe	-11.6209
▁indirect	-11.6209
▁infinite	-11.6212
▁wallet	-11.6212
▁emphasis	-11.6216
▁invalu	-11.6222
▁:)	-11.6222
▁ag	-11.6228
▁ecolog	-11.6229
▁medic	-11.623
▁steam	-11.6231
▁homeland	-11.6232
▁opt	-11.6234
▁Jac	-11.6239
timate	-11.6243
▁joyful	-11.6244
▁relieve	-11.6245
reland	-11.6246
▁Flam	-11.6248
▁studio	-11.6249
edicine	-11.625
▁corporation	-11.625
east	-11.6251
▁shame	-11.6252
▁Del	-11.6252
▁delightful	-11.6256
▁poem	-11.6256
▁Chile	-11.6259
▁SO	-11.6259
▁variable	-11.626
person	-11.6262
▁African	-11.6263
▁afterward	-11.6267
▁perfection	-11.6271
gs	-11.6272
▁Get	-11.6273
mula	-11.6281
▁-"	-11.6285
urer	-11.6292
▁committee	-11.6294
▁Paula	-11.6302
▁nuts	-11.6312
▁Steve	-11.6315
▁pale	-11.6315
▁chore	-11.632
▁pic	-11.6337
ador	-11.634
▁Pedr	-11.6342
revolutionary	-11.6351
▁ease	-11.6351
▁antique	-11.6353
EU	-11.6358
▁celebr	-11.6363
ushi	-11.6366
▁Flor	-11.637
▁Ni	-11.6371
▁Cru	-11.6371
▁AT	-11.6371
▁organism	-11.6372
phone	-11.6376
iddle	-11.6379
page	-11.6383
▁Ha	-11.6383
endar	-11.6398
▁emerge	-11.6398
▁storm	-11.6399
▁supporter	-11.6401
▁inde	-11.6405
▁continu	-11.6406
▁mini	-11.6406
rance	-11.6409
▁overlook	-11.6413
▁input	-11.6415
▁Ten	-11.6419
▁transit	-11.6419
rous	-11.6424
▁approaches	-11.6431
▁grave	-11.644
ings	-11.645
▁Cristi	-11.6455
elt	-11.6458
▁duti	-11.6458
▁Mel	-11.6463
nside	-11.6463
▁pursu	-11.6464
;	-11.6472
▁Ta	-11.648
position	-11.6484
▁releas	-11.6487
▁cater	-11.6491
▁Singa	-11.6501
nation	-11.6505
▁Andrea	-11.6512
▁Cr	-11.6516
▁tablet	-11.6527
▁respectful	-11.6528
▁empath	-11.654
They	-11.654
▁cultivate	-11.6556
▁anaesthe	-11.6567
rest	-11.6568
▁Water	-11.6569
▁iron	-11.6569
▁archer	-11.6574
MER	-11.6577
▁Sitt	-11.6577
ank	-11.6585
ED	-11.6588
hu	-11.6611
▁dec	-11.6617
▁defen	-11.6618
F	-11.6619
▁ho	-11.6635
▁sincere	-11.6636
▁Ly	-11.6641
▁scor	-11.6646
▁Ok	-11.665
▁assistan	-11.6652
safe	-11.6654
▁minim	-11.6655
▁coordinat	-11.6655
ttom	-11.6656
well	-11.6658
▁Ru	-11.6671
▁rescue	-11.6683
col	-11.6686
llow	-11.6695
troduction	-11.6695
40	-11.6699
▁Pre	-11.6705
▁sla	-11.6709
▁snack	-11.6711
ges	-11.6729
▁discusse	-11.6747
unt	-11.675
▁processe	-11.6756
zone	-11.6779
▁fate	-11.6782
▁Rose	-11.6782
everal	-11.6784
▁Mad	-11.6794
rt	-11.6802
▁sympath	-11.6806
▁rough	-11.6807
▁Design	-11.681
.5	-11.6816
enni	-11.6822
▁increas	-11.6829
".	-11.6833
▁BE	-11.6845
▁Men	-11.6852
ased	-11.6867
▁guid	-11.687
▁react	-11.6871
▁fe	-11.6875
▁architect	-11.6881
▁disappoint	-11.6884
So	-11.6897
▁apologise	-11.6906
dying	-11.6909
writ	-11.6914
SU	-11.692
▁brains	-11.6932
▁commuter	-11.6935
▁restrict	-11.6937
eenager	-11.6941
▁Mexic	-11.6943
▁Shar	-11.6945
▁Activ	-11.6946
▁promis	-11.6947
bo	-11.695
▁arena	-11.695
lance	-11.6954
▁Secret	-11.6957
▁helicopter	-11.6957
▁overwhelm	-11.6957
▁indulge	-11.6957
▁exclusive	-11.6957
▁scenario	-11.6957
▁Communication	-11.6957
▁System	-11.6957
▁Patrick	-11.6957
▁chief	-11.6957
▁marvelous	-11.6957
▁unpredic	-11.6957
▁extinction	-11.6959
▁dustbin	-11.6959
▁commerc	-11.6959
▁suspicious	-11.6959
▁betray	-11.6959
▁resolution	-11.6961
▁stiff	-11.6961
▁psycholog	-11.6961
▁creep	-11.6962
▁licence	-11.6964
▁appliance	-11.6964
▁fl	-11.6964
▁assign	-11.6964
▁simul	-11.6967
▁Stefan	-11.6968
▁purify	-11.6973
▁passport	-11.6974
▁hamburger	-11.6974
▁facilit	-11.6977
▁brick	-11.6978
li	-11.698
▁legend	-11.6983
hou	-11.6984
ATION	-11.6984
▁advert	-11.6985
ctic	-11.6985
▁enroll	-11.6989
au	-11.6991
▁Kat	-11.6994
▁privilege	-11.7
▁Marketing	-11.7003
▁Leo	-11.701
▁kidnapp	-11.7011
▁folk	-11.7012
▁supplier	-11.7018
▁Liv	-11.7018
▁hook	-11.7023
▁convincing	-11.7023
▁pregnanc	-11.7028
▁sample	-11.7036
its	-11.7036
sel	-11.7039
ea	-11.7041
▁kw	-11.7047
▁row	-11.7048
13	-11.7048
▁Ever	-11.7051
▁lamp	-11.7055
▁Kha	-11.7061
ids	-11.7065
▁Culture	-11.7076
ban	-11.7078
▁utilize	-11.7085
IS	-11.709
▁lik	-11.7094
▁Colle	-11.71
▁functional	-11.7101
▁FI	-11.7102
rga	-11.7108
▁horizons	-11.7109
air	-11.7113
ontemporar	-11.7117
▁pla	-11.7122
▁float	-11.7122
▁Macha	-11.7127
▁Gor	-11.7128
▁recogniz	-11.7139
▁Tex	-11.714
▁specializ	-11.7144
▁VI	-11.7145
▁gear	-11.7155
▁gaze	-11.7156
▁boom	-11.7156
▁babysitt	-11.7164
▁NO	-11.7172
▁tele	-11.7175
▁trial	-11.7184
▁cit	-11.7192
▁sustainab	-11.7193
▁Fo	-11.7199
▁crashe	-11.72
▁specialist	-11.7204
▁chi	-11.7206
▁perceive	-11.7207
▁glob	-11.7208
coal	-11.7221
NCLU	-11.7221
por	-11.7225
▁Sad	-11.7225
gh	-11.7226
▁manufactur	-11.7226
tial	-11.7227
suit	-11.723
tes	-11.7235
30	-11.7238
look	-11.7242
when	-11.7243
ja	-11.7247
▁screaming	-11.7249
▁hole	-11.7264
▁Char	-11.7265
▁Hey	-11.7265
▁Direct	-11.7274
irs	-11.7279
▁interfere	-11.7281
▁belonging	-11.7287
▁Ras	-11.7296
▁dispatch	-11.7302
▁Institut	-11.7315
▁Eco	-11.7317
▁Jona	-11.7322
▁rice	-11.7322
▁Federa	-11.7325
▁pushe	-11.7331
▁fortun	-11.7336
▁Mil	-11.734
verything	-11.7345
▁Tw	-11.7355
▁amaz	-11.7356
▁stimulat	-11.7372
▁Den	-11.7377
but	-11.7382
▁Air	-11.7397
▁segregat	-11.7402
▁recruit	-11.7404
▁criticis	-11.7405
▁surpris	-11.7407
alter	-11.741
▁bla	-11.7437
▁nights	-11.7446
▁sauce	-11.7447
▁norm	-11.745
▁Fun	-11.7451
▁Fa	-11.7457
ooking	-11.7471
RE	-11.7473
▁Frank	-11.7475
craft	-11.7481
Jones	-11.7485
▁qui	-11.7495
▁buff	-11.751
▁experienc	-11.751
▁scholarship	-11.7513
▁Bar	-11.7514
It	-11.7519
▁disco	-11.7529
ria	-11.7531
▁Out	-11.7535
dispens	-11.7538
▁footprint	-11.7541
▁champion	-11.7542
▁complexit	-11.7555
BA	-11.7557
▁usu	-11.7559
▁Mat	-11.7561
▁unwr	-11.7562
titude	-11.7572
▁Hung	-11.7575
▁enforce	-11.7576
▁contaminate	-11.7588
▁planner	-11.7589
oul	-11.7595
▁Cel	-11.76
AS	-11.7608
▁findings	-11.7613
abet	-11.762
zza	-11.7632
uana	-11.7632
▁decor	-11.7646
▁distribut	-11.7647
▁Pi	-11.7648
▁upsta	-11.7652
▁Miss	-11.7655
loud	-11.7655
▁Crim	-11.7657
▁Hone	-11.7659
▁Isr	-11.7667
▁1000	-11.7669
▁committ	-11.7669
▁Saint	-11.7678
▁Agri	-11.768
rade	-11.769
▁anima	-11.7693
▁citi	-11.7693
▁absen	-11.7698
▁utiliz	-11.7702
▁dam	-11.7705
▁adore	-11.7706
▁Cuba	-11.7711
▁MU	-11.7711
▁fellow	-11.7712
▁Cultur	-11.7715
▁god	-11.7715
ddition	-11.7723
terra	-11.7723
she	-11.7729
pm	-11.7733
▁reproduc	-11.7733
▁Mass	-11.7734
dad	-11.7736
airs	-11.7738
surance	-11.7739
▁sigh	-11.7752
equality	-11.7755
▁dispos	-11.7755
▁Basil	-11.776
▁idol	-11.7761
▁sca	-11.7762
▁tech	-11.7771
▁Symb	-11.7775
▁eve	-11.7776
lexi	-11.7779
▁Sandr	-11.7783
▁pedestrian	-11.779
▁Eurasian	-11.779
▁Particular	-11.779
▁Vancouver	-11.779
▁authentic	-11.779
▁concrete	-11.779
▁glacier	-11.779
▁reinforce	-11.779
▁wheelchair	-11.779
▁backpack	-11.779
▁Certain	-11.779
▁potato	-11.779
▁cottage	-11.779
▁grammatical	-11.779
▁vampire	-11.779
▁sculpture	-11.779
▁courtyard	-11.779
▁entail	-11.779
▁profound	-11.779
▁Wiki	-11.779
▁dynasty	-11.7791
▁moderate	-11.7791
▁Albert	-11.7791
▁Sebastian	-11.7791
▁captain	-11.7791
▁landmark	-11.7791
▁Faculty	-11.7792
▁Afro	-11.7792
▁poison	-11.7792
▁lifeguard	-11.7793
▁fluid	-11.7793
▁commodit	-11.7793
▁contradiction	-11.7793
▁radical	-11.7794
▁nineteen	-11.7794
▁marine	-11.7794
▁crawl	-11.7794
▁portray	-11.7794
▁2001	-11.7794
▁Antonio	-11.7794
dmitted	-11.7794
▁Course	-11.7795
▁Nick	-11.7795
▁Jackson	-11.7795
▁click	-11.7795
▁flaw	-11.7795
▁dislike	-11.7796
▁Social	-11.7797
▁Cali	-11.7797
▁plaza	-11.7797
▁allocation	-11.7797
▁31	-11.7798
▁observation	-11.7798
▁Peru	-11.7801
▁Sun	-11.7804
▁compulsor	-11.7806
▁Latin	-11.7806
▁Writing	-11.7807
▁coup	-11.7807
▁rabbit	-11.7807
▁queen	-11.7807
▁500	-11.7811
▁pensioner	-11.7811
▁leap	-11.7812
▁apple	-11.7813
▁funnie	-11.7813
▁competitor	-11.7814
▁voluntar	-11.7815
▁Val	-11.7815
▁Azu	-11.7816
▁obligat	-11.7817
▁Sicil	-11.7818
▁bitter	-11.782
▁mixe	-11.782
▁autumn	-11.782
▁jerk	-11.7821
▁Basical	-11.7822
izer	-11.7822
▁casual	-11.7824
▁Corn	-11.7828
taneous	-11.7828
LM	-11.783
▁disagreement	-11.7835
▁Kor	-11.7835
▁Bone	-11.784
▁Moon	-11.784
▁Pyram	-11.7841
▁literat	-11.7842
▁Mohamed	-11.7843
▁ambition	-11.7845
▁Pont	-11.7847
▁supplement	-11.7851
▁Leon	-11.7854
▁Alexand	-11.7854
▁Consider	-11.787
▁focuse	-11.787
▁AM	-11.7872
▁Flori	-11.7873
▁Tra	-11.7874
▁inexpensive	-11.7874
▁Norma	-11.7876
kka	-11.788
▁Brad	-11.7883
▁oppose	-11.7883
▁Tian	-11.7883
ants	-11.7884
▁continent	-11.7886
▁Col	-11.7893
mo	-11.7906
▁Ce	-11.7911
▁accompan	-11.7911
ai	-11.7913
▁compose	-11.7917
▁Help	-11.7918
.30	-11.7921
▁char	-11.7922
▁Phil	-11.7924
▁princes	-11.7927
▁tackle	-11.7928
▁inventor	-11.7933
here	-11.7935
▁fence	-11.7935
ality	-11.7941
▁Cha	-11.7943
▁translat	-11.7946
▁vote	-11.7947
▁Economics	-11.7956
▁Justin	-11.7963
▁Ivan	-11.797
▁Hans	-11.7973
▁roman	-11.7977
▁concentrati	-11.7982
▁sug	-11.7984
▁Wee	-11.7986
try	-11.7987
▁DC	-11.7988
ccount	-11.7988
▁affection	-11.799
mother	-11.7992
▁bow	-11.7997
op	-11.7998
cademic	-11.8004
▁dominate	-11.8006
▁Phoe	-11.8006
▁insist	-11.8008
aga	-11.8014
▁mistreat	-11.8019
▁poster	-11.8024
cid	-11.8025
step	-11.8026
▁yea	-11.8028
mad	-11.8034
▁sl	-11.8038
people	-11.8044
▁gentle	-11.8047
▁spic	-11.8048
ransportation	-11.8058
▁prov	-11.8062
rts	-11.8062
VER	-11.8065
▁aqua	-11.807
cosy	-11.8071
▁Is	-11.8086
▁Bas	-11.8087
▁Guan	-11.8087
▁BC	-11.809
0,000	-11.8093
▁respir	-11.8095
▁Fam	-11.81
nny	-11.81
▁distinguish	-11.81
▁craft	-11.8111
▁Kid	-11.8113
▁comply	-11.8116
dies	-11.8119
▁summ	-11.8124
ff	-11.813
▁alter	-11.8143
ita	-11.8148
ches	-11.8153
▁Saf	-11.8157
▁speci	-11.8165
▁petrole	-11.818
shed	-11.818
▁consistent	-11.8183
▁insul	-11.8189
cited	-11.8192
▁slope	-11.8199
▁pleas	-11.8201
sedent	-11.8213
lia	-11.8226
gun	-11.8226
▁bite	-11.8233
▁Ur	-11.8239
ambia	-11.8241
ification	-11.8245
▁warn	-11.8249
▁Orl	-11.8254
ung	-11.8254
▁exercis	-11.8257
▁corrupt	-11.8262
▁esp	-11.8263
occ	-11.8281
▁Ex	-11.8285
▁Cla	-11.829
az	-11.8295
▁Mag	-11.8303
▁purp	-11.8304
▁unite	-11.8305
▁Cat	-11.8332
▁worke	-11.8335
▁discovere	-11.8336
▁grip	-11.8342
▁babi	-11.8351
porter	-11.8359
tan	-11.836
▁Age	-11.8367
▁Pr	-11.8377
▁install	-11.8378
▁victor	-11.8379
▁Service	-11.8383
▁publication	-11.8385
▁injuri	-11.8386
ik	-11.8401
mail	-11.8401
▁biolog	-11.8406
etting	-11.8408
▁update	-11.8411
▁implie	-11.8418
▁foundation	-11.8424
sufficient	-11.8426
fish	-11.8427
▁Compan	-11.8435
ternal	-11.8441
Tu	-11.8443
▁prop	-11.8443
put	-11.8448
lo	-11.8448
surf	-11.8451
▁passenger	-11.8451
▁pos	-11.8451
mention	-11.8453
▁amus	-11.8455
uous	-11.8456
▁Travel	-11.8456
tamina	-11.8462
▁Come	-11.8467
▁nurs	-11.8471
ab	-11.849
▁ge	-11.8492
▁restore	-11.8498
▁beating	-11.8502
▁Shop	-11.8502
wenty	-11.8503
eal	-11.8507
▁operat	-11.8507
▁bro	-11.8512
▁coache	-11.8522
ves	-11.8523
▁Ball	-11.8529
▁accessori	-11.853
skirt	-11.8533
▁Ja	-11.8534
▁Teach	-11.8535
▁chemical	-11.8557
▁Niki	-11.8558
▁sevent	-11.857
He	-11.8574
▁wire	-11.8584
▁permit	-11.8585
▁greet	-11.8599
▁Fi	-11.8612
▁Ele	-11.8613
▁Vin	-11.8614
▁vis	-11.8618
▁renovate	-11.862
▁Pen	-11.8622
mi	-11.8624
ause	-11.8628
▁gr	-11.8629
▁bowl	-11.8636
wer	-11.8638
var	-11.8646
ek	-11.8646
ublin	-11.8648
▁coll	-11.8652
▁bound	-11.8657
love	-11.8658
ften	-11.8664
▁display	-11.8666
eth	-11.8668
▁jewel	-11.8674
▁rac	-11.8674
lor	-11.8682
raffic	-11.869
OW	-11.8692
▁hygien	-11.8698
▁Advertis	-11.8699
▁barbecue	-11.8699
▁hydraulic	-11.8699
▁barrier	-11.8699
▁permanent	-11.8699
▁sunbath	-11.8699
▁spectator	-11.8699
▁monetar	-11.8699
▁Occup	-11.87
▁Enjoy	-11.87
▁borrow	-11.87
▁windsurf	-11.87
▁birdwatch	-11.87
▁postgraduate	-11.87
▁unwilling	-11.87
▁Special	-11.87
EL	-11.87
▁Bridge	-11.8701
▁Somali	-11.8702
▁excess	-11.8702
▁commission	-11.8702
tographer	-11.8702
▁ear	-11.8702
▁Lisa	-11.8703
▁blond	-11.8703
▁harmonious	-11.8704
▁approve	-11.8705
▁congratulation	-11.8706
▁villain	-11.8707
▁pump	-11.8709
▁Chris	-11.8711
▁envelope	-11.8712
▁rival	-11.8715
▁eas	-11.8715
▁diary	-11.872
▁storyline	-11.8722
▁boots	-11.8723
▁furious	-11.8723
▁edge	-11.8729
insula	-11.8731
▁generat	-11.8734
▁dimension	-11.8734
ou	-11.8735
▁Carlos	-11.8735
▁harsh	-11.8736
▁Imagin	-11.8738
▁segment	-11.8738
▁crown	-11.8739
▁PC	-11.8741
im	-11.8744
▁territory	-11.8744
develop	-11.8744
▁suspect	-11.8747
stage	-11.8749
▁appeti	-11.875
his	-11.8752
▁graceful	-11.8755
ob	-11.8756
▁fainte	-11.8757
▁Mart	-11.8759
▁.....	-11.8764
aka	-11.8767
▁mission	-11.8776
▁bleed	-11.8778
There	-11.8781
▁oppressi	-11.8783
▁supplie	-11.8785
▁Main	-11.8792
▁administrati	-11.8792
▁Words	-11.8793
▁alley	-11.8798
▁informati	-11.88
band	-11.8801
▁Week	-11.8803
▁gang	-11.8803
cks	-11.881
▁translated	-11.8821
cked	-11.8823
▁referee	-11.8826
▁intervene	-11.8827
▁suns	-11.8827
▁Clear	-11.883
▁remov	-11.8831
▁Tru	-11.8833
▁apologi	-11.8834
▁contend	-11.8838
▁Eye	-11.8843
rem	-11.8847
▁strive	-11.8847
▁excite	-11.8849
nna	-11.8849
▁decorat	-11.885
▁tank	-11.8855
▁Henr	-11.8861
struck	-11.8866
VE	-11.8867
▁correction	-11.887
▁appreciat	-11.8878
skola	-11.8886
ARE	-11.8886
reverse	-11.8894
▁typ	-11.8894
▁Soon	-11.8897
take	-11.89
chest	-11.8906
ashing	-11.8908
▁manufacture	-11.891
rms	-11.8917
▁tune	-11.8922
▁Whe	-11.8926
▁accumulate	-11.8928
▁accommodate	-11.893
anne	-11.8931
▁Ar	-11.8934
▁layer	-11.8943
you	-11.8946
▁batt	-11.8946
▁couch	-11.8948
▁33	-11.8954
▁Has	-11.8962
ho	-11.8963
▁ru	-11.8965
arate	-11.898
▁cutt	-11.8985
xt	-11.8987
food	-11.8991
children	-11.8992
long	-11.8999
▁ethical	-11.9
▁suspen	-11.9007
▁Nin	-11.9009
▁Research	-11.9014
qui	-11.9017
▁ch	-11.9022
▁Player	-11.9029
N	-11.9031
▁dozen	-11.9051
▁glor	-11.9057
▁Mars	-11.9093
▁conce	-11.9105
UT	-11.9107
▁stimul	-11.9114
▁eliminate	-11.9116
▁Present	-11.9124
uca	-11.9125
▁frustrate	-11.913
ugu	-11.9132
▁Print	-11.9137
▁listener	-11.9148
uel	-11.9153
▁sc	-11.9158
school	-11.916
▁hopeful	-11.9185
▁Ken	-11.9186
▁spice	-11.9188
adh	-11.9189
▁Ti	-11.9189
arta	-11.9192
▁dorm	-11.9192
PP	-11.9193
▁Wal	-11.9194
▁histor	-11.9194
▁twi	-11.9198
▁trace	-11.9201
escent	-11.9203
▁wri	-11.9209
▁WH	-11.9223
sons	-11.9231
▁Inter	-11.9238
▁glo	-11.9238
▁frie	-11.9242
eep	-11.9247
umba	-11.9251
▁beam	-11.9256
▁GO	-11.9262
hal	-11.9281
▁cherish	-11.9288
▁News	-11.9288
▁34	-11.9292
▁file	-11.9296
▁Ton	-11.9297
▁rating	-11.93
▁Dec	-11.9305
aware	-11.9305
ki	-11.9312
owing	-11.9317
nzo	-11.9331
▁investigat	-11.9334
▁44	-11.9337
▁vol	-11.9348
▁en	-11.9354
▁Ren	-11.9356
▁Mons	-11.936
▁Programm	-11.936
▁Ry	-11.9385
ueen	-11.9399
▁terr	-11.9404
q	-11.9414
123456	-11.9414
arding	-11.9426
▁jo	-11.943
▁prefers	-11.9433
▁Count	-11.9434
▁Scar	-11.9443
wall	-11.9444
▁motorcycle	-11.9446
pets	-11.9447
▁pupil	-11.9452
ela	-11.9453
ebook	-11.9455
oved	-11.9464
▁ethic	-11.9466
arrag	-11.9483
ody	-11.949
held	-11.9495
net	-11.9497
▁Ga	-11.9499
▁vita	-11.9499
rence	-11.9502
▁Bront	-11.9502
rude	-11.9504
▁Bl	-11.9507
▁optimist	-11.951
▁scru	-11.9513
▁NA	-11.9518
ilk	-11.9522
▁Ke	-11.9525
semina	-11.9529
▁communicati	-11.9536
EAR	-11.954
▁greed	-11.9549
rupt	-11.9551
3-	-11.9553
▁Dia	-11.9553
▁devot	-11.9566
▁Mich	-11.9566
▁twin	-11.9567
dia	-11.957
▁knee	-11.9582
disciplin	-11.9587
tastic	-11.9595
inner	-11.9595
▁Vig	-11.9598
▁ob	-11.961
connect	-11.961
▁sha	-11.9615
▁Plan	-11.9615
▁supplementa	-11.9626
SH	-11.9628
▁immigra	-11.9628
▁sci	-11.9631
sapp	-11.9631
that	-11.9633
▁Moham	-11.9637
reeze	-11.9646
▁oblig	-11.9648
▁Vie	-11.9651
▁Chur	-11.9656
con	-11.9663
▁snowbo	-11.9681
▁academ	-11.969
▁Bei	-11.969
20	-11.9692
▁strategic	-11.9695
▁Je	-11.9695
▁Lomb	-11.9699
▁trolley	-11.9699
▁adrenalin	-11.9699
▁diminish	-11.9699
▁dinosaur	-11.9699
▁dynamic	-11.9699
▁marginal	-11.9699
▁metaphor	-11.9699
▁microwave	-11.9699
▁neglect	-11.9699
▁umbrella	-11.9699
▁vacuum	-11.9699
▁diamond	-11.9699
▁renowned	-11.9699
▁SPORT	-11.9699
▁explicit	-11.9699
▁liquid	-11.9699
▁pilgrim	-11.9699
▁unintentional	-11.9699
▁Magazine	-11.9699
▁Advance	-11.9699
▁Relax	-11.9699
▁FAVOUR	-11.9699
▁extrovert	-11.9699
▁component	-11.9699
▁scratch	-11.9699
▁perfume	-11.9699
▁Freeman	-11.9699
▁Clothes	-11.9699
▁junior	-11.9699
▁illitera	-11.9699
▁Lancaster	-11.9699
▁League	-11.9699
▁amplifie	-11.9699
▁vitamin	-11.9699
▁pancake	-11.9699
▁Francisco	-11.9699
▁Kisses	-11.9699
▁framework	-11.9699
▁rafting	-11.97
▁penalt	-11.97
▁Office	-11.97
▁inevitabl	-11.97
▁explosion	-11.97
▁confess	-11.97
▁turbine	-11.97
▁LIVE	-11.97
▁resign	-11.97
▁gastronom	-11.97
▁Tamil	-11.9701
▁crack	-11.9701
▁Gasol	-11.9701
▁Alejandro	-11.9701
▁refund	-11.9702
▁dialogue	-11.9702
▁pepper	-11.9702
▁Lorena	-11.9702
▁Amaz	-11.9702
▁Claudia	-11.9702
▁circuit	-11.9702
▁tutorial	-11.9702
▁invasion	-11.9702
▁tunnel	-11.9703
▁noodle	-11.9705
▁Silver	-11.9705
▁Country	-11.9705
▁migrant	-11.9706
▁123	-11.9706
▁Practice	-11.9706
▁hacker	-11.9707
▁audio	-11.9707
▁Skat	-11.9709
▁estate	-11.9709
▁trek	-11.971
▁error	-11.971
▁defeat	-11.9711
▁Jean	-11.9713
▁Assistant	-11.9713
ichael	-11.9716
▁metropoli	-11.9716
▁possession	-11.9717
▁benefic	-11.9718
kwon	-11.9721
▁headline	-11.9721
▁identities	-11.9721
▁Adrian	-11.9722
▁equation	-11.9724
▁slamm	-11.9725
▁burst	-11.9726
misunderstanding	-11.9727
▁Yea	-11.9728
▁translate	-11.973
▁kayak	-11.9732
▁leaflet	-11.9733
▁arrogant	-11.9739
▁bacteri	-11.9739
UC	-11.9739
▁Sri	-11.9741
▁obs	-11.9741
▁occupy	-11.9741
▁exceed	-11.9742
▁solidar	-11.9743
▁Open	-11.9744
▁Boat	-11.9745
▁canteen	-11.9747
▁Fran	-11.9748
livi	-11.9748
▁undertake	-11.9753
▁rumor	-11.9754
▁collective	-11.9755
▁rig	-11.9756
▁Team	-11.9758
ends	-11.976
▁conceiv	-11.9761
O	-11.9761
▁cardio	-11.9762
▁maximiz	-11.9762
▁heal	-11.9762
▁skip	-11.9768
▁Slov	-11.9769
▁instruct	-11.977
▁approv	-11.9771
▁Primar	-11.9773
▁economist	-11.9775
▁summertime	-11.9776
▁compost	-11.9779
rdob	-11.9783
▁Line	-11.9787
▁merits	-11.9789
nch	-11.9792
▁Lining	-11.9794
▁catastroph	-11.9796
▁advers	-11.9798
link	-11.9798
▁passive	-11.9799
▁Bec	-11.9804
▁Te	-11.9809
▁Kaba	-11.9813
enha	-11.9818
▁odd	-11.9819
▁suppress	-11.9819
▁aesthetic	-11.982
▁boundar	-11.9821
▁assumed	-11.9826
▁reassur	-11.9829
▁prim	-11.9843
▁Amado	-11.9844
▁pill	-11.9844
▁objection	-11.9846
▁spark	-11.9848
▁Bla	-11.9852
▁glow	-11.9852
▁movi	-11.9853
▁outfit	-11.9864
▁Dra	-11.9864
inste	-11.9868
lies	-11.987
▁devil	-11.987
▁ches	-11.9873
▁je	-11.9878
▁starter	-11.9878
▁Writer	-11.9881
▁ensur	-11.9886
▁kite	-11.9891
▁stumble	-11.9896
▁tie	-11.9909
rich	-11.9921
▁sil	-11.9924
ountries	-11.9929
▁AL	-11.993
tables	-11.9933
ndez	-11.9939
▁impresse	-11.9945
▁pour	-11.9948
▁Global	-11.9954
▁believ	-11.9967
ivity	-11.9972
▁pie	-11.9973
▁vo	-11.9978
▁Norw	-11.9982
▁bell	-11.999
▁Hu	-11.9991
▁gam	-11.9995
▁emit	-12
▁continuing	-12.0006
gz	-12.0008
▁Aid	-12.001
▁conscienc	-12.0011
▁canoe	-12.0019
▁FA	-12.002
aying	-12.0035
▁Mc	-12.0038
▁obes	-12.0039
▁revise	-12.0041
▁impos	-12.0043
▁voca	-12.005
▁insec	-12.0052
place	-12.0061
▁Fr	-12.0063
▁Geograph	-12.0066
▁productive	-12.0067
02	-12.0078
▁Tak	-12.0082
▁SHO	-12.009
wel	-12.0096
lie	-12.01
▁sensibl	-12.0107
▁Lag	-12.0115
▁alleviat	-12.0122
▁Trapa	-12.0123
▁residenc	-12.0129
▁Richards	-12.013
ets	-12.0137
▁Jones	-12.0142
▁occasional	-12.0148
LIC	-12.0157
▁monk	-12.0158
▁Jim	-12.0167
aja	-12.0174
▁shelve	-12.0177
teration	-12.0181
▁deceive	-12.0182
▁enclos	-12.0184
ky	-12.0213
ix	-12.0219
inal	-12.022
tor	-12.0221
▁patrol	-12.0223
▁Priva	-12.0228
▁Show	-12.0229
▁Dana	-12.023
▁CLP	-12.0231
▁fascinate	-12.0239
lem	-12.0242
▁bury	-12.0243
34	-12.0248
▁sew	-12.0253
▁auto	-12.0256
▁pol	-12.0262
▁Lak	-12.0265
▁pati	-12.0267
▁renewa	-12.0276
▁degrade	-12.0286
5000	-12.0292
▁fle	-12.0294
▁Dog	-12.0295
ven	-12.0296
▁characteriz	-12.0306
▁Gene	-12.0309
▁Abor	-12.0311
UL	-12.0315
ompe	-12.0324
▁myth	-12.0325
pagan	-12.0329
jar	-12.0334
pt	-12.0345
▁suppl	-12.0347
▁souls	-12.0351
▁roa	-12.0354
rived	-12.0358
▁downst	-12.0385
▁Turin	-12.0386
▁consult	-12.0391
▁communiti	-12.04
USS	-12.04
▁Fu	-12.042
▁shall	-12.0433
met	-12.0442
▁companion	-12.0455
▁Ge	-12.0456
▁frequen	-12.0479
away	-12.0482
▁pai	-12.0483
▁barel	-12.0492
▁seller	-12.0492
▁Bay	-12.0495
▁stead	-12.0498
venue	-12.0505
▁Dar	-12.0514
ships	-12.0518
▁captur	-12.0519
cket	-12.052
▁fastes	-12.0531
▁Sha	-12.0547
▁Heav	-12.0559
eautiful	-12.056
▁forum	-12.0573
▁Pep	-12.0588
▁socialis	-12.0588
elf	-12.0592
▁Game	-12.0595
▁pot	-12.0601
describ	-12.0601
▁Know	-12.0602
▁traveller	-12.0616
BO	-12.062
edia	-12.0621
▁Happ	-12.0651
▁dispense	-12.0654
rove	-12.0657
▁propert	-12.0668
▁ri	-12.0675
EM	-12.0677
▁Wol	-12.068
▁producer	-12.0683
▁tale	-12.0704
▁app	-12.0713
▁absorb	-12.0716
▁insight	-12.0729
ilities	-12.0729
▁Eli	-12.0729
▁Lan	-12.0731
ub	-12.0742
help	-12.0743
▁enem	-12.0756
▁au	-12.0757
▁demoli	-12.0779
▁easie	-12.0782
▁Historic	-12.0783
EN	-12.0783
▁clos	-12.0784
▁misunderstand	-12.0788
▁witch	-12.0792
nk	-12.0793
▁Mom	-12.08
erto	-12.08
ootball	-12.0802
stallation	-12.0806
▁suspicio	-12.0807
▁UN	-12.0807
▁Project	-12.081
▁Standard	-12.081
▁dilemma	-12.081
▁expenditure	-12.081
▁adolescen	-12.081
▁practitioner	-12.081
▁reject	-12.081
▁column	-12.081
▁dentist	-12.081
▁harvest	-12.081
▁Faithfully	-12.081
▁micro	-12.081
▁masterpiece	-12.081
▁unconscious	-12.081
▁portrait	-12.081
▁ritual	-12.0811
▁spotlight	-12.0811
Donald	-12.0811
▁Runner	-12.0811
▁bamboo	-12.0811
▁pickpocket	-12.0812
▁Blue	-12.0813
▁compliment	-12.0813
▁tomato	-12.0813
▁revenue	-12.0813
▁orchestra	-12.0814
▁cos	-12.0814
▁foster	-12.0815
▁charisma	-12.0815
▁Miserable	-12.0816
▁regain	-12.0817
course	-12.082
▁25-	-12.0821
ages	-12.0823
▁glance	-12.0824
▁highl	-12.0824
ILL	-12.0828
▁Road	-12.0828
▁Power	-12.0829
▁dwell	-12.0829
▁qualify	-12.083
▁applicant	-12.083
▁faith	-12.083
▁assertion	-12.0831
▁Curious	-12.0836
eous	-12.0836
▁shortcoming	-12.0837
▁Snow	-12.0841
-12	-12.0842
▁substitute	-12.0844
elecommunication	-12.0845
ential	-12.0845
▁length	-12.0848
▁cleanl	-12.085
▁breast	-12.0852
▁toddler	-12.0852
▁Still	-12.0853
bet	-12.0854
▁Pak	-12.0855
▁alcoholic	-12.0855
▁tone	-12.0855
▁brake	-12.0857
▁Space	-12.0859
hilar	-12.086
cking	-12.0861
▁sol	-12.0862
▁shake	-12.0876
cu	-12.0879
▁volu	-12.088
▁terrify	-12.0881
ition	-12.0886
▁problematic	-12.0887
▁Danc	-12.0889
▁scarf	-12.0889
▁sole	-12.0892
bb	-12.0895
matic	-12.0897
60	-12.09
▁sequence	-12.0903
eria	-12.0903
▁Meet	-12.0905
▁hassle	-12.0906
▁ham	-12.0916
▁waist	-12.0918
▁pile	-12.0919
zero	-12.0922
▁ignor	-12.0925
dela	-12.093
▁corps	-12.0931
▁cl	-12.0931
▁murderer	-12.094
▁wrap	-12.0941
tive	-12.0946
olar	-12.095
▁arrest	-12.095
zu	-12.0955
▁differently	-12.0962
olo	-12.0963
onverse	-12.0964
▁strip	-12.0969
▁slide	-12.0977
▁2-	-12.0983
▁cent	-12.0989
cast	-12.0989
TER	-12.0992
▁widen	-12.1001
▁bra	-12.1003
▁Die	-12.1004
▁purse	-12.1007
▁Class	-12.101
ones	-12.1012
act	-12.1033
▁imaginar	-12.1036
▁footballer	-12.1039
rid	-12.1045
▁Concern	-12.1054
ah	-12.1064
▁coin	-12.1064
▁Eng	-12.1067
arms	-12.1082
▁unwa	-12.1095
▁operate	-12.1097
▁civi	-12.1099
▁repeated	-12.1102
▁Maz	-12.1107
lett	-12.1109
▁pleasing	-12.1122
cific	-12.1125
this	-12.1127
▁36	-12.1131
▁doll	-12.1142
ando	-12.1144
▁champions	-12.1153
▁await	-12.1156
04	-12.1157
▁footprints	-12.1157
▁collaborate	-12.1158
My	-12.1161
▁robb	-12.1168
▁goe	-12.1169
▁theft	-12.1169
▁PS	-12.117
."	-12.1177
▁mon	-12.1193
▁Dub	-12.1196
▁recogni	-12.1203
ncient	-12.1213
▁greener	-12.1221
▁stresse	-12.124
eat	-12.1242
▁Hon	-12.1249
▁interven	-12.1249
▁sim	-12.1258
nda	-12.1268
▁Arm	-12.1276
▁bac	-12.1278
▁Victor	-12.128
orry	-12.1285
ency	-12.1288
ncy	-12.1289
▁Sur	-12.1295
▁flee	-12.1295
ttle	-12.1296
hell	-12.1305
ken	-12.1307
▁relaxes	-12.1312
▁organiser	-12.1313
▁bake	-12.1313
vas	-12.1313
▁Net	-12.1316
▁Ra	-12.1317
MI	-12.1325
▁theme	-12.1339
ox	-12.1341
▁Simp	-12.1342
odbye	-12.1344
▁Loca	-12.1352
▁obedien	-12.1354
▁Medic	-12.1355
ograph	-12.1362
ock	-12.1363
▁segregate	-12.1364
▁Improve	-12.1373
▁corrupti	-12.1378
tical	-12.1379
lit	-12.1379
▁Comed	-12.1379
▁che	-12.1384
stern	-12.1391
▁kille	-12.1395
ough	-12.1402
▁tee	-12.1404
front	-12.1406
▁appeare	-12.1412
▁harbo	-12.1417
rina	-12.1417
inter	-12.1421
ole	-12.1423
▁imp	-12.1438
army	-12.1445
▁provoke	-12.145
▁confusi	-12.1452
gy	-12.1459
▁Sid	-12.1461
▁courts	-12.1462
habilit	-12.1464
▁Wa	-12.1472
uan	-12.1481
▁illustrat	-12.1495
▁launche	-12.1496
pparent	-12.1507
ament	-12.1518
ci	-12.152
lder	-12.1523
▁accidental	-12.1531
wift	-12.1531
▁fertil	-12.154
▁PR	-12.1542
▁cra	-12.1549
▁Star	-12.1552
ukh	-12.1555
IT	-12.1558
cha	-12.1561
fluenc	-12.1562
▁Feder	-12.1574
▁provok	-12.1575
lish	-12.1577
▁pan	-12.1581
▁Exam	-12.1585
▁ambi	-12.1594
LL	-12.1595
▁cla	-12.1597
▁lazi	-12.1604
▁seed	-12.1609
restl	-12.1628
▁eradicate	-12.164
▁educati	-12.1642
▁semi	-12.1658
than	-12.1659
▁optimis	-12.1659
pool	-12.166
▁observ	-12.1664
bel	-12.1676
▁gentlem	-12.1681
▁idiom	-12.1684
oyal	-12.1685
▁Earl	-12.1685
amount	-12.1686
reign	-12.1688
▁replac	-12.1702
di	-12.1713
▁yard	-12.1722
▁parti	-12.1723
ich	-12.1726
▁Chica	-12.1727
proof	-12.1735
▁Nar	-12.1747
oking	-12.1748
min	-12.1748
▁Prince	-12.1751
▁rec	-12.1763
▁emitt	-12.1766
CS	-12.1769
hy	-12.1771
EF	-12.1773
ordan	-12.1776
▁Clar	-12.1784
irming	-12.1787
▁spe	-12.1788
▁communi	-12.1789
▁Champion	-12.1792
▁Lar	-12.1802
▁termina	-12.1806
▁horizon	-12.1811
▁Economic	-12.1811
▁plac	-12.1811
yard	-12.1813
▁Tao	-12.1814
vention	-12.1818
etic	-12.182
▁Simpl	-12.182
▁DI	-12.1821
▁Mac	-12.1824
▁cho	-12.1825
bar	-12.1829
▁relaxe	-12.183
▁Eat	-12.1832
type	-12.1843
locate	-12.1844
selves	-12.1845
cional	-12.1851
▁Bamb	-12.1852
ris	-12.1853
real	-12.1856
bank	-12.1861
▁etern	-12.1862
▁ad	-12.1863
▁wound	-12.1864
▁WE	-12.1874
hill	-12.1877
▁controlle	-12.1878
ular	-12.1879
▁associat	-12.1888
▁Ab	-12.1892
▁Buy	-12.1895
45	-12.1895
ec	-12.1897
▁pleasur	-12.1902
▁analys	-12.1904
got	-12.1908
▁Stat	-12.1918
ending	-12.192
gie	-12.1927
▁stronge	-12.1929
▁wro	-12.1937
limit	-12.1937
lace	-12.1947
ula	-12.1949
▁Rio	-12.1954
▁tragi	-12.196
nez	-12.1962
▁attribute	-12.1967
▁realisti	-12.1969
▁kidnap	-12.1971
rin	-12.1975
▁Learn	-12.1977
aries	-12.198
AH	-12.1983
OME	-12.1991
▁trigger	-12.1995
si	-12.1999
▁Gr	-12.2008
▁TU	-12.2008
▁flavo	-12.2013
ath	-12.2015
▁gri	-12.2017
bing	-12.2018
▁cu	-12.2019
▁Pia	-12.2021
ITE	-12.204
▁fog	-12.2041
ynagogue	-12.2041
▁thr	-12.2043
▁blend	-12.2044
bit	-12.2046
▁acc	-12.2048
▁Communi	-12.2051
▁muscul	-12.2053
▁Nutrition	-12.2054
▁Jer	-12.2057
▁Andalu	-12.2057
▁psycho	-12.2057
▁estimate	-12.2058
'(2:2:	-12.2059
laborate	-12.206
▁Caucasian	-12.206
▁Djursholm	-12.206
▁Electronic	-12.206
▁Mathieu	-12.206
▁Rubbish	-12.206
▁Suleyman	-12.206
▁TRANSPORT	-12.206
▁Vatican	-12.206
▁amphitheater	-12.206
▁biscuit	-12.206
▁condemn	-12.206
▁corridor	-12.206
▁parachut	-12.206
▁pessimist	-12.206
▁squeeze	-12.206
▁pesticide	-12.206
▁subtitle	-12.206
▁vegetarian	-12.206
▁autonom	-12.206
▁cosmetic	-12.206
▁dissuad	-12.206
▁parallel	-12.206
▁enslave	-12.206
▁nurture	-12.206
▁tattoo	-12.206
▁precaution	-12.206
▁sausage	-12.206
▁stereo	-12.206
▁Donau	-12.206
▁metaboli	-12.206
▁unquestionabl	-12.206
▁livelihood	-12.206
▁Patricia	-12.206
▁postpone	-12.206
▁Christoph	-12.206
▁Technical	-12.206
▁Visual	-12.206
▁raid	-12.206
▁Galicia	-12.206
▁centimet	-12.206
▁endurance	-12.206
▁Bandera	-12.206
▁Bennet	-12.2061
▁Memor	-12.2061
▁google	-12.2061
▁rainbow	-12.2061
▁goalkeeper	-12.2061
▁Carolin	-12.2061
▁diploma	-12.2061
▁Spaniard	-12.2061
limpse	-12.2061
▁Cooper	-12.2061
▁pirate	-12.2061
▁Morgan	-12.2061
▁Jorge	-12.2061
▁widow	-12.2061
▁Village	-12.2061
▁Pozna	-12.2061
▁spinach	-12.2061
▁2016	-12.2062
▁Sindh	-12.2062
▁enlighten	-12.2062
▁random	-12.2062
▁Grandma	-12.2062
▁Adult	-12.2062
▁sentiment	-12.2062
▁Panda	-12.2062
▁Maintain	-12.2062
▁fossil	-12.2062
▁Tatar	-12.2062
▁violation	-12.2063
▁1960	-12.2063
▁discourage	-12.2064
▁smash	-12.2064
▁Mimi	-12.2064
▁pavement	-12.2064
▁Fellow	-12.2064
▁substantia	-12.2065
▁Brown	-12.2065
▁archaeologi	-12.2065
▁settlement	-12.2065
NTR	-12.2065
stoc	-12.2065
▁biologist	-12.2065
▁guitarist	-12.2065
▁pronounce	-12.2065
▁Suggestions	-12.2066
▁Vega	-12.2066
▁bookcase	-12.2066
▁priest	-12.2066
▁Bruno	-12.2067
▁comprehensive	-12.2068
▁Ltd	-12.2068
▁KD	-12.2068
▁Network	-12.2069
▁infection	-12.2069
▁persever	-12.207
henko	-12.2071
▁Holiday	-12.2072
▁Sebu	-12.2072
▁interval	-12.2076
trum	-12.2076
▁Canton	-12.2077
▁dawn	-12.2077
▁demonstration	-12.2077
▁persuad	-12.2078
▁slipp	-12.2078
▁Swed	-12.208
▁Kad	-12.208
▁fragil	-12.2082
cuba	-12.2082
▁Seven	-12.2084
▁Plus	-12.2086
▁Aria	-12.2087
▁ABC	-12.2087
▁Annabel	-12.2088
▁sailor	-12.2088
▁Flower	-12.2088
▁extravagan	-12.2089
▁flag	-12.209
▁varie	-12.2092
▁ambient	-12.2092
rmina	-12.2093
▁advocate	-12.2093
▁illustration	-12.2094
▁auditor	-12.2094
ssion	-12.2095
▁Mario	-12.2097
▁jewell	-12.2098
▁variet	-12.2099
pper	-12.2099
▁protest	-12.2099
▁Parc	-12.2099
▁pilot	-12.21
▁impatient	-12.2102
▁accomplishment	-12.2103
▁Price	-12.2103
▁sanita	-12.2108
▁indigen	-12.2109
▁industri	-12.2109
▁blender	-12.2109
▁Under	-12.211
▁candle	-12.211
▁linear	-12.211
▁balanc	-12.2111
▁Change	-12.2111
▁Muse	-12.2114
ayoum	-12.2117
▁fatal	-12.2118
▁saga	-12.2122
▁quot	-12.2122
exual	-12.2123
▁Gold	-12.2124
▁withstand	-12.2127
▁administration	-12.2129
▁Bern	-12.2129
▁ME	-12.213
▁http	-12.213
▁operator	-12.213
▁curve	-12.2136
▁dread	-12.2137
coni	-12.2138
▁unavoidabl	-12.2138
▁backwards	-12.2139
▁corresponding	-12.214
arrell	-12.214
▁stew	-12.2141
▁unbea	-12.2147
▁cooker	-12.2148
lphi	-12.215
rtation	-12.2154
▁Tr	-12.2155
▁organ	-12.2157
▁Marco	-12.2158
▁attentive	-12.2161
▁Nova	-12.2161
▁Athen	-12.2163
ui	-12.2163
▁disse	-12.2165
ghan	-12.2169
omiz	-12.2172
▁possibil	-12.2174
▁illusion	-12.2174
▁Pop	-12.2175
▁corn	-12.2176
▁breathe	-12.2177
▁execute	-12.2183
▁gener	-12.2188
zen	-12.2189
▁Era	-12.219
▁paddl	-12.2191
▁Factor	-12.2195
▁classifi	-12.2198
▁circulate	-12.2199
▁whale	-12.2201
▁mainl	-12.2202
▁abl	-12.2205
▁consol	-12.2207
art	-12.2209
▁progressive	-12.2209
▁utter	-12.221
ple	-12.2213
USE	-12.2214
odor	-12.2216
▁crush	-12.2222
etti	-12.2222
rassment	-12.2224
▁Regula	-12.2224
▁hesitat	-12.2225
▁Hous	-12.2231
rie	-12.2232
▁Rest	-12.2235
▁Guy	-12.2235
▁implicat	-12.2237
onroe	-12.224
ila	-12.2243
shi	-12.2247
onna	-12.2251
atched	-12.2257
▁unreali	-12.2259
ging	-12.2261
▁developer	-12.2264
ethod	-12.2265
▁clip	-12.2266
come	-12.2267
▁Hit	-12.2272
▁1,	-12.2273
des	-12.2274
▁Aust	-12.2278
▁56	-12.2278
▁II	-12.2278
▁denie	-12.228
65	-12.2281
▁reven	-12.2282
▁Mira	-12.2284
▁CON	-12.2287
▁Walk	-12.2291
▁pastime	-12.2291
vi	-12.2294
▁carton	-12.2295
W	-12.2299
ain	-12.2302
▁irr	-12.2305
▁Disco	-12.2306
▁rubb	-12.2319
have	-12.2321
▁owl	-12.2323
▁Cord	-12.2325
▁Merc	-12.2325
▁Sure	-12.2328
▁coordinati	-12.233
▁consen	-12.2331
▁Hann	-12.2334
▁Vene	-12.2344
▁stream	-12.2346
▁simpli	-12.235
▁trop	-12.2357
nz	-12.2363
▁ceremon	-12.2363
▁renovat	-12.2363
unch	-12.2367
▁Feel	-12.2368
ort	-12.2369
stain	-12.2371
pic	-12.2373
adio	-12.2374
▁cre	-12.2375
lling	-12.2382
▁explode	-12.2384
▁paradi	-12.2387
▁hip	-12.2387
anna	-12.239
AL	-12.2394
ude	-12.2398
abl	-12.241
▁Mik	-12.2414
ear	-12.2416
You	-12.2418
rene	-12.2421
PAR	-12.2424
tude	-12.243
sane	-12.2437
▁ne	-12.2439
ossil	-12.244
▁learne	-12.2441
CC	-12.2447
▁kindly	-12.2449
▁processor	-12.2452
▁Holl	-12.2453
▁vibra	-12.2464
tronic	-12.2467
lla	-12.2476
▁dismiss	-12.2477
riminal	-12.2479
undred	-12.2484
▁Thu	-12.2486
▁Fall	-12.2491
▁1.	-12.2494
▁sexis	-12.2501
▁dat	-12.2503
▁prior	-12.2516
▁behav	-12.2516
star	-12.2523
▁thi	-12.2527
ming	-12.2528
▁ec	-12.2529
▁mobiles	-12.2532
EO	-12.2532
▁Lind	-12.2542
sis	-12.2544
val	-12.2546
▁conque	-12.2554
▁rela	-12.2554
ami	-12.2562
▁differentiate	-12.2564
olish	-12.2565
▁revolve	-12.2565
▁luxur	-12.257
CU	-12.257
▁Boy	-12.2575
▁Mall	-12.2575
root	-12.2578
▁Oka	-12.2593
▁Chich	-12.2595
spire	-12.2595
▁fuck	-12.2597
▁lett	-12.261
▁rub	-12.2611
▁innovat	-12.2611
▁migrate	-12.2613
53	-12.2615
erg	-12.2618
▁Mill	-12.2619
▁wet	-12.2626
▁remark	-12.2626
lake	-12.2629
pu	-12.2629
tu	-12.2634
lt	-12.2635
▁Cho	-12.2636
ech	-12.2639
▁Lee	-12.2647
▁Ram	-12.265
▁Band	-12.265
▁rack	-12.265
▁compassion	-12.2658
UB	-12.2673
▁affirmati	-12.2677
ration	-12.2678
though	-12.2678
trade	-12.268
struction	-12.2684
▁Heart	-12.2696
▁Ell	-12.2708
▁Nea	-12.2715
▁hu	-12.272
▁maid	-12.2727
▁reign	-12.2729
nches	-12.2737
▁Clau	-12.2739
ux	-12.2739
oth	-12.2741
kind	-12.2751
▁confuse	-12.2752
ruise	-12.2754
eved	-12.2763
icroscope	-12.2764
▁Fift	-12.277
ders	-12.2771
▁Buch	-12.2776
vie	-12.2777
▁lectur	-12.2782
▁mal	-12.2786
▁congratulate	-12.2787
hr	-12.2794
▁spokes	-12.28
custome	-12.2805
ield	-12.2808
▁tours	-12.2809
▁Amy	-12.282
▁pur	-12.2822
oke	-12.2827
ives	-12.2828
▁str	-12.2837
HAT	-12.2845
▁imped	-12.2851
▁lucki	-12.2859
▁swing	-12.2875
▁abor	-12.2888
wear	-12.2892
YS	-12.2892
US	-12.2895
cilia	-12.2908
▁robber	-12.2914
▁Af	-12.2915
dual	-12.2918
▁beds	-12.2931
nasty	-12.2932
▁Equ	-12.2935
popular	-12.2942
technology	-12.2943
▁des	-12.2944
▁methodolog	-12.2956
▁remed	-12.2957
▁suppos	-12.2959
set	-12.297
nese	-12.2974
eak	-12.2982
▁Bru	-12.2982
▁intrigu	-12.2985
▁freez	-12.2986
▁deplet	-12.2993
▁Found	-12.2995
▁gro	-12.301
▁emerg	-12.3018
ired	-12.3019
▁Send	-12.302
hail	-12.3029
accurac	-12.303
▁occurr	-12.303
▁kep	-12.3031
una	-12.304
▁Mu	-12.3041
ules	-12.3051
▁Vik	-12.3053
▁lean	-12.3064
▁Napol	-12.3064
▁dictate	-12.3065
▁tempt	-12.3067
▁Way	-12.3068
po	-12.3071
▁tu	-12.3071
▁logistic	-12.3073
▁loan	-12.308
▁discriminati	-12.3082
▁BO	-12.3085
▁inqui	-12.3088
▁Hur	-12.3108
▁analyz	-12.311
ances	-12.312
▁kit	-12.3121
spread	-12.3126
AN	-12.3137
ail	-12.3139
half	-12.3151
▁inhibit	-12.3153
▁Eve	-12.3158
sque	-12.3165
athematic	-12.317
▁pun	-12.3179
oba	-12.3179
ench	-12.3192
ctu	-12.3197
▁Emi	-12.3197
▁Cl	-12.3202
spring	-12.3202
ean	-12.3202
▁assassin	-12.3214
▁Vacation	-12.3223
▁tender	-12.3228
ountain	-12.323
▁Fina	-12.3235
▁Sta	-12.3237
▁prolif	-12.324
▁thunder	-12.324
chain	-12.3241
▁Cra	-12.3242
mar	-12.3244
dish	-12.3245
▁employe	-12.3248
▁et	-12.3254
stream	-12.3266
▁Friend	-12.3266
enna	-12.327
▁cancel	-12.3272
fect	-12.3276
▁ja	-12.3281
▁sel	-12.3289
then	-12.329
wa	-12.3291
▁Appl	-12.3291
shore	-12.3291
claim	-12.3307
nger	-12.3312
▁comp	-12.333
laid	-12.3331
▁follower	-12.3332
▁dri	-12.3333
ospital	-12.3348
▁catastrophe	-12.3349
PM	-12.335
maze	-12.3359
hnic	-12.3361
▁Van	-12.3369
tions	-12.3372
▁tran	-12.3376
▁slop	-12.3381
▁correspond	-12.3397
was	-12.3401
▁Sophi	-12.3402
▁Pet	-12.3405
▁witnesse	-12.3406
▁competenc	-12.3413
▁dies	-12.3419
▁candida	-12.3427
cure	-12.3428
▁smo	-12.3443
▁Univers	-12.3459
▁urge	-12.3469
▁dia	-12.3477
forget	-12.3484
▁geograph	-12.3487
▁Amsterdam	-12.3489
▁anniversar	-12.3489
▁earthquake	-12.3489
▁equilibr	-12.3489
▁shopaholic	-12.3489
▁clarify	-12.3489
▁armchair	-12.3489
▁feminin	-12.3489
▁Warrior	-12.3489
▁warrior	-12.3489
▁exterior	-12.3489
▁consecutive	-12.3489
▁abundan	-12.3489
▁patriotism	-12.3489
▁splend	-12.3489
▁retreat	-12.3489
▁Leader	-12.3489
▁acquaintance	-12.3489
▁pharmaceutical	-12.349
▁Plastic	-12.349
▁hazard	-12.349
▁endeavo	-12.349
▁Castell	-12.349
▁evoke	-12.3491
▁Austria	-12.3491
▁Sleep	-12.3491
▁combat	-12.3491
▁certification	-12.3491
▁fortnight	-12.3491
▁bullet	-12.3491
▁flourish	-12.3491
▁balloon	-12.3492
▁vault	-12.3492
▁Atlanti	-12.3493
▁DJ	-12.3494
▁wreck	-12.3494
▁pillow	-12.3494
▁flip	-12.3496
PS	-12.3497
▁carbo	-12.3497
▁Nove	-12.3497
▁clown	-12.3497
▁ecologist	-12.35
▁Depend	-12.35
▁shuttle	-12.3501
▁characterize	-12.3502
vity	-12.3502
▁blanket	-12.3504
▁technol	-12.3506
▁Sound	-12.3508
▁Architect	-12.3509
▁Ipad	-12.3512
▁punch	-12.3513
ove	-12.3514
▁comedian	-12.3516
brid	-12.3516
▁traged	-12.3517
ack	-12.3519
▁intruder	-12.352
▁lung	-12.3521
ft	-12.3522
▁inhabit	-12.3522
▁Crowd	-12.3523
▁sneak	-12.3523
▁inspector	-12.3525
▁posture	-12.3525
▁virtue	-12.3525
games	-12.3527
▁Journalist	-12.3528
4-	-12.3529
▁Arsen	-12.3529
▁Up	-12.3535
▁demolish	-12.3538
▁attain	-12.3539
▁feasib	-12.3541
▁awake	-12.3543
▁Valle	-12.3547
chipo	-12.3547
▁socio	-12.3552
constitution	-12.3555
▁patch	-12.3558
unfair	-12.3559
▁5-	-12.3561
▁Run	-12.3574
▁knife	-12.3575
▁blank	-12.358
ef	-12.358
▁slice	-12.3582
▁decisi	-12.3582
▁insulin	-12.3583
izab	-12.3587
10	-12.3588
200	-12.3592
▁displayed	-12.3592
▁thorn	-12.3593
sund	-12.3595
▁worthie	-12.3595
▁Amo	-12.3595
mmediatel	-12.3598
ind	-12.3599
▁Break	-12.36
▁Famili	-12.3601
▁ON	-12.3608
▁sweep	-12.361
tina	-12.3614
▁Gum	-12.3614
od	-12.3619
▁terrific	-12.3619
▁explod	-12.3619
ncreasing	-12.3633
ica	-12.3633
.2	-12.3635
▁braver	-12.3636
▁Wood	-12.3646
▁Vivi	-12.3655
:'	-12.3658
▁laughs	-12.3663
▁microscope	-12.3668
vin	-12.3671
▁ranking	-12.3671
▁reflection	-12.3673
▁cricketer	-12.3674
▁49	-12.3679
▁tolerate	-12.3684
▁ev	-12.3686
▁cheep	-12.3688
ENG	-12.369
arts	-12.3701
▁Capita	-12.3705
gue	-12.371
gestion	-12.371
▁summari	-12.3714
rted	-12.372
ube	-12.3723
▁entretain	-12.3727
ari	-12.3728
▁racial	-12.3729
kers	-12.3729
▁Nik	-12.3731
▁mus	-12.3732
▁preced	-12.3739
▁incorporate	-12.3739
▁Interesting	-12.3741
SE	-12.3744
LE	-12.3749
▁comprehensi	-12.3755
tage	-12.3766
▁surge	-12.3774
uk	-12.378
▁accus	-12.3781
▁OUR	-12.3782
under	-12.3786
▁storey	-12.3789
tudies	-12.379
sa	-12.3792
▁induce	-12.3794
rch	-12.3801
emed	-12.3804
▁discre	-12.3804
acket	-12.3804
enjoy	-12.3806
▁cock	-12.3819
▁cow	-12.3821
saw	-12.3822
▁bec	-12.3825
hamed	-12.3826
mont	-12.3827
▁slog	-12.3827
partment	-12.3827
pstick	-12.3831
unior	-12.3839
▁kingdo	-12.384
▁vocation	-12.3851
▁conc	-12.3859
CAN	-12.3865
sala	-12.3867
rated	-12.3868
▁motorcycles	-12.387
▁flu	-12.3874
nocenc	-12.3875
▁Kra	-12.3875
▁Fir	-12.3875
▁bump	-12.3882
▁LA	-12.3882
▁sav	-12.3885
rez	-12.3887
cock	-12.3897
▁Say	-12.3901
▁gol	-12.3905
IVE	-12.3906
mpire	-12.3911
efficienc	-12.3911
hale	-12.3917
▁stall	-12.3918
interpretation	-12.3922
hurch	-12.3922
▁logistical	-12.3922
▁Kin	-12.3928
▁stud	-12.3929
▁diff	-12.3931
▁diner	-12.3935
gest	-12.3935
▁eth	-12.3936
▁Pres	-12.3938
▁vet	-12.3939
▁resum	-12.3958
▁Classic	-12.3964
▁rob	-12.3964
▁Sum	-12.3966
nton	-12.3967
EW	-12.3971
oid	-12.3971
▁Mona	-12.3972
llows	-12.3973
▁Use	-12.3973
For	-12.3973
lates	-12.3986
▁Kh	-12.399
▁Rosa	-12.4002
▁hat	-12.4002
▁physi	-12.4004
ltruis	-12.4007
lton	-12.4009
▁Reduc	-12.4012
▁escap	-12.4018
itation	-12.4019
days	-12.4043
sick	-12.4046
comfort	-12.4051
ond	-12.4055
mitted	-12.4064
▁medal	-12.4071
many	-12.4072
▁ste	-12.4074
▁Dome	-12.4098
▁contaminat	-12.4108
▁contemplat	-12.4126
▁adhere	-12.4138
bris	-12.4138
mpact	-12.4139
evin	-12.4144
▁2.	-12.4151
mination	-12.4151
▁Jess	-12.4155
rank	-12.4161
refers	-12.4162
eum	-12.4163
▁provinc	-12.4164
▁catholi	-12.4165
▁germ	-12.4175
▁independently	-12.418
▁icon	-12.4182
▁travels	-12.4183
▁bull	-12.4185
onia	-12.4188
▁pose	-12.4189
▁submit	-12.4204
▁cohe	-12.4213
▁ID	-12.4213
▁specifi	-12.4214
unta	-12.4216
yria	-12.4218
▁Matt	-12.4223
▁Pla	-12.4226
▁mock	-12.4226
knowing	-12.4227
▁nominate	-12.4228
ac	-12.423
▁addresse	-12.4232
▁shou	-12.4232
hearted	-12.4234
▁Downto	-12.4247
lls	-12.4249
▁Had	-12.425
iversity	-12.426
▁sal	-12.4264
azing	-12.4265
road	-12.4267
▁mono	-12.427
mon	-12.4273
▁grin	-12.4273
ocal	-12.4277
▁qualit	-12.4285
spect	-12.4291
hang	-12.4291
▁log	-12.4293
▁shak	-12.4299
▁necess	-12.4304
him	-12.431
▁400	-12.4314
kin	-12.4315
▁gasp	-12.4318
SL	-12.4329
▁bang	-12.4339
ional	-12.4348
▁Bio	-12.4349
vice	-12.436
22	-12.4361
▁dem	-12.4364
▁drivin	-12.4367
▁qu	-12.4369
fact	-12.4371
gent	-12.4377
▁determinati	-12.4395
▁honour	-12.4401
ama	-12.4407
▁rea	-12.4409
▁rite	-12.4409
What	-12.4409
▁negotiate	-12.441
nder	-12.4412
station	-12.4419
▁reviv	-12.4436
roup	-12.4438
▁reserv	-12.444
bra	-12.4444
▁saf	-12.4444
▁Compar	-12.445
ud	-12.4451
▁backsta	-12.4452
▁performer	-12.4455
▁Believ	-12.4456
▁Por	-12.4458
▁spac	-12.4462
▁ci	-12.4464
▁Sim	-12.4468
▁affirm	-12.4476
▁Autum	-12.4478
▁deprive	-12.4481
15	-12.4481
▁Fer	-12.4486
▁possib	-12.4488
▁painter	-12.4494
▁contr	-12.4501
hips	-12.4518
aza	-12.4523
admin	-12.4523
complete	-12.4525
cover	-12.4526
▁Improv	-12.4527
tern	-12.453
▁wav	-12.4533
▁blu	-12.4536
uri	-12.4536
▁Drive	-12.4541
oxide	-12.4542
echnology	-12.4546
▁wan	-12.4547
cla	-12.455
▁irritat	-12.4563
recipi	-12.4566
▁hum	-12.457
rio	-12.4584
▁stra	-12.4593
▁longe	-12.4595
▁termin	-12.4595
active	-12.4595
employment	-12.4598
▁jumps	-12.4604
▁fighter	-12.4608
▁Crist	-12.4609
▁misus	-12.4611
▁ap	-12.4613
rrels	-12.4619
Every	-12.4622
uttle	-12.4628
▁cam	-12.4631
▁Manda	-12.4647
▁Kater	-12.4648
rmed	-12.4648
▁forc	-12.4655
llo	-12.4659
pul	-12.4661
▁perceiv	-12.4664
▁Met	-12.4666
dfather	-12.4667
▁impo	-12.4676
app	-12.4678
rode	-12.4684
ampl	-12.4685
▁cautio	-12.4688
FF	-12.4702
▁anti	-12.4702
ambu	-12.4704
▁Duc	-12.4706
▁permitt	-12.4707
onora	-12.4707
▁builder	-12.4711
▁Belg	-12.4712
▁bon	-12.4712
ECA	-12.4721
▁Polluti	-12.4723
ght	-12.4729
▁tire	-12.4733
born	-12.4739
xcept	-12.474
▁loo	-12.4743
bargains	-12.4748
▁wit	-12.475
▁populat	-12.4758
003	-12.476
til	-12.4761
attractive	-12.4763
▁antiqu	-12.4765
thon	-12.4766
ep	-12.4769
19	-12.4769
▁cul	-12.4771
▁invade	-12.4778
▁optim	-12.478
box	-12.4788
▁recognis	-12.4795
style	-12.4801
▁Agu	-12.481
ap	-12.4814
▁AD	-12.4816
LI	-12.4822
dent	-12.4826
base	-12.4828
sistence	-12.4828
milia	-12.483
▁pest	-12.4831
nline	-12.4832
mouth	-12.4835
-3	-12.4837
▁fade	-12.4848
Oh	-12.485
▁chos	-12.4852
petition	-12.4853
acceptable	-12.4854
▁Arabi	-12.4855
▁Cyber	-12.4864
touris	-12.4868
▁themes	-12.487
productive	-12.4873
▁Tick	-12.4878
▁sup	-12.4881
▁fre	-12.4886
ordinar	-12.4888
RY	-12.4903
estimate	-12.4903
▁donat	-12.4904
▁muscle	-12.4904
▁Recommendation	-12.4907
▁Bass	-12.4914
security	-12.4914
PE	-12.4916
▁tim	-12.4923
raq	-12.4924
▁Spi	-12.4925
▁sho	-12.4945
▁bung	-12.4947
▁administrat	-12.4952
▁coaster	-12.4955
lock	-12.4958
RIS	-12.4964
abri	-12.4965
▁fore	-12.4971
▁coheren	-12.4971
▁lawn	-12.4976
oli	-12.4987
▁Lin	-12.5011
▁AN	-12.5011
▁mug	-12.5017
▁Sal	-12.5022
▁Tu	-12.5024
▁secretar	-12.5029
actions	-12.503
▁fourt	-12.503
▁Northern	-12.5037
▁lact	-12.5037
▁lap	-12.5039
SO	-12.504
▁electro	-12.504
▁regime	-12.5041
▁formation	-12.5056
buster	-12.5058
rup	-12.5059
92	-12.5061
▁Trans	-12.5062
▁unle	-12.5068
▁Market	-12.507
▁dau	-12.5072
teria	-12.5074
▁thro	-12.5074
▁monarch	-12.5075
▁territor	-12.5079
▁settle	-12.5079
▁wis	-12.5082
ssenger	-12.5083
onic	-12.5085
▁mechanic	-12.5088
stair	-12.5091
ong	-12.5091
▁journal	-12.5104
▁Gen	-12.5105
nne	-12.5107
MS	-12.5108
▁companions	-12.5116
▁Rob	-12.512
ess	-12.5121
▁jea	-12.5123
▁Roma	-12.5123
▁hoste	-12.5123
blin	-12.5124
▁Caf	-12.5126
▁touche	-12.5128
ivil	-12.5128
teen	-12.5129
▁harmon	-12.5129
▁Scient	-12.5133
▁compensat	-12.5142
▁numb	-12.5142
▁Palerm	-12.5143
OUR	-12.5144
merican	-12.5146
▁contradict	-12.5149
▁extinct	-12.5151
▁dialog	-12.5152
▁syst	-12.5153
AGE	-12.5154
▁Colomb	-12.5155
LOCK	-12.5155
▁photocopie	-12.5155
▁Approach	-12.5155
▁Belarus	-12.5155
▁COUNTR	-12.5155
▁DVD	-12.5155
▁ENVIRONMENT	-12.5155
▁FACILITIES	-12.5155
▁Ferreira	-12.5155
▁Hogwarts	-12.5155
▁OMG	-12.5155
▁Principal	-12.5155
▁REPORT	-12.5155
▁STUD	-12.5155
▁Suzanne	-12.5155
▁accelerate	-12.5155
▁procrastinat	-12.5155
▁psychiatri	-12.5155
▁puplic	-12.5155
▁surrender	-12.5155
▁treadmill	-12.5155
▁vigorous	-12.5155
▁Nichol	-12.5155
▁Norouz	-12.5155
▁Serbia	-12.5155
▁blossom	-12.5155
▁galax	-12.5155
▁geometr	-12.5155
▁paradigm	-12.5155
▁rigorous	-12.5155
▁Arthur	-12.5155
▁Natalia	-12.5155
▁interrogat	-12.5155
▁fertilizer	-12.5155
▁boycott	-12.5155
▁Affair	-12.5155
▁Implement	-12.5155
▁Kitchen	-12.5155
▁redundan	-12.5155
▁Piotr	-12.5155
▁Serena	-12.5155
▁THAN	-12.5155
▁instantaneous	-12.5155
▁predator	-12.5155
▁Success	-12.5155
▁citadel	-12.5155
▁detox	-12.5155
▁sketch	-12.5155
▁WITH	-12.5155
▁poeple	-12.5155
▁postcard	-12.5155
▁premature	-12.5155
TTT	-12.5156
▁Friberga	-12.5156
▁Popular	-12.5156
▁crystal	-12.5156
▁imprison	-12.5156
▁Sustain	-12.5156
▁ventilat	-12.5156
▁hypothetical	-12.5156
▁iPad	-12.5156
▁mislead	-12.5156
▁Beyaz	-12.5156
▁UNDER	-12.5156
▁rectang	-12.5156
▁Varela	-12.5156
▁landfill	-12.5156
▁Desser	-12.5156
▁spruce	-12.5156
▁LOOK	-12.5156
▁signature	-12.5156
▁hyper	-12.5156
▁UNE	-12.5156
▁legislat	-12.5156
▁civilisation	-12.5156
SCO	-12.5156
▁gesture	-12.5156
▁suicid	-12.5156
▁Dragon	-12.5156
▁Silesia	-12.5156
▁reagent	-12.5156
▁biograph	-12.5157
▁newcomer	-12.5157
▁Guadal	-12.5157
▁Focus	-12.5157
▁merchan	-12.5157
▁Purpose	-12.5157
▁Motor	-12.5157
▁statistic	-12.5157
'(2:2:2	-12.5157
▁Champ	-12.5157
▁freak	-12.5157
▁upload	-12.5157
▁Reference	-12.5157
▁bushfire	-12.5157
▁gyps	-12.5157
▁Alexandra	-12.5157
▁draft	-12.5157
▁enlarge	-12.5157
▁Half	-12.5157
:"	-12.5158
▁Prison	-12.5158
▁econometric	-12.5158
▁wrongdoing	-12.5158
▁navigat	-12.5159
▁Paulina	-12.5159
▁anemia	-12.5159
▁Mountain	-12.5159
▁Ambas	-12.516
▁Kuwait	-12.516
▁Andalusia	-12.516
▁Aqua	-12.516
▁Email	-12.516
▁Andreia	-12.5161
▁Scientist	-12.5161
▁Islam	-12.5161
▁incompetent	-12.5161
▁superstar	-12.5161
▁unstable	-12.5161
▁parcel	-12.5161
▁discard	-12.5161
▁restrain	-12.5161
▁linguist	-12.5161
▁Philip	-12.5161
▁12:00	-12.5161
assim	-12.5162
▁friday	-12.5162
▁trashcan	-12.5162
ffective	-12.5163
▁450	-12.5163
▁flour	-12.5163
▁Rafa	-12.5163
▁Trevi	-12.5163
▁Holland	-12.5163
▁Sense	-12.5164
▁mosque	-12.5164
▁sorrow	-12.5164
▁midday	-12.5165
NFOR	-12.5165
▁Jump	-12.5165
▁systematic	-12.5165
▁frame	-12.5166
▁executive	-12.5166
▁waterfall	-12.5166
▁embodie	-12.5166
DER	-12.5166
▁refute	-12.5167
▁acquisiti	-12.5167
▁Strategy	-12.5167
▁refine	-12.5167
▁Stela	-12.5167
▁10,000	-12.5169
51	-12.5169
▁Marcelo	-12.5169
▁poach	-12.5169
IK	-12.517
▁humankind	-12.517
▁snatch	-12.5171
▁arche	-12.5171
▁Skill	-12.5171
uite	-12.5171
▁Surf	-12.5173
▁haunt	-12.5173
▁Benz	-12.5173
▁prophe	-12.5173
5500	-12.5173
▁Palerma	-12.5173
ewspaper	-12.5174
▁Jesus	-12.5174
▁anonym	-12.5175
▁sensor	-12.5175
ubsequent	-12.5176
▁colony	-12.5176
▁Francois	-12.5177
▁flirt	-12.5177
▁Respect	-12.5177
▁disgust	-12.5177
▁scold	-12.5178
▁Monterr	-12.5178
▁worship	-12.5178
▁moped	-12.5178
▁Montse	-12.518
▁honey	-12.518
▁Efficien	-12.5181
▁synagogue	-12.5182
▁rasp	-12.5182
▁guideline	-12.5182
▁palm	-12.5183
▁Fern	-12.5183
▁protein	-12.5185
▁Tourist	-12.5185
▁deteri	-12.5185
▁stroll	-12.5186
▁zo	-12.5186
▁republic	-12.5186
▁premise	-12.5187
▁Drink	-12.5187
▁arbitra	-12.5187
▁Prior	-12.5188
▁Benefit	-12.5189
▁Alva	-12.5189
your	-12.5189
ometer	-12.519
▁faithful	-12.519
sta	-12.519
nius	-12.519
▁pony	-12.5192
▁emigrat	-12.5193
▁frustration	-12.5194
▁PRO	-12.5195
▁supervise	-12.5195
▁Marta	-12.5195
stead	-12.5195
▁12-	-12.5196
▁hygienic	-12.5196
had	-12.5197
▁Robot	-12.5197
▁......	-12.5197
▁flatter	-12.5197
▁integrat	-12.5198
▁valori	-12.5199
▁judgement	-12.52
INO	-12.52
▁incorrect	-12.5201
▁250	-12.5202
▁Job	-12.5203
▁empir	-12.5205
▁apology	-12.5207
▁packet	-12.5207
panish	-12.5207
rizio	-12.5208
▁Chain	-12.5208
lfield	-12.5209
▁Vil	-12.5209
▁Moral	-12.521
ANO	-12.521
ridge	-12.5215
▁exp	-12.5215
▁Keir	-12.5215
▁childish	-12.5215
▁coverage	-12.5216
▁Valeri	-12.5216
▁Luka	-12.5217
▁governor	-12.5218
▁diligent	-12.522
▁allowance	-12.522
▁mortal	-12.5221
▁Summ	-12.5221
▁Luis	-12.5223
▁ide	-12.5223
▁Tomb	-12.5226
▁Circu	-12.5227
▁Guid	-12.5227
▁enhanc	-12.5229
▁Member	-12.523
▁export	-12.5236
▁Cau	-12.5236
▁Elli	-12.5237
litz	-12.5237
▁Rick	-12.5239
azz	-12.5239
▁blast	-12.524
▁brewer	-12.5242
ohemia	-12.5243
▁persuasi	-12.5247
▁Light	-12.5252
▁distort	-12.5252
▁elect	-12.5256
iques	-12.5257
▁Penn	-12.5258
storm	-12.5259
▁Initia	-12.5262
▁rocket	-12.5263
▁upgrade	-12.5265
metri	-12.5267
).	-12.527
ute	-12.527
▁Budd	-12.5272
▁Vince	-12.5275
▁recip	-12.5275
mpse	-12.5276
yo	-12.5279
diving	-12.5279
▁structur	-12.5287
▁attribut	-12.5288
▁apologised	-12.5295
▁madam	-12.5297
▁hips	-12.5298
accio	-12.5302
▁Monte	-12.5305
▁nav	-12.5305
41	-12.5308
biolog	-12.5309
▁settl	-12.5311
▁ups	-12.5313
▁steer	-12.5316
▁FRIEND	-12.5324
valid	-12.5326
▁mentor	-12.5328
cena	-12.533
liza	-12.5331
▁Er	-12.5331
conic	-12.5334
▁drumm	-12.5334
hara	-12.5334
▁prof	-12.5335
▁kitt	-12.5338
▁eag	-12.5341
▁Reg	-12.5342
oo	-12.5342
▁hea	-12.5351
abay	-12.5353
▁Tol	-12.5358
▁Chair	-12.5363
▁expir	-12.5365
▁prosper	-12.5366
▁Installation	-12.5368
ES	-12.5369
▁Ey	-12.5372
▁Findings	-12.5374
▁Romania	-12.5376
hai	-12.5382
▁racis	-12.5387
▁inhuman	-12.5388
rist	-12.5388
disput	-12.5388
▁attachment	-12.5389
▁depleti	-12.5391
ardini	-12.5392
ool	-12.5392
▁Johans	-12.5399
▁Com	-12.5399
▁Maxi	-12.5412
und	-12.5412
▁medication	-12.5412
▁Hud	-12.5414
bone	-12.542
▁proceeding	-12.542
lite	-12.5424
RITE	-12.5429
▁eternal	-12.5441
ague	-12.5441
▁irrigate	-12.5444
ino	-12.5448
▁wond	-12.5448
afra	-12.545
:15	-12.5451
▁pond	-12.5453
▁Key	-12.5455
▁Barb	-12.5456
wing	-12.5457
lley	-12.5457
▁Marty	-12.5464
▁Smile	-12.5466
CH	-12.5467
▁coloni	-12.5473
HD	-12.5474
▁Cold	-12.5476
▁Sco	-12.5478
▁Aca	-12.5484
rah	-12.5488
▁Petr	-12.5489
▁spy	-12.5493
▁cease	-12.5493
ormula	-12.5496
▁Book	-12.5497
▁Face	-12.5498
▁Rena	-12.55
nnovati	-12.5509
▁rope	-12.5511
rama	-12.5516
▁Hungar	-12.5525
ogue	-12.5531
▁z	-12.5539
▁sweater	-12.5539
▁Tea	-12.5545
ij	-12.5546
▁ris	-12.5549
etus	-12.5549
▁Stor	-12.555
▁infl	-12.5552
▁unreal	-12.5553
▁Gil	-12.5553
ange	-12.5556
We	-12.5563
boy	-12.5565
otmail	-12.5566
▁NOT	-12.5567
▁q	-12.5567
▁educator	-12.5568
inking	-12.557
▁comedi	-12.5576
uar	-12.5583
▁Nam	-12.5584
lei	-12.559
hydr	-12.5593
▁exer	-12.5594
▁activ	-12.5595
▁alarming	-12.5601
▁Guide	-12.5604
▁Sche	-12.5608
NCE	-12.5611
▁monot	-12.5614
▁slides	-12.5623
▁enquir	-12.5628
▁Traditional	-12.5628
pi	-12.5632
▁grie	-12.5632
▁Adel	-12.5632
arch	-12.5633
eign	-12.5634
▁horn	-12.5641
▁needles	-12.5645
▁dirtie	-12.5645
▁Dea	-12.5649
oration	-12.5653
ample	-12.5653
▁beast	-12.5653
At	-12.5655
aoyu	-12.5655
▁demonstrat	-12.5661
▁municipalit	-12.5664
mono	-12.5664
▁FINA	-12.5665
▁dry	-12.5666
igure	-12.5666
▁NB	-12.5668
▁TA	-12.567
▁Jud	-12.5675
▁tease	-12.5676
▁heavi	-12.5682
▁custod	-12.5683
istern	-12.5684
▁Gate	-12.5687
▁dependenc	-12.5692
nting	-12.5692
▁123456	-12.5696
tle	-12.5699
uff	-12.5699
▁convinc	-12.5701
▁Jay	-12.5704
▁Lou	-12.5708
▁Vita	-12.5709
▁Gradua	-12.571
fa	-12.571
rain	-12.5716
▁Spen	-12.5727
▁whet	-12.5728
IKE	-12.5729
▁fir	-12.573
▁tow	-12.5733
▁excellen	-12.5734
▁calculat	-12.5738
▁Stra	-12.5741
LA	-12.5741
▁imper	-12.5751
ola	-12.5751
▁eradicat	-12.5758
astronom	-12.5764
tal	-12.5765
pression	-12.5766
SHIP	-12.5769
ome	-12.5771
▁estimat	-12.5775
▁Sula	-12.5776
isoa	-12.5792
▁sighted	-12.5793
▁Gha	-12.5796
RS	-12.5797
▁Har	-12.58
▁ox	-12.5801
▁Analys	-12.5804
▁Wu	-12.5811
▁Pir	-12.5814
lay	-12.5814
operation	-12.5816
big	-12.582
▁Programme	-12.5825
▁furr	-12.5826
oft	-12.5834
▁fri	-12.5842
▁oft	-12.5843
▁sang	-12.5844
▁Ko	-12.5845
▁shipp	-12.5845
▁infect	-12.5845
▁Roche	-12.585
▁Ber	-12.5853
▁Mig	-12.5854
▁Um	-12.5856
▁fli	-12.5858
ommittee	-12.5859
▁detach	-12.586
Michael	-12.5878
▁Luk	-12.5878
▁spin	-12.5879
▁nut	-12.5881
▁bal	-12.5881
gro	-12.5888
▁fisher	-12.5891
▁Journal	-12.5893
▁Vinc	-12.5897
▁Exc	-12.5902
▁Rubia	-12.5907
▁har	-12.5907
key	-12.5913
▁Make	-12.5913
▁ED	-12.5915
efinite	-12.5935
▁''	-12.5936
▁cyber	-12.594
▁curio	-12.5945
▁inf	-12.5947
cent	-12.5949
rity	-12.5949
▁ubi	-12.5951
▁Chiar	-12.5963
▁submerge	-12.5966
centr	-12.5972
ith	-12.5973
▁Than	-12.5976
▁Dam	-12.5983
eve	-12.5989
eek	-12.5991
cept	-12.5996
▁62	-12.5998
▁Frankl	-12.6004
chini	-12.6008
esel	-12.6011
▁puls	-12.6014
▁memorize	-12.6015
aise	-12.6016
▁supervisi	-12.6026
▁Comm	-12.6034
▁boile	-12.6037
car	-12.6039
▁Gla	-12.604
stina	-12.6044
▁Nadi	-12.6046
cute	-12.6049
▁WHO	-12.6049
▁expens	-12.606
avel	-12.6061
ON	-12.607
▁MO	-12.6074
▁dro	-12.6075
relli	-12.6077
umm	-12.6079
chas	-12.6081
talk	-12.6084
ips	-12.6091
▁relia	-12.6095
▁overcrowd	-12.6096
tional	-12.6102
keep	-12.6107
escribe	-12.6113
erman	-12.6115
iful	-12.6126
▁declin	-12.6132
▁Rap	-12.6132
ueens	-12.6134
rough	-12.6135
ovie	-12.6136
▁Gir	-12.6141
gian	-12.6141
▁leaf	-12.6154
▁Tang	-12.6161
▁Blo	-12.6169
og	-12.6172
raw	-12.6176
ee	-12.6176
entia	-12.6176
▁Susann	-12.6178
And	-12.618
av	-12.6189
agna	-12.6192
bage	-12.6193
▁Roo	-12.6197
train	-12.6201
▁Pan	-12.6204
▁swa	-12.6205
▁Tur	-12.6206
mp	-12.6208
rtial	-12.621
▁roses	-12.6215
▁bombs	-12.6215
▁Kr	-12.6216
pp	-12.6224
emember	-12.6236
▁pip	-12.624
rink	-12.6241
fli	-12.6244
IN	-12.6251
test	-12.6264
experience	-12.6265
rate	-12.6273
▁don	-12.6275
▁horrifi	-12.6279
▁personalise	-12.6283
cap	-12.6284
▁refus	-12.6294
▁Pic	-12.6295
▁Movi	-12.6295
▁submitt	-12.6298
ron	-12.63
istance	-12.6301
▁Fund	-12.6303
rivate	-12.6303
huttle	-12.6304
▁resona	-12.6304
▁Em	-12.6309
▁carri	-12.632
▁olde	-12.6333
fire	-12.6335
90	-12.6335
enia	-12.6339
irplane	-12.634
▁propos	-12.6344
▁participa	-12.6345
enter	-12.6348
ini	-12.6349
▁Nu	-12.6371
ires	-12.6378
▁TI	-12.6381
▁Fish	-12.6384
wind	-12.64
ampi	-12.6403
▁Mathe	-12.6406
pa	-12.6417
seas	-12.6421
▁resent	-12.6424
oto	-12.6424
▁liar	-12.6426
runk	-12.6429
▁offend	-12.6435
OU	-12.6437
minister	-12.6442
▁capitalis	-12.6445
ANT	-12.6455
MIR	-12.6459
ario	-12.6465
wal	-12.6466
anish	-12.6466
▁Py	-12.6468
erry	-12.6475
usa	-12.6477
esk	-12.6479
▁Feed	-12.6484
ners	-12.6494
▁nause	-12.6494
ords	-12.6494
▁Arte	-12.6495
▁walke	-12.6501
fi	-12.6506
acilities	-12.651
▁gut	-12.6512
efficient	-12.6514
ander	-12.6515
▁baker	-12.6522
▁Kris	-12.653
▁Gui	-12.6531
▁Discuss	-12.6534
▁allerg	-12.6534
▁Conclusions	-12.6535
su	-12.6536
▁Authorit	-12.6538
▁convention	-12.654
iving	-12.6546
▁irre	-12.6563
ival	-12.6564
▁bab	-12.6576
▁el	-12.6579
into	-12.6584
pal	-12.6585
▁vibrati	-12.6598
▁shap	-12.6619
stance	-12.6624
ering	-12.6624
▁shoe	-12.6624
▁Palm	-12.6629
opping	-12.6634
▁worm	-12.6635
▁enquire	-12.6637
▁baza	-12.6647
▁execut	-12.6647
▁Pil	-12.6654
quit	-12.6666
▁parame	-12.6674
▁chall	-12.6677
acro	-12.6678
▁esc	-12.6683
igue	-12.6684
▁discriminat	-12.6684
▁interna	-12.6687
vern	-12.6688
ively	-12.6689
▁Canc	-12.6694
common	-12.6696
IP	-12.6704
▁res	-12.6708
▁convers	-12.672
rning	-12.6722
nge	-12.6728
icial	-12.6731
stopp	-12.6737
ollution	-12.6741
▁compel	-12.6741
▁appr	-12.6742
eration	-12.6743
▁RECOMMENDAT	-12.6753
lina	-12.6754
▁Nase	-12.6754
▁Div	-12.676
ybe	-12.6763
56	-12.6773
master	-12.6774
▁bl	-12.6776
▁Dai	-12.6785
kyo	-12.6789
▁holy	-12.68
▁Nig	-12.6802
significant	-12.6804
owl	-12.6806
▁dresse	-12.682
oc	-12.6825
hin	-12.6825
organic	-12.6826
▁reside	-12.6826
▁Lev	-12.6829
bear	-12.6839
▁confid	-12.684
▁compos	-12.6854
chin	-12.6854
▁Alc	-12.6862
inancial	-12.6862
▁rel	-12.6869
▁mud	-12.688
▁enviroment	-12.6882
▁bel	-12.689
eel	-12.6899
pical	-12.6899
▁Giv	-12.6905
htc	-12.6924
tress	-12.6932
chor	-12.6938
cient	-12.6943
▁fur	-12.6948
▁PL	-12.695
▁Join	-12.6958
▁strik	-12.6958
▁Mov	-12.6963
▁artis	-12.6964
▁illuminate	-12.6969
▁indi	-12.697
olleyball	-12.6974
▁conserve	-12.6974
▁influen	-12.6977
tie	-12.6989
▁ser	-12.6991
▁Alb	-12.6992
▁Han	-12.6994
▁ea	-12.6999
▁fluen	-12.7005
▁Finding	-12.7008
▁trib	-12.701
▁Hop	-12.7013
▁Riv	-12.7013
▁equi	-12.7014
dependence	-12.7015
▁Terri	-12.7017
otte	-12.7028
▁Sau	-12.7028
Do	-12.7031
ste	-12.7034
ura	-12.7035
ISS	-12.7039
raft	-12.7042
▁atmospher	-12.7044
igger	-12.7045
▁lip	-12.7067
▁modif	-12.7074
▁TRA	-12.7081
▁Bie	-12.7081
tin	-12.7082
▁skil	-12.7091
▁drum	-12.7096
cted	-12.7104
shop	-12.7104
ieve	-12.7106
"-	-12.7113
▁Alma	-12.7123
▁aspir	-12.7129
works	-12.7129
▁opini	-12.7132
▁immers	-12.7136
Yes	-12.7137
las	-12.7138
ht	-12.7143
mal	-12.7145
▁terroris	-12.7147
scape	-12.7148
▁spontane	-12.7148
▁mist	-12.715
▁Tax	-12.7153
'(2:1:	-12.7155
olunteer	-12.7155
▁Entertainment	-12.7155
▁brazillian	-12.7155
▁neglig	-12.7155
▁rehearsal	-12.7155
▁handicraft	-12.7155
▁colossal	-12.7155
▁Channel	-12.7155
▁Cumings	-12.7155
▁persecut	-12.7155
▁subscribe	-12.7155
▁expedition	-12.7155
OTHER	-12.7156
▁prompt	-12.7156
▁Bangkok	-12.7156
▁qualitative	-12.7156
▁Abbey	-12.7156
▁brainstorm	-12.7156
▁compound	-12.7156
▁hairstyle	-12.7156
▁Pizza	-12.7156
▁Industrial	-12.7156
▁Debate	-12.7156
▁ambience	-12.7156
ustomer	-12.7157
▁subconscious	-12.7157
▁Goodbye	-12.7158
▁goverment	-12.7158
▁Championship	-12.7158
▁Carib	-12.7158
▁scrap	-12.7158
▁counsel	-12.7159
etective	-12.7159
▁choi	-12.7159
▁Theatre	-12.7162
▁speculation	-12.7162
▁Garden	-12.7164
▁unprecedented	-12.7164
▁2500	-12.7164
▁provision	-12.7164
visual	-12.7164
▁NE	-12.7165
▁panorama	-12.7165
▁isolat	-12.7165
▁Hagi	-12.7166
▁ferry	-12.7167
▁aliment	-12.7168
▁collaborative	-12.7168
▁disturbance	-12.7169
▁freelance	-12.7169
▁Chang	-12.7169
▁Six	-12.7171
▁Fourth	-12.7172
▁compensation	-12.7172
corporate	-12.7173
ct	-12.7173
▁patron	-12.7174
uma	-12.7174
▁phenomena	-12.7177
ards	-12.7179
▁vegeta	-12.7179
▁Problem	-12.7179
▁pollutant	-12.7179
DAY	-12.718
▁banish	-12.7181
▁evade	-12.7182
▁distinctive	-12.7183
63	-12.7184
▁disappointment	-12.7185
▁envirom	-12.7188
▁inclin	-12.7188
friendly	-12.7188
▁interchange	-12.7191
ag	-12.7191
respective	-12.7195
TAKE	-12.7195
▁hoop	-12.7199
▁Sociali	-12.72
▁Sandra	-12.7201
▁sarah	-12.7202
▁Heights	-12.7204
▁allocate	-12.7205
▁participati	-12.7205
▁Building	-12.7207
▁Nazis	-12.7209
▁Provid	-12.7214
ribbl	-12.7214
xcellent	-12.7215
▁Oz	-12.7221
▁Guard	-12.7221
▁believer	-12.7222
▁notify	-12.7222
not	-12.7223
▁significan	-12.7226
ranslation	-12.7227
▁Subway	-12.7227
path	-12.723
▁industrialis	-12.7231
ider	-12.7232
▁foresee	-12.7234
▁Alps	-12.7235
AIN	-12.7238
▁variant	-12.724
▁Basilic	-12.7244
ues	-12.725
bab	-12.725
▁monarchy	-12.7255
nerg	-12.7264
▁rumo	-12.7264
ils	-12.7264
ETH	-12.7265
▁triggered	-12.7269
▁dragon	-12.727
▁recur	-12.7272
▁brew	-12.7273
▁emitte	-12.7275
▁Pal	-12.7276
▁BB	-12.7282
▁ponder	-12.7282
▁Ste	-12.7283
▁recreation	-12.7283
▁tur	-12.7285
▁playe	-12.7287
ining	-12.729
urkey	-12.7291
▁whit	-12.7294
▁Limit	-12.7299
▁Reason	-12.73
ergent	-12.7304
▁petr	-12.7304
▁Suk	-12.7307
▁lat	-12.7313
▁steadi	-12.7316
▁Relative	-12.7319
▁dizz	-12.732
win	-12.7321
▁insistent	-12.7322
▁housewi	-12.7323
▁socialise	-12.7326
▁pains	-12.7327
paper	-12.7328
▁collaborati	-12.7329
▁Wo	-12.7332
▁watering	-12.7334
▁absorbing	-12.7336
▁Viet	-12.7339
unk	-12.734
▁Volley	-12.734
ump	-12.7345
▁Letter	-12.735
else	-12.7354
▁Ahm	-12.736
▁robbe	-12.7361
iety	-12.7366
han	-12.7367
▁manipulate	-12.7367
▁Geolog	-12.737
tton	-12.7372
▁reg	-12.7374
▁Cli	-12.7384
tain	-12.7385
nte	-12.7388
▁agi	-12.7394
▁appoint	-12.7415
To	-12.7418
maker	-12.7419
▁devise	-12.743
▁exchang	-12.7433
lain	-12.7434
▁motive	-12.7451
ression	-12.7453
▁enthusiast	-12.7458
ajo	-12.7459
▁ecc	-12.7473
▁prom	-12.7474
▁starv	-12.7479
wi	-12.7485
acco	-12.7497
▁weekdays	-12.751
thout	-12.7518
appointed	-12.7525
▁Kaz	-12.753
ically	-12.753
IM	-12.7535
▁bullie	-12.7536
pers	-12.7542
▁Off	-12.7556
▁ego	-12.7556
▁establishe	-12.7559
ova	-12.756
▁Cycl	-12.7564
lan	-12.7582
▁undertak	-12.7582
▁lorr	-12.7584
▁simplif	-12.7585
ered	-12.7586
▁spir	-12.7587
▁Horse	-12.7588
ewell	-12.7589
▁Name	-12.7589
▁ruine	-12.7589
viv	-12.7589
▁Bah	-12.7591
nowledge	-12.7591
▁bare	-12.7593
lvani	-12.7596
cz	-12.7597
▁pad	-12.7597
▁logic	-12.7601
nical	-12.7612
▁Ron	-12.7613
lanes	-12.7623
▁confortab	-12.7638
aj	-12.7638
hold	-12.7645
▁Nic	-12.7648
ule	-12.765
gage	-12.7651
acy	-12.7662
▁concentra	-12.767
▁winds	-12.7679
▁exclud	-12.7686
▁Mau	-12.7688
ras	-12.769
▁Must	-12.769
▁veg	-12.7695
▁coasters	-12.7695
▁entrepreneurs	-12.7701
free	-12.7702
▁ruler	-12.7709
caution	-12.771
rming	-12.772
▁enforc	-12.7722
will	-12.7725
ilitar	-12.7728
▁Var	-12.7731
oise	-12.7732
duct	-12.7739
▁dealer	-12.7748
▁ST	-12.7748
▁CA	-12.7757
▁Deme	-12.7768
▁sur	-12.7772
PA	-12.7773
ots	-12.7782
▁PO	-12.7782
nspection	-12.7782
▁achiever	-12.7783
mming	-12.7786
▁arouse	-12.7795
imi	-12.7797
ortion	-12.7803
▁em	-12.7807
quet	-12.7819
eries	-12.782
▁adventurer	-12.7822
▁horr	-12.7825
▁gl	-12.7827
azar	-12.7829
▁examin	-12.784
xo	-12.7844
▁illuminat	-12.7844
▁deficien	-12.7845
▁Lib	-12.7847
▁purchaser	-12.7847
ernal	-12.7848
▁molest	-12.7849
,500	-12.785
▁hostil	-12.7854
▁gig	-12.7857
▁loser	-12.7858
▁explo	-12.7864
▁Win	-12.7866
hes	-12.7872
▁schedul	-12.7879
▁EL	-12.788
▁chas	-12.7882
▁chil	-12.7895
▁stare	-12.7895
▁Rais	-12.7898
▁spo	-12.79
▁friendl	-12.7903
shes	-12.7904
tta	-12.7904
▁countr	-12.7907
pay	-12.7911
▁drain	-12.7918
▁Dance	-12.7921
▁Kal	-12.7922
But	-12.7931
▁irritate	-12.7932
▁Jos	-12.7934
▁intrigue	-12.7934
▁Stel	-12.7938
▁expe	-12.7942
▁dash	-12.7945
▁rescu	-12.7954
▁cancell	-12.7959
▁Sho	-12.7964
▁lessen	-12.7965
▁syn	-12.7982
bound	-12.7983
umb	-12.7989
rinkl	-12.7991
ram	-12.7999
gers	-12.8002
▁Part	-12.8002
▁papparaz	-12.8005
▁Lucia	-12.801
▁spree	-12.8012
▁Prad	-12.8013
▁sting	-12.8016
▁graduati	-12.8033
▁compulsi	-12.8041
isha	-12.8043
stander	-12.8056
▁abs	-12.8063
▁ent	-12.8065
▁depriv	-12.8074
polite	-12.8075
▁appar	-12.808
▁rotat	-12.8087
uz	-12.8092
▁condo	-12.8097
▁circulati	-12.8108
▁Este	-12.8109
egan	-12.812
▁Via	-12.8124
▁curs	-12.8124
▁Fly	-12.8134
▁manipulat	-12.8139
joy	-12.8141
rucks	-12.8155
ient	-12.8168
▁op	-12.8169
▁dispens	-12.8171
FA	-12.8175
gg	-12.8177
▁ir	-12.8179
racy	-12.8181
▁206	-12.8183
early	-12.8187
▁designe	-12.8188
pas	-12.8191
iding	-12.8193
ex	-12.8195
xample	-12.82
after	-12.8208
▁socializ	-12.821
derland	-12.8211
quare	-12.8212
mina	-12.8219
▁crosse	-12.8224
▁copie	-12.8225
▁spec	-12.8231
▁comfortab	-12.8232
hich	-12.8237
▁regulat	-12.8239
▁publiciz	-12.8247
▁vaccine	-12.8249
bove	-12.825
develope	-12.8251
apolis	-12.8255
▁Ve	-12.8261
▁Oli	-12.8262
▁purifie	-12.8264
ociety	-12.8265
▁0	-12.8272
▁Add	-12.8277
▁manipulati	-12.8283
▁Cheer	-12.8288
▁wel	-12.8292
▁Advent	-12.8293
ovice	-12.8297
▁relian	-12.8304
▁HA	-12.8304
▁handl	-12.8317
▁prude	-12.8318
kes	-12.8318
▁Chemi	-12.8331
▁Ep	-12.8335
uld	-12.8342
ARD	-12.8349
▁Creat	-12.8353
▁Fan	-12.8364
▁Iron	-12.8367
▁Rai	-12.8367
LD	-12.837
▁amaze	-12.8372
▁Tele	-12.8374
ark	-12.8375
terature	-12.8375
ngs	-12.8375
RA	-12.8387
▁cultivat	-12.8388
nate	-12.8389
▁Administrat	-12.8395
▁AA	-12.8398
▁descis	-12.84
annon	-12.8402
▁nt	-12.8406
start	-12.8409
say	-12.8409
▁CS	-12.8412
pine	-12.8415
ilence	-12.8415
▁Cro	-12.8421
▁adventur	-12.8422
ern	-12.8427
▁phobi	-12.8428
▁Dei	-12.8431
▁cooki	-12.8431
▁accura	-12.8441
ronic	-12.8447
▁Find	-12.8449
adel	-12.8454
elo	-12.8459
bol	-12.8461
▁deceiv	-12.8473
ltimate	-12.848
▁Fra	-12.8482
▁Wil	-12.8484
▁Bag	-12.8486
▁althoug	-12.8486
▁archi	-12.8489
▁disrespect	-12.8493
▁priv	-12.8497
▁copi	-12.8501
▁followe	-12.8502
▁hig	-12.8503
▁submerg	-12.8505
▁Les	-12.8509
nka	-12.851
▁indifferent	-12.8513
hows	-12.8514
▁fut	-12.8521
augu	-12.8523
▁Mir	-12.8536
veni	-12.854
▁Event	-12.8544
▁opportuni	-12.8558
park	-12.8561
rko	-12.8562
▁erase	-12.8566
care	-12.8568
▁Jun	-12.8573
▁und	-12.8579
kow	-12.8581
sted	-12.8582
▁immerse	-12.8592
▁complian	-12.8593
▁roleplay	-12.8596
▁inc	-12.8603
trike	-12.8604
pple	-12.8605
▁requeste	-12.8611
▁Iran	-12.8612
member	-12.8614
▁diver	-12.8615
▁ji	-12.8615
los	-12.8626
fare	-12.8626
▁Stud	-12.8626
▁mod	-12.8631
dez	-12.8643
month	-12.8664
olution	-12.8664
club	-12.8667
consider	-12.8671
▁slid	-12.8676
▁Leav	-12.8677
pot	-12.8678
▁brushe	-12.8679
▁tastie	-12.868
▁collaborat	-12.8682
rov	-12.8684
ackin	-12.8686
lingua	-12.8689
via	-12.8691
MP	-12.8696
▁Kim	-12.8708
▁42	-12.8713
NFL	-12.8723
has	-12.8729
uggl	-12.874
▁Patr	-12.8743
▁coordinate	-12.8747
▁Micros	-12.8748
ys	-12.8751
famous	-12.8758
▁Tere	-12.8766
▁REV	-12.8768
▁Researche	-12.8772
swear	-12.8777
fo	-12.8778
▁Ecolog	-12.8778
▁revolv	-12.8783
fortable	-12.879
AT	-12.8798
custom	-12.8799
▁Ei	-12.8811
▁conta	-12.8811
west	-12.8821
▁justif	-12.8828
▁neat	-12.8837
▁DA	-12.8841
eci	-12.8842
cl	-12.8844
sses	-12.8844
ph	-12.8847
▁forg	-12.8853
▁helpe	-12.8855
▁PE	-12.8861
▁automobil	-12.8863
▁tol	-12.8863
social	-12.8872
▁Monta	-12.8875
▁babysit	-12.8879
hak	-12.8887
TV	-12.8889
▁lu	-12.889
vers	-12.8903
group	-12.8904
van	-12.8912
DC	-12.8916
▁Mic	-12.8916
lips	-12.8917
ction	-12.8921
▁styl	-12.8923
ET	-12.8946
▁Paci	-12.8957
EAS	-12.8963
▁skater	-12.8965
▁Bel	-12.8968
▁assemble	-12.8969
ike	-12.8972
uzz	-12.8976
▁harass	-12.8983
drink	-12.8987
▁attitud	-12.8991
rthern	-12.8992
▁idio	-12.8993
yle	-12.8997
▁accumulat	-12.9001
▁maki	-12.9002
▁hir	-12.9005
bba	-12.9009
▁Analy	-12.9009
atter	-12.902
▁Cu	-12.9025
▁responsib	-12.9029
natural	-12.9037
▁ceremoni	-12.9039
aki	-12.9039
▁plug	-12.9043
▁imagina	-12.9045
easy	-12.9051
raction	-12.9051
jections	-12.9056
▁audit	-12.9058
ouse	-12.9061
bad	-12.9063
hydra	-12.9066
▁Meta	-12.9066
▁unknow	-12.9067
activist	-12.9073
▁drow	-12.9076
ertia	-12.9079
lev	-12.9081
kov	-12.9082
ibil	-12.9083
tif	-12.9088
▁exc	-12.9088
economic	-12.9089
ntil	-12.909
versity	-12.9093
yna	-12.9095
lon	-12.9101
▁Tradition	-12.9103
▁Child	-12.9115
▁Stop	-12.9127
:3	-12.9145
▁economi	-12.9147
cul	-12.9151
▁viol	-12.9153
sport	-12.9155
mous	-12.9161
omo	-12.9179
How	-12.9186
▁Cata	-12.9191
▁unwi	-12.9191
illo	-12.9194
forest	-12.9206
▁Kun	-12.9206
tact	-12.9212
lov	-12.9215
appropriate	-12.9217
verb	-12.922
▁conferenc	-12.9221
brows	-12.9223
writer	-12.9224
▁mega	-12.9227
video	-12.9232
▁befriend	-12.9234
▁Spe	-12.9234
confident	-12.9235
▁irrigat	-12.9236
point	-12.9238
current	-12.9255
otal	-12.9256
huan	-12.9257
▁Nap	-12.9261
electric	-12.9269
▁Ube	-12.9269
sweet	-12.927
ermat	-12.9271
ancient	-12.9272
eriously	-12.9278
kara	-12.9279
del	-12.9281
ozen	-12.9285
▁temper	-12.9294
tar	-12.9294
era	-12.9296
▁selecti	-12.9297
▁propaga	-12.9303
mount	-12.9304
▁reus	-12.9305
FO	-12.9305
posibil	-12.9306
Border	-12.9308
▁prince	-12.931
keeper	-12.931
2015	-12.9311
imp	-12.9312
▁fra	-12.9314
cos	-12.9316
official	-12.9316
sheets	-12.9318
ere	-12.9322
▁rep	-12.9322
adequate	-12.9323
▁pave	-12.9333
▁Chai	-12.9335
rea	-12.9337
55	-12.9338
clusive	-12.9339
49	-12.9341
ndeniabl	-12.9349
chemical	-12.935
▁pap	-12.9354
▁rug	-12.9356
▁sponsor	-12.9358
sts	-12.9359
33	-12.9364
dresses	-12.9365
Vinc	-12.9365
rty	-12.9371
▁tabl	-12.9374
▁Mand	-12.9379
▁Cur	-12.9381
tc	-12.9381
mind	-12.9385
rable	-12.94
apple	-12.9403
▁Glo	-12.9405
▁Lect	-12.9406
py	-12.9407
▁Loc	-12.941
▁quarrel	-12.9412
▁Ol	-12.9415
agic	-12.9423
▁echoe	-12.9429
liz	-12.9431
▁Cen	-12.9434
▁abo	-12.9434
▁disast	-12.9437
▁Bibl	-12.9442
▁intensi	-12.9443
PLE	-12.9444
esthetic	-12.9446
▁Pel	-12.9451
▁Web	-12.9456
▁120	-12.9459
▁evolv	-12.9459
ultural	-12.946
▁smi	-12.9467
utomobile	-12.9468
▁gla	-12.9478
▁proto	-12.9478
mmer	-12.9479
rew	-12.948
▁surg	-12.9481
curricul	-12.9483
▁Au	-12.9489
viation	-12.9491
▁crow	-12.9504
▁discharge	-12.9505
▁Ul	-12.9519
oral	-12.9519
ache	-12.9521
▁Rub	-12.9525
lush	-12.9526
anta	-12.953
▁11.	-12.953
venture	-12.9533
▁AG	-12.9534
APP	-12.9535
ecurity	-12.9535
▁Sub	-12.9539
stress	-12.9541
▁instinct	-12.9547
▁premi	-12.9548
▁arrogan	-12.9549
▁blister	-12.955
▁parad	-12.9556
▁diligen	-12.9556
▁manu	-12.9557
biz	-12.956
ect	-12.9562
ket	-12.9564
▁pizz	-12.9567
lubb	-12.9568
▁identifie	-12.9569
eau	-12.9574
bling	-12.9577
▁imperial	-12.9579
▁requir	-12.9581
iable	-12.9582
▁Conti	-12.9586
beca	-12.9588
▁imitat	-12.9589
▁cru	-12.9592
▁Adri	-12.9598
▁glorious	-12.9599
effi	-12.96
▁humbl	-12.9601
16	-12.9601
▁Excel	-12.9602
english	-12.9603
▁hydro	-12.9603
corporation	-12.9604
gree	-12.9604
▁Coll	-12.9606
▁frag	-12.9613
▁hospita	-12.9614
▁Kil	-12.9623
fu	-12.9625
▁nutri	-12.9626
▁exhibit	-12.9632
nounce	-12.9634
▁Beg	-12.9637
▁FS	-12.9638
▁Filip	-12.9638
▁Naz	-12.9639
block	-12.9645
mperial	-12.9646
▁rapi	-12.9651
▁Olymp	-12.9651
▁civiliz	-12.9651
IDE	-12.9651
igital	-12.9653
▁Recommend	-12.9653
▁Econom	-12.9654
grada	-12.9654
▁Colosse	-12.9654
▁bask	-12.9654
ickpocket	-12.9655
ightsee	-12.9655
tinguish	-12.9655
▁Cacharrer	-12.9655
▁FAVO	-12.9655
▁Superma	-12.9655
TRIBUT	-12.9655
▁DEVELOP	-12.9655
▁Maciej	-12.9655
▁encyclop	-12.9655
▁vasodilat	-12.9655
'(4:	-12.9655
izdehbedar	-12.9655
rquez	-12.9655
uidweg	-12.9655
▁Alternative	-12.9655
▁BLOG	-12.9655
▁BROTHER	-12.9655
▁CHANGE	-12.9655
▁COURSE	-12.9655
▁Commercial	-12.9655
▁Dimitri	-12.9655
▁Echevarria	-12.9655
▁Ettore	-12.9655
▁Fabio	-12.9655
▁Felipe	-12.9655
▁Fennstermacher	-12.9655
▁Gabriel	-12.9655
▁Javier	-12.9655
▁Katherine	-12.9655
▁LIFE	-12.9655
▁Melbourn	-12.9655
▁Melissa	-12.9655
▁Monika	-12.9655
▁OCPM	-12.9655
▁PROGRAMMES	-12.9655
▁SPECIAL	-12.9655
▁Sokolov	-12.9655
▁TENNIS	-12.9655
▁TOURIST	-12.9655
▁TREATMENT	-12.9655
▁Tejada	-12.9655
▁Trentino	-12.9655
▁Tribun	-12.9655
▁WONGWATJANAK	-12.9655
▁barbacue	-12.9655
▁ceramic	-12.9655
▁crocodile	-12.9655
▁culprit	-12.9655
▁diagnos	-12.9655
▁dishwasher	-12.9655
▁elbow	-12.9655
▁elephant	-12.9655
▁encroach	-12.9655
▁experencie	-12.9655
▁homicide	-12.9655
▁impulsive	-12.9655
▁lavish	-12.9655
▁masculin	-12.9655
▁mitigat	-12.9655
▁portfolio	-12.9655
▁premonition	-12.9655
▁pyjama	-12.9655
▁referendum	-12.9655
▁refrigera	-12.9655
▁refurbish	-12.9655
▁rejoice	-12.9655
▁samurai	-12.9655
▁unparallel	-12.9655
▁Bartolo	-12.9655
▁Meeuws	-12.9655
▁Protection	-12.9655
▁abbreviat	-12.9655
▁captivat	-12.9655
▁confederation	-12.9655
▁evacuat	-12.9655
▁majestic	-12.9655
▁yoghurt	-12.9655
EACH	-12.9655
▁Monfrag	-12.9655
▁Senegal	-12.9655
▁cocktail	-12.9655
▁gladiator	-12.9655
▁glucos	-12.9655
▁workaholic	-12.9655
▁pharao	-12.9655
UND	-12.9655
▁Evgeni	-12.9655
▁FUTUR	-12.9655
▁Lambs	-12.9655
▁Priscil	-12.9655
▁engross	-12.9655
▁nickname	-12.9655
ERNE	-12.9655
VEMENTS	-12.9655
▁Scholar	-12.9655
▁6:20	-12.9655
▁Albufe	-12.9655
▁Cinema	-12.9655
▁INTEREST	-12.9655
▁Integrat	-12.9655
▁jersey	-12.9655
▁puppets	-12.9655
▁mediocr	-12.9655
▁predicament	-12.9655
▁subscription	-12.9655
▁weightlift	-12.9655
▁Bianca	-12.9655
▁artifact	-12.9655
▁dictionar	-12.9655
▁furkid	-12.9655
cebreakers	-12.9655
▁Ag	-12.9655
▁Alejandrina	-12.9655
▁assimilat	-12.9655
▁introvert	-12.9655
▁malfunction	-12.9655
GRO	-12.9655
▁subsidiari	-12.9655
UGG	-12.9656
▁Gerard	-12.9656
▁SPAIN	-12.9656
▁chuckle	-12.9656
▁consecrat	-12.9656
▁dolphin	-12.9656
▁Navarr	-12.9656
▁chapel	-12.9656
▁predominant	-12.9656
LLED	-12.9656
OWN	-12.9656
UBB	-12.9656
▁Waterstone	-12.9656
▁raincoat	-12.9656
▁Yucat	-12.9656
","	-12.9656
▁subsidise	-12.9656
IGN	-12.9656
▁Elvira	-12.9656
▁cobble	-12.9656
▁escalat	-12.9656
▁qunat	-12.9656
▁tombstone	-12.9656
▁bastard	-12.9656
ARIO	-12.9656
▁Payne	-12.9656
▁Reflecti	-12.9656
▁uniform	-12.9656
▁Assembl	-12.9656
URES	-12.9656
▁Audience	-12.9656
▁Cacharreria	-12.9656
▁scrambl	-12.9656
▁lagoon	-12.9656
▁Sorbo	-12.9656
▁Domini	-12.9656
▁Matias	-12.9656
▁Rosevelt	-12.9656
▁disregard	-12.9656
▁swallow	-12.9656
▁Athenian	-12.9656
▁Sahara	-12.9656
▁cubic	-12.9656
▁Citizens	-12.9656
▁billboard	-12.9656
▁cluster	-12.9656
▁discontinue	-12.9656
▁antenna	-12.9656
▁trolleybus	-12.9656
▁overshadow	-12.9656
▁safeguard	-12.9656
▁Provision	-12.9656
▁seaweed	-12.9656
▁prevail	-12.9656
maniac	-12.9656
▁EAP	-12.9656
▁Suffer	-12.9656
▁consolidat	-12.9656
skelet	-12.9657
▁HIGH	-12.9657
▁mistress	-12.9657
▁anorexi	-12.9657
▁omni	-12.9657
▁LONG	-12.9657
▁Botanic	-12.9657
▁WEEK	-12.9657
▁666	-12.9657
▁flabb	-12.9657
▁pharmac	-12.9657
▁Harbour	-12.9657
▁Minimal	-12.9657
▁pratice	-12.9657
abbit	-12.9657
▁crunch	-12.9657
▁Lombard	-12.9657
▁Grammar	-12.9657
▁Raya	-12.9657
▁Alaska	-12.9657
▁NNN	-12.9657
▁Ariana	-12.9657
▁Rafael	-12.9657
▁disgu	-12.9657
▁Disaster	-12.9657
▁WOR	-12.9657
▁Vung	-12.9657
▁Daria	-12.9658
▁porn	-12.9658
▁Galile	-12.9658
▁repuls	-12.9658
▁aprico	-12.9658
▁unrival	-12.9658
WEAT	-12.9658
▁WHAT	-12.9658
▁criticize	-12.9658
▁Alicia	-12.9658
▁MRT	-12.9658
▁LUC	-12.9659
▁cuddl	-12.9659
▁peolp	-12.9659
▁bounce	-12.9659
▁divine	-12.9659
▁recomend	-12.9659
▁Passage	-12.9659
▁categorize	-12.9659
▁clums	-12.9659
▁Sforz	-12.9659
▁reproache	-12.966
▁spectacle	-12.966
▁legume	-12.966
▁Advertisement	-12.966
▁aggressor	-12.966
▁conform	-12.966
▁Hennings	-12.966
ected	-12.966
▁enclosure	-12.966
GETT	-12.966
▁preview	-12.966
▁conceptual	-12.966
▁05:	-12.9661
▁chock	-12.9661
▁bothersome	-12.9661
▁Reyes	-12.9661
▁digest	-12.9661
▁Silvia	-12.9661
▁Kenne	-12.9661
▁breakthrough	-12.9661
▁Chamber	-12.9662
▁reasson	-12.9662
▁Field	-12.9662
▁misbehavi	-12.9662
▁superb	-12.9662
▁negotiation	-12.9662
▁Hatha	-12.9662
▁Antoni	-12.9662
▁narrative	-12.9662
▁reopen	-12.9662
"(	-12.9663
54	-12.9663
▁newbie	-12.9663
▁shatter	-12.9663
their	-12.9663
▁Azna	-12.9663
▁Torre	-12.9664
▁mineral	-12.9664
▁fragment	-12.9664
▁astound	-12.9664
▁Observ	-12.9664
▁hollow	-12.9664
▁Oscar	-12.9665
▁Lux	-12.9665
▁Terem	-12.9665
▁commence	-12.9665
▁Flag	-12.9665
▁9:	-12.9665
▁bliss	-12.9666
▁Terra	-12.9666
▁whistle	-12.9666
▁label	-12.9666
▁diferent	-12.9666
▁surrond	-12.9666
▁mutter	-12.9666
▁vicious	-12.9666
▁efficac	-12.9667
eutic	-12.9667
▁WWI	-12.9667
▁bubbl	-12.9668
nternship	-12.9668
▁Souvenirs	-12.9668
▁Calvi	-12.9669
▁ears	-12.9669
▁smack	-12.9669
▁Hermi	-12.9669
▁Nutritionist	-12.9669
ecki	-12.967
▁hunch	-12.967
'(3:2:1	-12.967
▁outcast	-12.967
ONG	-12.9671
▁Common	-12.9671
▁confrontation	-12.9671
mbie	-12.9672
▁spontaneous	-12.9672
embark	-12.9672
▁Paco	-12.9672
▁pierc	-12.9672
pez	-12.9672
▁isolation	-12.9672
▁Blood	-12.9672
▁envior	-12.9673
▁carriage	-12.9673
▁Filipa	-12.9674
▁ornament	-12.9675
▁Exchang	-12.9675
▁1900	-12.9675
▁plung	-12.9676
▁Tracy	-12.9676
ddle	-12.9676
▁mischiev	-12.9676
▁Dj	-12.9677
▁10:00	-12.9678
count	-12.9678
▁flick	-12.9678
▁luxor	-12.9679
▁Rik	-12.9679
▁Consultan	-12.968
▁sympto	-12.968
▁dialect	-12.968
▁Concer	-12.968
▁MIS	-12.9681
▁diffi	-12.9681
▁Southerner	-12.9681
▁Dress	-12.9682
nces	-12.9682
▁Diary	-12.9683
▁deficit	-12.9684
ner	-12.9684
▁transp	-12.9684
▁indicator	-12.9685
▁disseminati	-12.9685
▁Carda	-12.9685
▁fearless	-12.9686
rejudice	-12.9687
▁dissent	-12.9687
▁fiber	-12.9687
LOM	-12.9688
phan	-12.9688
▁Alexa	-12.969
martphone	-12.969
▁Keyes	-12.969
▁Scream	-12.9691
▁musk	-12.9691
▁collud	-12.9691
▁advent	-12.9692
scribe	-12.9692
▁voluntari	-12.9693
uji	-12.9693
▁Linked	-12.9693
▁impec	-12.9693
quiring	-12.9694
rizon	-12.9694
▁Brook	-12.9695
▁ADV	-12.9695
▁crab	-12.9696
▁soori	-12.9696
▁Carpe	-12.9697
▁flapp	-12.9697
▁pornograph	-12.9697
▁curb	-12.9698
▁Khali	-12.9699
▁defence	-12.9699
▁constraint	-12.9699
▁identi	-12.97
NN	-12.97
▁renovation	-12.9701
▁Cesar	-12.9701
▁Arenas	-12.9701
▁stink	-12.9701
▁Federic	-12.9701
▁Manna	-12.9702
▁biome	-12.9703
rawl	-12.9704
▁consumeris	-12.9705
form	-12.9706
▁Refresh	-12.9706
▁weekday	-12.9706
▁Merid	-12.9706
ographical	-12.9706
▁Pluses	-12.9706
ADE	-12.9707
bully	-12.9709
sburg	-12.9713
▁adjustment	-12.9713
▁Selen	-12.9714
▁stubb	-12.9714
▁gloriously	-12.9714
▁alteration	-12.9715
endous	-12.9715
nta	-12.9716
▁speculat	-12.9716
CIA	-12.9716
▁Tec	-12.9717
▁twentie	-12.9717
STAR	-12.9717
▁historian	-12.9718
▁Police	-12.9719
▁Bang	-12.9719
▁Arch	-12.9721
▁Career	-12.9721
OST	-12.9722
▁Statisti	-12.9722
▁peep	-12.9724
▁Classes	-12.9724
IG	-12.9725
▁perpetua	-12.9725
▁cau	-12.9725
▁thumb	-12.9726
rrat	-12.9726
▁aparat	-12.9726
late	-12.9727
▁endow	-12.9728
▁shipment	-12.9728
▁seaport	-12.9728
▁Parai	-12.9729
),	-12.973
▁transparent	-12.9731
▁surgeon	-12.9731
DIA	-12.9732
requisite	-12.9732
▁feather	-12.9732
▁workmate	-12.9732
nvestigation	-12.9733
▁Penic	-12.9734
▁Liver	-12.9735
ground	-12.9736
▁tiger	-12.9737
▁9:00	-12.9737
▁impart	-12.9739
▁Chance	-12.9739
▁Roberta	-12.974
ocrat	-12.9741
tigation	-12.9742
▁imperialis	-12.9743
▁premier	-12.9744
imitation	-12.9744
▁60.	-12.9746
▁muff	-12.9748
vitalize	-12.975
▁constitute	-12.9751
ayed	-12.9751
▁banknote	-12.9751
▁correlat	-12.9753
▁Rowl	-12.9755
▁Melan	-12.9756
▁nod	-12.9757
▁wifi	-12.9759
▁coral	-12.976
clubs	-12.976
▁shiver	-12.976
▁overlap	-12.9761
▁MAT	-12.9762
tograph	-12.9765
▁edit	-12.9765
roposal	-12.9765
▁veter	-12.9765
▁Tia	-12.9766
hocolat	-12.9767
▁impro	-12.9767
▁holders	-12.9768
▁Vast	-12.9769
▁Rag	-12.9772
▁tha	-12.9773
▁insistence	-12.9773
▁urgen	-12.9774
▁verbs	-12.9775
▁Asht	-12.9777
istribution	-12.9778
▁McCon	-12.9779
▁maga	-12.9779
▁REA	-12.978
▁assumption	-12.9781
'(2:1:10	-12.9785
▁melod	-12.9785
▁Lamp	-12.9785
▁broom	-12.9786
lim	-12.9787
▁novelist	-12.9788
▁frown	-12.9792
▁Taxis	-12.9793
▁hedge	-12.9794
▁moderniz	-12.9795
▁vow	-12.9798
inister	-12.98
▁indepe	-12.9801
▁multipli	-12.9802
▁bookshel	-12.9803
▁decipher	-12.9803
ENTS	-12.9807
▁TOP	-12.9809
▁clause	-12.9809
ASS	-12.981
xter	-12.9811
!"	-12.9811
▁LAN	-12.9814
SON	-12.9814
▁drift	-12.9814
▁UI	-12.9815
▁unpa	-12.9817
astic	-12.982
CENT	-12.982
▁prioritiz	-12.9824
▁Top	-12.9826
BERO	-12.9826
▁debt	-12.9828
▁hypothesi	-12.9828
roso	-12.9831
▁Bill	-12.9832
▁Yass	-12.9836
uce	-12.9836
▁Fl	-12.9836
hno	-12.9837
Liza	-12.9838
▁GT	-12.9841
ido	-12.9843
ahua	-12.9846
pines	-12.9847
sition	-12.9852
egre	-12.9852
nburg	-12.9852
▁exert	-12.9854
▁Nicola	-12.9858
▁endorse	-12.9858
wn	-12.9861
▁mile	-12.9862
▁Syd	-12.9863
▁taunt	-12.9865
▁pathetic	-12.9868
urvey	-12.9869
▁duck	-12.9871
ovado	-12.9872
▁Galler	-12.9873
kir	-12.9874
▁conscien	-12.9877
Michie	-12.9877
▁quad	-12.9881
▁excessively	-12.9882
▁Beac	-12.9883
▁fortress	-12.9887
▁Bil	-12.9888
▁heroine	-12.9888
LAN	-12.9889
▁carpent	-12.9889
onument	-12.9889
▁vain	-12.989
▁Encourag	-12.989
▁AV	-12.9894
▁Hate	-12.9896
▁ironic	-12.9898
▁Ask	-12.9899
▁animation	-12.9901
▁Mayor	-12.9902
▁stride	-12.9903
conn	-12.9905
▁echoes	-12.9906
▁OL	-12.9907
▁logo	-12.9908
▁comprise	-12.991
▁Kinga	-12.9911
▁Nicol	-12.9912
▁Got	-12.9913
▁Lig	-12.9914
▁Suppos	-12.9915
bina	-12.9915
▁server	-12.9917
▁Hamp	-12.9917
▁Cuban	-12.9918
▁populate	-12.9923
ucci	-12.9923
▁restructur	-12.9925
MBER	-12.9925
abu	-12.9926
▁designate	-12.9927
andidate	-12.9927
▁racist	-12.9928
▁influent	-12.9928
▁Enclos	-12.9929
▁indicat	-12.993
▁breed	-12.9932
▁liberal	-12.9933
▁replicate	-12.9935
uncan	-12.9937
▁carpe	-12.9937
▁regimen	-12.9942
TIC	-12.9945
▁narrat	-12.9946
PU	-12.9947
▁Supp	-12.9952
fall	-12.9952
iculu	-12.9954
▁Televis	-12.9956
upporter	-12.9959
▁locality	-12.996
xi	-12.996
Be	-12.9961
syllabi	-12.9963
▁Curie	-12.9963
apy	-12.9964
▁cro	-12.9969
▁AR	-12.9972
rticle	-12.9973
?.	-12.9973
itka	-12.9974
ero	-12.9974
▁Brand	-12.9975
5.1	-12.9977
▁Silva	-12.9981
▁OR	-12.9985
▁Pain	-12.9986
azi	-12.9987
▁Dom	-12.9988
UG	-12.9991
▁abolish	-12.9992
▁voter	-12.9994
blic	-12.9995
▁cray	-12.9995
owi	-12.9997
▁Managem	-12.9998
▁chic	-13
▁avid	-13.0001
quete	-13.0001
▁Magal	-13.0004
▁dig	-13.0005
▁chew	-13.0009
uran	-13.0011
▁55	-13.0015
dict	-13.0015
▁Mery	-13.0016
▁servic	-13.0017
ours	-13.002
▁shark	-13.0022
▁tribu	-13.0023
ROM	-13.0023
▁Chic	-13.0025
▁propagate	-13.0027
favorabl	-13.0028
▁Agricultur	-13.0028
▁uncontrollabl	-13.003
▁bur	-13.0031
▁snap	-13.0031
▁Berk	-13.0032
ited	-13.0032
shine	-13.0034
▁APP	-13.0034
avourite	-13.0035
▁Barra	-13.0035
▁anticipat	-13.0042
▁Border	-13.0045
▁Paparazz	-13.0052
'(	-13.0054
Select	-13.0062
attend	-13.0068
▁DELI	-13.0071
▁Lal	-13.0073
▁appre	-13.0077
years	-13.008
vicini	-13.0083
eli	-13.0083
▁disc	-13.0083
velo	-13.0091
▁hatch	-13.0092
▁Map	-13.0092
ATER	-13.0093
▁awe	-13.0096
▁coherenc	-13.0098
▁nationalit	-13.0103
HL	-13.0107
equal	-13.0108
ype	-13.0118
▁kart	-13.012
▁Ern	-13.0123
▁Micro	-13.0125
would	-13.0126
▁reco	-13.0129
▁Cyberscho	-13.0131
▁ridi	-13.0132
aptain	-13.0135
END	-13.0137
ctive	-13.0139
creased	-13.0143
section	-13.0144
▁restor	-13.0145
▁Ode	-13.0149
amps	-13.0151
▁99	-13.0152
▁Hunt	-13.0152
▁stil	-13.0153
▁bodi	-13.0154
▁Vo	-13.0155
▁autop	-13.0155
api	-13.0158
hout	-13.0163
▁grill	-13.0163
▁Vanes	-13.0164
▁bodybuild	-13.0164
▁Vacations	-13.0166
▁competitior	-13.0168
▁spoon	-13.0168
▁domes	-13.0169
sight	-13.0172
gra	-13.0172
▁emo	-13.0175
▁misty	-13.0181
mos	-13.0184
imes	-13.0189
ugh	-13.019
luck	-13.0192
▁Kro	-13.0192
▁Va	-13.0193
▁exhil	-13.0195
izar	-13.0195
NT	-13.02
CA	-13.0201
▁bomb	-13.0204
▁archiv	-13.0209
▁deco	-13.021
▁Infect	-13.0211
▁Daw	-13.0214
▁Shu	-13.0218
▁Polon	-13.0218
▁Arno	-13.0223
ilee	-13.0226
▁Massac	-13.0227
▁Sud	-13.0229
outhern	-13.0229
vol	-13.023
▁Bud	-13.0231
▁sm	-13.0231
▁Bau	-13.0232
ez	-13.0236
▁Ara	-13.0246
acat	-13.0247
mel	-13.0247
▁Liber	-13.0249
▁jou	-13.0252
▁Roll	-13.0253
▁deplete	-13.0257
'(3:1:1	-13.0257
tra	-13.0263
▁Picc	-13.0263
▁Moor	-13.0267
▁friendli	-13.0267
isposal	-13.0268
KS	-13.0268
ropoli	-13.0269
▁submissi	-13.0269
▁Marin	-13.027
beds	-13.0274
▁exha	-13.0275
immer	-13.0276
moral	-13.0277
oon	-13.0279
gli	-13.0279
now	-13.0279
▁revert	-13.0279
ANTA	-13.0282
▁credib	-13.0284
orrect	-13.0296
▁Insight	-13.0299
▁Alt	-13.0301
▁Grie	-13.0306
▁6:3	-13.0307
▁Ang	-13.0313
▁Sc	-13.032
▁gram	-13.0321
ongratulation	-13.0327
transport	-13.0328
ompanies	-13.0334
▁Nat	-13.0335
ava	-13.0341
▁activist	-13.0341
▁Season	-13.0343
erior	-13.0345
mond	-13.0345
gust	-13.0346
▁Ac	-13.0346
▁Abd	-13.0352
▁sympathi	-13.0355
▁Raf	-13.0357
atarina	-13.036
▁Mend	-13.036
gain	-13.0363
▁circula	-13.0363
▁Cris	-13.0368
▁addicti	-13.0369
urricul	-13.0377
urname	-13.0379
AME	-13.038
rian	-13.0385
▁Chape	-13.0385
▁Clim	-13.0386
war	-13.0386
▁uncha	-13.0387
ologist	-13.0396
▁Lenn	-13.0402
ographic	-13.0403
beh	-13.041
▁restart	-13.0412
ylin	-13.0416
▁rebelli	-13.0419
▁Meal	-13.0421
mperor	-13.0424
▁shopper	-13.0424
0.00	-13.0426
besity	-13.0428
▁pitcher	-13.0433
AD	-13.0433
▁Mah	-13.0433
▁spelling	-13.0439
RN	-13.044
▁Cap	-13.0446
ME	-13.0447
vation	-13.045
icul	-13.0453
ify	-13.0454
much	-13.0454
▁Bou	-13.0457
▁Finch	-13.0465
aya	-13.047
▁Fann	-13.0482
▁Link	-13.0488
▁migrat	-13.0489
lated	-13.049
boos	-13.049
▁maker	-13.049
degrad	-13.0491
▁Manj	-13.0497
ywhere	-13.0507
elli	-13.0509
▁defy	-13.0513
▁dar	-13.0518
trava	-13.052
list	-13.0523
▁assembl	-13.0528
▁cargo	-13.0529
turi	-13.053
rish	-13.054
octo	-13.055
▁Op	-13.055
▁Bran	-13.0552
arming	-13.0554
indication	-13.0556
▁significa	-13.0557
first	-13.0558
▁envirn	-13.0558
▁circus	-13.0564
▁discoveri	-13.0565
▁downward	-13.0581
:-	-13.0584
play	-13.0585
ALL	-13.0591
II	-13.0593
rollar	-13.0596
ordinate	-13.0597
▁Politic	-13.0601
bula	-13.0604
▁grum	-13.0612
▁irreveren	-13.0614
ggle	-13.0614
pur	-13.0617
▁Ferre	-13.0619
iova	-13.0621
wl	-13.0621
▁paw	-13.0622
.3	-13.0622
rugg	-13.0623
anche	-13.0627
calo	-13.063
erbs	-13.063
▁Brun	-13.0636
AY	-13.0637
prio	-13.0639
▁sixt	-13.0639
NAL	-13.0641
▁ficti	-13.0652
66	-13.0653
ourne	-13.0657
▁TG	-13.0659
tape	-13.066
bu	-13.066
▁mat	-13.0661
erven	-13.0665
▁unti	-13.0667
▁grav	-13.067
▁recording	-13.0672
roll	-13.0677
nova	-13.0681
▁observer	-13.0683
▁Cab	-13.0687
▁mul	-13.0689
▁Espan	-13.0691
▁hunter	-13.0691
hink	-13.0695
▁diap	-13.0696
rav	-13.0698
▁Pros	-13.0698
bert	-13.0702
▁NIC	-13.0703
aft	-13.0704
eld	-13.0713
change	-13.0714
tland	-13.0714
ided	-13.0715
▁payment	-13.0719
almon	-13.0723
lier	-13.0738
▁bold	-13.0742
▁Verb	-13.0752
▁heel	-13.0753
aca	-13.0757
▁tui	-13.0766
▁Industr	-13.0772
glass	-13.0779
100	-13.078
▁Pele	-13.0784
▁flatmat	-13.0787
stract	-13.0792
rton	-13.0802
▁seduce	-13.0809
▁Sala	-13.0809
MAS	-13.081
illing	-13.0813
▁smiley	-13.0819
hero	-13.082
oarding	-13.0822
inous	-13.0827
▁decen	-13.0828
rgy	-13.0828
erenc	-13.0837
raina	-13.084
▁span	-13.0841
down	-13.0844
amma	-13.0848
rative	-13.0854
fers	-13.0855
mpossible	-13.0858
▁sak	-13.0861
▁Pra	-13.0869
▁saucer	-13.087
▁colu	-13.0871
▁minist	-13.0883
▁Alge	-13.0898
▁Corporat	-13.09
▁Organiz	-13.0903
▁saturat	-13.0913
police	-13.0913
alking	-13.0914
leta	-13.0915
osque	-13.092
▁Mire	-13.0927
pes	-13.0927
epic	-13.0927
worker	-13.0929
▁Port	-13.0935
▁pupp	-13.0935
ople	-13.0942
▁Worker	-13.0943
ller	-13.0944
▁ignoran	-13.0946
▁Laur	-13.0951
atar	-13.0953
eiji	-13.0956
▁trou	-13.0957
▁violate	-13.0957
▁143	-13.0959
▁Para	-13.0961
▁kil	-13.0966
bao	-13.0966
▁freeze	-13.0967
▁scan	-13.0972
▁Sch	-13.0974
tank	-13.0978
jua	-13.098
dministration	-13.0981
OL	-13.0985
▁debat	-13.0985
▁topping	-13.0987
▁inte	-13.0993
▁leak	-13.0996
▁List	-13.0997
▁Kam	-13.0997
▁laz	-13.0999
▁blocker	-13.1002
hire	-13.1004
arc	-13.101
▁deni	-13.101
▁Sm	-13.1011
▁Person	-13.1013
▁poke	-13.1029
ensive	-13.103
▁footst	-13.1034
TH	-13.1036
▁fam	-13.1037
PEC	-13.1039
seum	-13.104
▁shorten	-13.1042
▁improvis	-13.1044
lient	-13.1046
▁SE	-13.1046
▁Tro	-13.1047
▁figur	-13.1048
athl	-13.105
▁peo	-13.105
▁sacrific	-13.1052
▁Beach	-13.1052
First	-13.1052
zo	-13.1053
▁Abra	-13.1053
phobia	-13.1055
icket	-13.1056
▁Leg	-13.106
▁strand	-13.106
ax	-13.1066
hoven	-13.1067
▁gu	-13.1074
▁greate	-13.1076
riginal	-13.1082
▁immersi	-13.1095
ulk	-13.11
housand	-13.1102
▁Fre	-13.112
ops	-13.1123
▁atti	-13.113
kD	-13.1133
▁ove	-13.1135
▁stre	-13.114
nuous	-13.1143
stra	-13.1144
▁anger	-13.1147
▁aggressi	-13.1149
▁Cor	-13.1159
▁Alta	-13.1161
DIS	-13.1161
wrapp	-13.1171
▁reconstructi	-13.1193
arcel	-13.1198
▁merchandise	-13.1201
wns	-13.1204
ssociation	-13.1207
arn	-13.1208
▁migra	-13.1209
vo	-13.1212
----------------	-13.1218
roadway	-13.122
▁applic	-13.1221
diff	-13.1224
rows	-13.1225
▁Mol	-13.1227
▁secur	-13.123
▁Door	-13.1231
▁Dani	-13.1238
cist	-13.1239
▁policem	-13.1261
pus	-13.1264
gara	-13.1272
▁tin	-13.1287
▁peel	-13.1287
▁conclusi	-13.1288
▁animat	-13.1292
TAR	-13.1301
dly	-13.1303
▁desir	-13.1303
▁Michal	-13.1307
▁Gas	-13.1309
▁trav	-13.1329
▁Cre	-13.1333
SC	-13.1334
▁Examin	-13.1337
nformative	-13.1342
▁tomb	-13.1345
▁machin	-13.1355
ote	-13.1357
zaf	-13.1373
itter	-13.1375
▁Russ	-13.1375
sapear	-13.1377
46	-13.1381
cript	-13.1382
pan	-13.1389
▁promi	-13.1398
▁Wor	-13.1405
▁decepti	-13.1411
▁emb	-13.1413
▁Bug	-13.1413
mm	-13.1416
morrow	-13.1421
heck	-13.1421
▁modul	-13.1433
heir	-13.1436
▁Beatri	-13.1442
zard	-13.1442
erti	-13.1446
▁flex	-13.1448
race	-13.1449
bus	-13.1467
▁probabilit	-13.148
ash	-13.1493
▁publisher	-13.1494
▁blo	-13.1495
▁experi	-13.1495
football	-13.1499
RO	-13.1501
thodo	-13.1505
fied	-13.1508
uspect	-13.1509
▁incan	-13.1514
▁roar	-13.1515
oodbye	-13.1524
▁Ear	-13.1533
rogress	-13.1536
▁Statu	-13.1544
anca	-13.1547
▁Gab	-13.1549
story	-13.1551
sin	-13.1554
▁Express	-13.1559
▁WA	-13.1561
brado	-13.1561
▁las	-13.1562
▁sai	-13.1569
▁cont	-13.1572
chines	-13.158
▁boo	-13.1584
▁infan	-13.1586
▁stag	-13.1588
▁belo	-13.1592
▁Carta	-13.1592
ip	-13.1593
▁ache	-13.1598
▁Lau	-13.1603
▁appare	-13.161
iev	-13.1616
yz	-13.1627
ecas	-13.163
osaic	-13.1635
▁pres	-13.1636
▁Mental	-13.165
zh	-13.165
ESS	-13.165
usse	-13.1651
▁polu	-13.1654
▁takin	-13.1662
▁exa	-13.1664
▁activat	-13.1673
▁desing	-13.1674
▁Spo	-13.1675
▁hhh	-13.1675
uda	-13.1685
astle	-13.1691
▁browse	-13.1699
▁remo	-13.1707
angle	-13.1724
▁Acc	-13.1726
▁Dent	-13.1732
ssel	-13.1734
org	-13.1735
▁Jas	-13.1737
▁Mer	-13.1744
ame	-13.175
eer	-13.1752
DD	-13.1759
epresentative	-13.1768
quest	-13.1769
UR	-13.1777
▁prese	-13.1778
▁Aris	-13.1781
resso	-13.1785
▁hamm	-13.1786
ju	-13.1791
▁Sto	-13.1791
▁languag	-13.1793
▁climber	-13.1794
▁overlo	-13.1807
knowledge	-13.1812
shma	-13.182
IE	-13.1821
▁Serge	-13.1832
GU	-13.1846
People	-13.1856
▁respons	-13.1858
worms	-13.1865
▁Jai	-13.1869
▁Mum	-13.1869
03	-13.1876
dull	-13.188
corn	-13.188
onduct	-13.1885
▁Trie	-13.1889
▁justifi	-13.1893
▁Mec	-13.1898
oads	-13.1904
razi	-13.1907
rus	-13.1913
▁adher	-13.1913
ONS	-13.192
Ri	-13.1928
xic	-13.1933
▁clu	-13.1933
▁Creati	-13.1933
▁charg	-13.1939
revi	-13.1954
ks	-13.1956
cars	-13.1957
▁ros	-13.1957
44	-13.196
▁Kee	-13.1968
sketball	-13.1968
▁unre	-13.197
▁pulle	-13.1972
plane	-13.1976
▁pri	-13.1978
▁ni	-13.1984
▁hitt	-13.199
▁bik	-13.2
▁persisten	-13.2003
zer	-13.2007
▁Julian	-13.2019
LEA	-13.2019
ema	-13.2021
▁Tok	-13.2028
ures	-13.2029
▁Vit	-13.2035
bac	-13.2035
erina	-13.2039
sity	-13.2043
▁simpl	-13.2044
could	-13.2048
issues	-13.2053
▁Oliv	-13.2053
▁Lit	-13.2054
onference	-13.2062
agua	-13.2066
hine	-13.207
▁Ya	-13.2071
▁masse	-13.2087
origins	-13.2093
ibilit	-13.2098
asha	-13.2104
orov	-13.2106
tenses	-13.2113
nel	-13.2136
abbag	-13.2136
▁poetic	-13.2141
All	-13.2144
▁Ama	-13.2147
▁Las	-13.2147
ji	-13.2151
▁Kali	-13.2173
tuna	-13.2184
▁Piri	-13.2189
icy	-13.2189
▁Vis	-13.2192
▁warr	-13.2197
▁nitri	-13.2202
▁exaggerat	-13.2207
▁contin	-13.2208
▁broade	-13.2212
▁Romans	-13.2215
▁Sol	-13.2221
▁lowe	-13.2224
errer	-13.223
ower	-13.2236
▁piti	-13.2239
km	-13.2245
▁anim	-13.225
itory	-13.2253
este	-13.2257
qu	-13.2257
PO	-13.2278
These	-13.228
▁Lang	-13.2281
▁tw	-13.2282
row	-13.229
▁deserv	-13.2296
▁cere	-13.2304
CK	-13.2306
▁Fif	-13.2311
▁Organis	-13.2315
▁trump	-13.2318
▁Tara	-13.2318
▁Yeg	-13.2318
▁mor	-13.2321
oftware	-13.2325
omfort	-13.2328
bye	-13.2334
full	-13.2354
▁combust	-13.2357
▁marke	-13.2363
▁whim	-13.2364
▁everybo	-13.2373
lif	-13.2378
avi	-13.2378
evelopment	-13.2382
▁envi	-13.2384
ndi	-13.2395
▁bil	-13.2397
dge	-13.2403
erie	-13.2405
oa	-13.2407
ares	-13.2409
hall	-13.241
shot	-13.2419
▁Hoop	-13.2433
▁creati	-13.2437
aly	-13.2439
▁loop	-13.2439
▁boxe	-13.2446
▁lif	-13.2446
nig	-13.2447
▁precede	-13.2449
▁makin	-13.2455
awns	-13.2456
▁induc	-13.2464
▁signe	-13.2466
iling	-13.2468
▁possibili	-13.2474
omething	-13.2481
▁uncontroll	-13.2489
According	-13.2491
▁switche	-13.2497
▁whip	-13.2509
▁fold	-13.2515
rtis	-13.2519
▁Ice	-13.2522
charge	-13.2522
tail	-13.2522
▁futur	-13.2525
aus	-13.2527
▁unfor	-13.2539
▁infer	-13.2547
nding	-13.2548
itiation	-13.2553
arrow	-13.2558
uge	-13.2562
▁6.	-13.2572
▁determinat	-13.2576
▁Ols	-13.2583
ku	-13.2585
crative	-13.2586
youngster	-13.2589
▁crushe	-13.2593
lete	-13.2593
mselves	-13.2601
▁lit	-13.2601
▁interse	-13.2601
Luck	-13.2602
25	-13.2604
▁comb	-13.2613
▁cli	-13.2617
▁fai	-13.2619
word	-13.2621
▁clap	-13.2626
▁Cass	-13.2632
quarter	-13.2632
FFE	-13.2634
▁por	-13.2636
aked	-13.2636
▁authorize	-13.2637
Help	-13.2638
▁univer	-13.2642
▁broker	-13.2648
ultimate	-13.2652
pregnanc	-13.2653
▁Nia	-13.2658
want	-13.2663
▁stree	-13.2664
force	-13.2665
ethical	-13.2665
bes	-13.267
coasters	-13.2671
▁Call	-13.2672
▁bustl	-13.268
▁jumpe	-13.2683
▁accessi	-13.2683
names	-13.2688
▁poss	-13.269
▁Sai	-13.2692
▁bikin	-13.2699
▁dizzi	-13.2707
esi	-13.2707
▁prima	-13.2709
Genna	-13.2709
▁que	-13.2712
▁incur	-13.2716
▁jud	-13.2722
▁pudd	-13.2723
avia	-13.2724
▁designat	-13.2726
mma	-13.2734
doctor	-13.2737
lines	-13.2738
▁positiv	-13.2739
ua	-13.2741
▁prosperi	-13.2741
▁remedi	-13.2748
▁watche	-13.2749
▁albe	-13.275
yad	-13.275
▁autob	-13.2752
▁01	-13.2753
brace	-13.2757
▁verb	-13.276
▁cele	-13.2766
liberate	-13.2766
▁circ	-13.2769
▁Postdoc	-13.2779
said	-13.278
▁incon	-13.279
▁stocks	-13.2791
▁starr	-13.2791
apoli	-13.2793
▁Word	-13.2794
DS	-13.2799
rains	-13.2809
length	-13.2814
bile	-13.2814
stop	-13.282
▁Don	-13.282
ppy	-13.2824
▁particip	-13.2825
eller	-13.2826
ilde	-13.2828
pplication	-13.2831
▁Ari	-13.2832
▁nec	-13.2834
▁displace	-13.2834
nstop	-13.2835
FL	-13.2836
▁Tree	-13.2838
reasonabl	-13.2841
cientific	-13.2842
2-	-13.2843
▁asserti	-13.2849
rds	-13.2849
▁hearts	-13.285
uni	-13.2854
egal	-13.2855
▁Trin	-13.2855
istrict	-13.2856
aud	-13.2856
▁radi	-13.2859
▁bulid	-13.286
▁Shir	-13.2871
KA	-13.2872
▁tel	-13.2875
▁tolera	-13.2879
▁researche	-13.2883
199	-13.289
▁minu	-13.2895
▁suitabl	-13.2899
▁institu	-13.2905
arm	-13.2907
▁distincti	-13.2908
state	-13.2911
▁recreat	-13.2911
▁Set	-13.2914
▁Pri	-13.292
▁Physic	-13.2922
pendent	-13.2923
▁miner	-13.2924
lus	-13.2925
▁purposeful	-13.2931
▁corp	-13.2935
olid	-13.2939
chroni	-13.294
eir	-13.294
rago	-13.2942
olutions	-13.2944
▁ES	-13.295
mpress	-13.295
▁vehic	-13.2958
▁defi	-13.2968
OT	-13.2972
▁apps	-13.2972
ultures	-13.2973
▁Attach	-13.2975
▁langu	-13.298
ntelligen	-13.2982
▁footbal	-13.2983
rchestra	-13.2985
▁2:1:	-13.2985
▁AKSARAY	-13.2989
▁BEAUTIFUL	-13.2989
▁Frankfurt	-13.2989
▁THRI	-13.2989
▁assighment	-13.2989
▁automovile	-13.2989
▁condominium	-13.2989
▁infraestructure	-13.2989
▁jajaja	-13.2989
▁pinnacle	-13.2989
▁burguer	-13.2989
▁enviornment	-13.2989
▁satanist	-13.2989
▁timeframe	-13.2989
▁Accident	-13.2989
▁concienci	-13.2989
▁Powder	-13.2989
▁angrily	-13.2989
▁trespass	-13.2989
▁Exercis	-13.2989
▁thouhg	-13.2989
▁resemble	-13.2989
▁applaud	-13.2989
▁transcribe	-13.2989
▁enchant	-13.2989
▁Rodriguez	-13.2989
▁graveyard	-13.2989
▁Convinc	-13.2989
▁Sofia	-13.2989
▁unconditional	-13.2989
▁unconfortabl	-13.2989
▁adavantage	-13.2989
▁Harrod	-13.299
▁unload	-13.299
▁supposition	-13.299
▁Sardinia	-13.299
▁comercial	-13.299
▁Mistake	-13.299
▁unexcept	-13.299
▁amendment	-13.299
▁Window	-13.299
▁1943	-13.299
▁suffocat	-13.299
▁Avoid	-13.2991
▁Opera	-13.2991
▁Celsius	-13.2991
▁undesir	-13.2991
▁marvel	-13.2991
▁impregna	-13.2991
▁garner	-13.2991
▁DRA	-13.2991
▁Bicycle	-13.2992
▁Negative	-13.2992
▁Bergam	-13.2992
▁reflex	-13.2992
▁digitalize	-13.2992
▁filmmaker	-13.2992
▁conclution	-13.2992
▁cemetery	-13.2992
▁Kennedy	-13.2993
▁modification	-13.2993
▁gracious	-13.2994
▁dubb	-13.2994
▁reconiz	-13.2994
▁Ordina	-13.2995
▁repetition	-13.2995
▁omelette	-13.2995
▁outstrip	-13.2996
▁LED	-13.2996
▁whiteboard	-13.2996
▁frosts	-13.2996
▁Piece	-13.2998
▁applause	-13.2999
▁asocation	-13.3
▁obsess	-13.3001
▁Combat	-13.3001
▁deceit	-13.3002
▁colection	-13.3002
▁slam	-13.3002
▁Disadvantages	-13.3003
▁moto	-13.3004
▁weigh	-13.3004
▁heroin	-13.3004
▁Charter	-13.3005
▁disigne	-13.3006
▁megalo	-13.3006
venirs	-13.3009
▁convinient	-13.3009
▁THEY	-13.301
!!	-13.301
▁textile	-13.301
▁powder	-13.3011
▁starlet	-13.3011
▁sorrounding	-13.3011
▁Recycl	-13.3011
uick	-13.3012
ntino	-13.3013
▁thougth	-13.3014
ligent	-13.3014
▁subsequent	-13.3015
▁citiz	-13.3016
atern	-13.3017
▁dispers	-13.3017
▁yogurt	-13.3018
sycholog	-13.3022
▁Harr	-13.3022
▁penfriend	-13.3023
▁24-	-13.3023
▁brig	-13.3024
▁Wordswo	-13.3028
▁recreate	-13.303
animous	-13.303
▁baddies	-13.303
?-	-13.303
quar	-13.303
Velo	-13.3034
scription	-13.3034
▁fetus	-13.3036
▁descend	-13.3042
▁discord	-13.3043
ELL	-13.3046
▁abou	-13.3048
▁Enter	-13.3048
▁Attachment	-13.3049
▁Taj	-13.305
▁lengthen	-13.3051
▁remem	-13.3052
▁necessitate	-13.3053
▁scholars	-13.3053
▁Row	-13.306
▁br	-13.3061
eck	-13.3062
▁underline	-13.3065
copter	-13.3075
▁flame	-13.3078
just	-13.308
▁laude	-13.3084
▁sensiti	-13.3085
▁gorvern	-13.3086
IRT	-13.3089
▁eletric	-13.3091
▁20-	-13.3091
▁Solar	-13.3093
▁liabili	-13.3094
▁Ski	-13.3095
▁popula	-13.3096
▁UA	-13.3098
▁AB	-13.3099
ecx	-13.3101
▁roma	-13.3103
fold	-13.3108
▁magnific	-13.3111
asty	-13.3113
▁witne	-13.3113
offer	-13.3115
▁Heath	-13.3116
▁restless	-13.3118
pr	-13.3119
▁tecnologi	-13.3123
▁demon	-13.3124
▁Vare	-13.3125
▁ascertain	-13.3126
▁bishop	-13.3127
▁idolis	-13.3132
▁Tig	-13.3133
▁Awa	-13.3133
exist	-13.3134
▁distroy	-13.3134
tract	-13.3136
▁pedagogic	-13.3136
▁utopia	-13.3137
▁psychic	-13.3143
hol	-13.3148
▁delete	-13.3148
▁flopp	-13.3148
tadium	-13.315
Are	-13.315
▁educa	-13.3151
tant	-13.3153
roads	-13.3154
Sudde	-13.3156
▁displac	-13.3157
▁SA	-13.316
▁wast	-13.3161
▁essen	-13.3163
▁nest	-13.3167
▁Curios	-13.3168
▁Alexandri	-13.3184
▁Carry	-13.3186
▁Bake	-13.3186
actic	-13.3195
were	-13.3196
lag	-13.3196
▁Goth	-13.3198
sense	-13.32
ani	-13.3204
ege	-13.3206
fication	-13.3206
▁Remarkabl	-13.3206
▁Strong	-13.3213
▁Columb	-13.3213
▁strick	-13.3216
▁privat	-13.3217
tism	-13.3218
sm	-13.3219
▁Yan	-13.3223
▁apolog	-13.3231
mat	-13.3232
▁definet	-13.3234
asia	-13.3237
▁Dep	-13.3243
▁hinder	-13.3243
▁Trip	-13.3244
affirm	-13.325
▁symboliz	-13.3251
eligi	-13.3255
▁fili	-13.3255
▁Chau	-13.3257
firm	-13.3258
▁kin	-13.3261
▁emphasiz	-13.3262
▁generator	-13.3263
hist	-13.3264
▁technologi	-13.3268
▁Relat	-13.327
estival	-13.3274
▁Bird	-13.3277
netic	-13.3278
AST	-13.3279
elebrit	-13.3281
orsemen	-13.3281
▁Ent	-13.3289
tury	-13.3291
urin	-13.3292
▁dre	-13.3293
▁optimize	-13.3294
dition	-13.3299
lle	-13.3299
being	-13.3299
▁leftover	-13.3303
iso	-13.3304
▁deepe	-13.3304
▁punk	-13.3305
▁weirdo	-13.3318
▁hy	-13.3323
ost	-13.3326
▁Turn	-13.3329
▁borne	-13.3332
▁inequality	-13.3346
▁tombs	-13.3347
bulbs	-13.3351
▁accent	-13.3353
▁chron	-13.3354
cedure	-13.3355
▁sove	-13.3357
rder	-13.3357
.(	-13.3358
▁elevat	-13.3359
complicate	-13.3366
sting	-13.3367
eeth	-13.3374
▁laught	-13.3374
▁Rim	-13.3376
omestic	-13.3379
monia	-13.3382
czak	-13.3388
▁authoriz	-13.3394
ury	-13.34
odging	-13.3401
▁Glob	-13.3405
▁noticeabl	-13.3407
▁alternate	-13.3412
▁colla	-13.3415
ERC	-13.3415
▁glove	-13.3417
▁Surprise	-13.3418
▁inflat	-13.342
cker	-13.342
ocrative	-13.3427
overt	-13.3428
memor	-13.3432
asci	-13.3433
ariety	-13.3438
▁gangs	-13.344
eather	-13.344
gi	-13.3443
▁reparation	-13.3444
?"	-13.3444
▁finch	-13.3444
▁aero	-13.3451
▁financ	-13.3454
▁unt	-13.3456
------	-13.3459
lasses	-13.3463
from	-13.3465
▁castel	-13.3473
deniabl	-13.3477
▁muc	-13.3481
▁moth	-13.3482
▁difer	-13.3486
imagin	-13.3489
ficial	-13.3494
▁automat	-13.35
▁convenine	-13.3502
rkell	-13.3512
banes	-13.3522
▁Nei	-13.3524
▁novice	-13.3527
▁Carl	-13.3547
environmentalist	-13.3548
nche	-13.3552
▁mount	-13.3556
ewer	-13.3557
▁ow	-13.3557
eas	-13.3561
▁Technologic	-13.3563
▁Buk	-13.3567
tro	-13.3578
▁Hot	-13.358
▁littering	-13.358
THING	-13.3581
▁impli	-13.3584
▁Sand	-13.3587
▁smug	-13.3591
▁Cour	-13.3592
riller	-13.3599
▁jok	-13.3602
▁opp	-13.3606
▁intensif	-13.3607
oes	-13.3608
▁worri	-13.3608
national	-13.361
pet	-13.3613
gical	-13.3624
tire	-13.3635
▁dine	-13.364
▁sexualis	-13.3652
▁viv	-13.3653
▁div	-13.3654
ore	-13.3657
▁SC	-13.3665
▁neur	-13.3665
ading	-13.367
ormat	-13.367
thus	-13.3672
confortabl	-13.3674
▁Close	-13.3677
▁blesse	-13.3678
▁liber	-13.3687
▁biodi	-13.3691
gno	-13.3692
loc	-13.3694
▁modernis	-13.3697
▁conju	-13.3702
gregat	-13.3705
oll	-13.3719
▁env	-13.3724
▁Atla	-13.3725
iest	-13.3728
▁assassins	-13.3731
▁fancie	-13.3735
▁bri	-13.3736
▁queu	-13.3746
▁RECOMMEND	-13.375
▁Nige	-13.3752
shing	-13.3755
alaj	-13.3755
▁expresse	-13.3756
▁revolutionise	-13.376
ising	-13.3765
▁Gia	-13.377
▁Leb	-13.3791
▁Important	-13.3792
▁ple	-13.3793
▁gaz	-13.3801
▁Dal	-13.3807
▁Syl	-13.3808
▁Carte	-13.3814
cle	-13.3818
fill	-13.382
▁hind	-13.3822
▁Tai	-13.3826
nter	-13.3831
▁Champions	-13.3832
riot	-13.3834
xico	-13.3837
DY	-13.3844
▁Alf	-13.3871
▁housew	-13.3874
▁Divi	-13.3876
▁Airway	-13.3877
▁ninet	-13.3878
▁definit	-13.3879
AK	-13.3884
▁charter	-13.3891
▁impractica	-13.3894
▁Toys	-13.3898
merg	-13.3907
▁Regre	-13.3911
▁gossipp	-13.3912
otify	-13.3928
▁signal	-13.3929
▁Batt	-13.3934
rica	-13.3938
▁outd	-13.3952
▁continual	-13.3953
▁Hamd	-13.3955
▁plat	-13.3956
nni	-13.396
gam	-13.3965
▁Continu	-13.397
This	-13.3973
each	-13.3973
cred	-13.3973
easure	-13.3974
▁Mechanic	-13.3981
sum	-13.3986
▁Ban	-13.3988
▁FC	-13.3996
erb	-13.3996
▁overhea	-13.3997
▁civili	-13.3997
deal	-13.3998
▁handba	-13.4007
aborator	-13.4018
▁coud	-13.4025
▁miser	-13.4028
bri	-13.4029
last	-13.4043
gic	-13.4072
▁wage	-13.4072
ontract	-13.4079
▁philosophi	-13.409
elle	-13.4092
alyze	-13.4092
bag	-13.4093
ption	-13.4094
gation	-13.4098
▁tripp	-13.4099
tapping	-13.4101
▁utilise	-13.4102
▁implic	-13.4102
presentation	-13.4109
▁invad	-13.4109
uhg	-13.4109
lves	-13.4118
drin	-13.4131
dina	-13.4145
▁quik	-13.4148
▁individualist	-13.4148
ently	-13.4152
▁costumer	-13.4152
ORE	-13.4153
▁puzzl	-13.4154
▁ripe	-13.4164
▁engen	-13.4165
▁Sale	-13.4168
▁Mine	-13.4168
oms	-13.417
▁dictat	-13.417
▁locate	-13.4171
▁compa	-13.4175
▁bulls	-13.4179
▁precisi	-13.4179
▁emp	-13.4187
▁endur	-13.4198
alace	-13.42
▁HO	-13.42
antic	-13.4201
▁deter	-13.4207
▁repai	-13.4207
▁som	-13.4208
top	-13.4211
nx	-13.4215
iji	-13.4215
▁periodic	-13.4223
rust	-13.4227
▁mint	-13.4228
cion	-13.4232
▁visits	-13.4232
SS	-13.4233
mpl	-13.4241
▁capa	-13.4242
▁terror	-13.4245
▁entit	-13.4252
mes	-13.4257
pani	-13.4262
▁enviromental	-13.4273
▁magni	-13.4276
▁tenderl	-13.4291
ciate	-13.4292
▁sever	-13.4296
stig	-13.4299
▁tec	-13.4299
▁ray	-13.4304
▁boa	-13.4304
▁ameliorat	-13.4305
determine	-13.431
script	-13.4313
▁foo	-13.4317
▁bush	-13.4322
▁hotte	-13.4331
implicit	-13.4334
lau	-13.4347
rivi	-13.4352
▁sala	-13.4357
▁194	-13.4364
▁opposi	-13.4366
Not	-13.4367
▁Nai	-13.4371
▁constricat	-13.4371
ompetition	-13.4384
▁tape	-13.4385
sha	-13.4387
▁hol	-13.4389
▁humi	-13.4391
▁circulat	-13.4393
▁Same	-13.4393
NTS	-13.4397
njuri	-13.4399
nderground	-13.4403
▁seperate	-13.4404
▁insur	-13.4406
▁TR	-13.4407
▁Samar	-13.4416
▁rag	-13.4417
▁accuse	-13.4419
ala	-13.4422
reas	-13.4423
▁gal	-13.4428
hole	-13.4431
gnin	-13.4435
▁expelle	-13.4435
liv	-13.4439
▁scr	-13.4441
sue	-13.4442
mmes	-13.4447
ples	-13.4459
minal	-13.4463
▁Swi	-13.4465
▁Bis	-13.4469
▁Pur	-13.447
▁dumps	-13.4477
▁hostilit	-13.4477
▁defect	-13.4492
▁Nur	-13.4496
anal	-13.4498
▁heavies	-13.4504
llite	-13.4504
ult	-13.452
▁oxid	-13.4522
On	-13.453
augh	-13.4533
hhh	-13.4536
llege	-13.4538
ums	-13.4543
zi	-13.4544
inding	-13.4549
job	-13.455
▁curl	-13.455
cing	-13.4556
rix	-13.456
bid	-13.4562
hicle	-13.4565
nine	-13.4571
public	-13.4576
production	-13.4581
▁regenerat	-13.4588
rado	-13.459
nique	-13.4591
▁basili	-13.4593
▁Palmi	-13.4615
▁tipp	-13.462
scient	-13.462
▁Lek	-13.4621
holic	-13.4622
lean	-13.4627
rrier	-13.4628
mic	-13.4636
▁embrac	-13.4661
▁2.5	-13.4662
▁Wast	-13.4662
azzl	-13.4672
▁specialis	-13.468
▁pul	-13.4686
voli	-13.4692
▁dissimilar	-13.4708
tel	-13.4725
dic	-13.4734
bil	-13.4748
▁gree	-13.4755
nden	-13.4756
iens	-13.4756
▁Abe	-13.4759
▁mamm	-13.476
▁smalle	-13.4769
▁chai	-13.4771
▁Sib	-13.4773
▁evaluat	-13.4779
lunk	-13.478
ntemporar	-13.4782
ren	-13.4785
▁hesita	-13.4785
▁Sy	-13.4786
laying	-13.4789
▁necessari	-13.4793
bor	-13.4798
gad	-13.4803
spend	-13.4804
separ	-13.4812
▁fisi	-13.4812
▁Cost	-13.4814
HE	-13.4817
▁pac	-13.4819
▁commander	-13.4822
verse	-13.4823
erful	-13.484
▁partic	-13.4842
▁CHA	-13.4846
original	-13.4852
iate	-13.4852
IV	-13.4857
▁outlin	-13.4863
gram	-13.4864
▁kenn	-13.4866
▁Tho	-13.4872
mble	-13.4879
▁Sil	-13.4886
oundation	-13.4887
▁strai	-13.49
etball	-13.4909
▁negotiat	-13.4911
No	-13.492
▁Almo	-13.4924
▁grea	-13.4927
HM	-13.496
▁Non	-13.4978
▁mister	-13.4979
▁modernise	-13.4988
▁intim	-13.4991
▁resid	-13.4994
erkel	-13.4997
ehicle	-13.4998
▁scarie	-13.4999
tivity	-13.5002
blan	-13.5009
aps	-13.5028
▁vei	-13.5034
omorrow	-13.504
amboo	-13.5041
▁multifunc	-13.5043
▁Bro	-13.5044
xious	-13.505
seba	-13.5053
▁Poli	-13.5059
▁fable	-13.5062
zz	-13.5062
ights	-13.5068
ati	-13.5074
▁strateg	-13.5075
ros	-13.5082
blem	-13.5082
iva	-13.5083
▁resolv	-13.5089
unger	-13.5091
uthorities	-13.5104
▁occupa	-13.5108
nsic	-13.5116
▁Eastmin	-13.512
scepti	-13.5125
▁imag	-13.513
▁alternat	-13.5133
.6	-13.5137
▁dissap	-13.514
▁rap	-13.5142
▁Sou	-13.5147
▁outs	-13.5147
▁reminisce	-13.5152
▁Past	-13.5153
ntag	-13.5153
▁Objecti	-13.5157
vert	-13.5159
▁kar	-13.5169
two	-13.5174
arag	-13.5177
tem	-13.5181
▁Form	-13.5183
▁tort	-13.5184
▁Sin	-13.5187
▁extrem	-13.5191
reckles	-13.5201
ental	-13.5209
vic	-13.5215
▁pat	-13.5218
▁reminiscen	-13.5218
▁Strange	-13.5219
▁Bul	-13.5222
amed	-13.5227
shell	-13.5238
ovi	-13.524
rman	-13.524
▁Hen	-13.5243
▁Thi	-13.5251
scus	-13.5255
ige	-13.5261
differentiate	-13.5261
dra	-13.5264
bur	-13.5266
lade	-13.5267
▁neuro	-13.527
▁agonis	-13.5271
▁tro	-13.5277
▁minimi	-13.5286
leep	-13.5287
▁subjective	-13.5288
nds	-13.5291
olen	-13.5293
▁discriminate	-13.5316
gua	-13.5323
fle	-13.5327
▁mort	-13.5332
▁Pear	-13.5333
▁idioma	-13.534
oment	-13.535
▁disorgani	-13.5354
▁uni	-13.536
▁accomplishe	-13.5364
lang	-13.5368
gita	-13.5369
▁thou	-13.5373
ena	-13.5376
nged	-13.5377
odu	-13.5379
cour	-13.538
▁accessor	-13.5387
▁beac	-13.5388
dominant	-13.539
▁publis	-13.5393
▁int	-13.5395
▁standardiz	-13.5395
▁competit	-13.5396
ordinator	-13.54
nbelievable	-13.5402
▁Math	-13.5411
tigi	-13.5416
▁brows	-13.5417
oluc	-13.5429
allow	-13.5437
▁obedi	-13.5438
uction	-13.5441
▁compress	-13.5442
▁Down	-13.5446
▁HR	-13.5447
▁dominan	-13.5453
ims	-13.5453
▁ramp	-13.5456
▁messie	-13.5472
▁Pas	-13.5476
▁nood	-13.5476
gna	-13.5485
▁Isa	-13.5488
▁Athlet	-13.5491
▁Garo	-13.5493
▁kilo	-13.5497
uang	-13.5504
▁align	-13.5508
erland	-13.5535
ustic	-13.5538
rees	-13.5545
ases	-13.5547
▁Bin	-13.5549
▁eliminat	-13.555
▁automa	-13.555
▁offende	-13.5563
She	-13.5574
▁unpleas	-13.5579
oreign	-13.5583
close	-13.5585
▁devo	-13.5587
▁householder	-13.5595
uj	-13.5597
IET	-13.5606
native	-13.5607
▁cyberscho	-13.5609
▁ou	-13.561
▁Comp	-13.5611
▁heater	-13.5612
reless	-13.5617
erminat	-13.562
hemical	-13.563
dro	-13.5633
nish	-13.5642
▁Ment	-13.5643
▁dir	-13.5644
▁Cann	-13.5664
also	-13.5676
▁regula	-13.5685
onfront	-13.5692
vata	-13.5704
dhur	-13.5708
finite	-13.5722
mil	-13.5726
WE	-13.573
▁costum	-13.5733
▁grat	-13.5734
▁lowers	-13.5736
apping	-13.574
▁cram	-13.574
0:00	-13.5744
rganization	-13.5747
▁Clo	-13.5755
▁foc	-13.5756
▁chan	-13.5758
bric	-13.5761
actors	-13.5765
▁jamm	-13.5766
plant	-13.5773
▁Victori	-13.5781
▁Sem	-13.5791
▁Herr	-13.5792
▁tre	-13.5794
1:00	-13.5794
▁Bene	-13.5797
▁seduc	-13.5806
▁Cac	-13.5809
vate	-13.5827
gor	-13.583
ibrar	-13.5831
through	-13.5833
▁ANA	-13.5837
▁expecta	-13.5844
ows	-13.5846
▁Care	-13.586
▁Assess	-13.5863
▁impor	-13.5865
▁Ulti	-13.5872
▁roun	-13.5888
education	-13.5904
▁4000	-13.5913
vat	-13.5913
credibl	-13.5916
dan	-13.5918
etro	-13.5922
EVER	-13.5933
▁wha	-13.594
▁distinguishe	-13.5941
RAN	-13.5945
▁Pho	-13.5947
lago	-13.5963
imply	-13.5967
001	-13.5972
▁invo	-13.5972
trust	-13.5976
nal	-13.5977
volt	-13.5978
▁nomina	-13.598
▁Marg	-13.5998
▁singin	-13.5999
pol	-13.6007
number	-13.6014
▁gues	-13.6014
emo	-13.6021
▁mut	-13.6036
good	-13.6042
▁Esti	-13.6042
fair	-13.6043
▁physiolog	-13.6047
▁Assist	-13.605
▁messi	-13.6054
After	-13.6059
varia	-13.6066
ntroduction	-13.6067
▁forth	-13.6067
▁conduc	-13.6078
ppointment	-13.6087
▁downs	-13.6098
▁tecn	-13.6099
▁Str	-13.6101
bl	-13.6109
▁Ci	-13.6112
ared	-13.6118
information	-13.612
ale	-13.6126
▁irrever	-13.6127
ense	-13.6134
▁ash	-13.6137
▁Cal	-13.6139
cot	-13.6144
thought	-13.6145
ths	-13.6145
onarch	-13.6145
tired	-13.6148
lonel	-13.6149
iszt	-13.6149
▁Bea	-13.6153
che	-13.6155
lection	-13.6178
▁Exha	-13.6178
ugg	-13.6185
lty	-13.6185
logy	-13.6188
▁cas	-13.6196
wit	-13.6209
▁cycli	-13.6212
▁bea	-13.6214
▁leve	-13.6215
hori	-13.6219
pply	-13.6219
potent	-13.6228
pect	-13.6229
▁envir	-13.6232
jo	-13.6236
▁Poll	-13.624
rtan	-13.6248
vent	-13.6255
▁spr	-13.6256
▁Rec	-13.6264
mobile	-13.6265
ooks	-13.6267
▁revis	-13.6271
▁fascinati	-13.6277
erce	-13.6286
buy	-13.6288
anga	-13.6289
▁Flo	-13.6299
llage	-13.6304
▁def	-13.6311
doors	-13.6313
▁MAK	-13.6318
004	-13.6318
cco	-13.6319
▁grandchild	-13.6321
▁fleet	-13.6324
ntage	-13.6328
▁Manag	-13.633
▁automati	-13.6337
▁sens	-13.6339
unov	-13.634
▁Universi	-13.6341
▁precis	-13.6345
NSI	-13.6349
▁Rubi	-13.6356
cken	-13.6361
eres	-13.6363
few	-13.6363
alogue	-13.6367
▁Sali	-13.6369
hina	-13.637
▁lin	-13.637
▁Pack	-13.6374
tru	-13.6378
▁prope	-13.6385
▁recyclab	-13.639
▁convi	-13.6391
ruly	-13.6399
ppe	-13.6401
horn	-13.6409
lapp	-13.641
andala	-13.6412
Second	-13.6413
might	-13.6414
becaus	-13.6415
▁adap	-13.6419
ase	-13.642
ffer	-13.6423
rant	-13.6423
motive	-13.6431
elve	-13.6435
television	-13.6436
▁moles	-13.6444
▁skillful	-13.6457
More	-13.6467
arna	-13.6468
them	-13.6473
every	-13.6478
▁Authori	-13.6479
speak	-13.648
▁performe	-13.6481
cher	-13.6486
▁liberat	-13.6491
paration	-13.6506
oic	-13.6512
▁Gema	-13.6516
riya	-13.6518
▁exe	-13.6521
iana	-13.6525
AM	-13.6529
estri	-13.6536
▁rece	-13.6547
class	-13.6547
rice	-13.6549
buck	-13.6553
▁advi	-13.6555
▁recen	-13.6557
▁tortur	-13.656
▁Kill	-13.6564
amp	-13.6564
▁laun	-13.6566
emer	-13.6568
nsus	-13.657
▁journalis	-13.6587
Some	-13.6587
ulti	-13.6588
▁Spot	-13.6589
oval	-13.6595
▁snak	-13.6597
▁surp	-13.6598
▁associa	-13.6598
rti	-13.6602
vovic	-13.6605
brother	-13.6608
▁Pant	-13.661
▁Bey	-13.6611
soon	-13.6612
interested	-13.6614
▁cataly	-13.6617
▁rev	-13.6617
lse	-13.6618
4-0	-13.6623
▁fool	-13.663
communication	-13.663
OR	-13.6632
▁Num	-13.6633
voir	-13.6633
▁sprint	-13.6636
flag	-13.6638
▁scars	-13.6639
otto	-13.664
rana	-13.6644
▁vs	-13.6649
hours	-13.6657
-1	-13.6663
▁wak	-13.6664
▁effec	-13.6664
mps	-13.6667
tamination	-13.6672
▁enviro	-13.6673
valen	-13.6676
▁Poe	-13.6684
▁illuminati	-13.6688
ashi	-13.6702
max	-13.6705
atic	-13.6705
ibi	-13.6709
▁comm	-13.6709
▁Pass	-13.671
▁phras	-13.6712
strong	-13.6712
▁conse	-13.6715
▁exhausti	-13.6716
certain	-13.6719
imal	-13.672
ville	-13.6721
reduce	-13.6728
▁Eas	-13.6728
▁painte	-13.6729
▁rehab	-13.6735
▁rebel	-13.674
▁Sen	-13.6747
bour	-13.6749
ALY	-13.6752
known	-13.6754
▁cove	-13.6757
AE	-13.6759
▁promo	-13.6763
believable	-13.6765
▁Myth	-13.678
curio	-13.679
market	-13.6791
anor	-13.6792
embe	-13.6795
troph	-13.6803
▁chocolat	-13.6805
RT	-13.6808
▁Jam	-13.6808
trip	-13.6811
Peter	-13.6816
arran	-13.6817
▁Sell	-13.682
tch	-13.6824
stablish	-13.6824
acious	-13.6825
owe	-13.6825
▁excell	-13.6828
With	-13.6828
▁Fri	-13.6831
▁pani	-13.6832
ane	-13.6833
▁Manc	-13.6834
▁smar	-13.6839
ete	-13.6864
▁courti	-13.6869
▁Bear	-13.6871
igh	-13.6886
effect	-13.6888
cally	-13.6896
level	-13.6902
mall	-13.6903
▁contro	-13.6905
▁Tam	-13.6906
stay	-13.691
▁1,5	-13.6911
akes	-13.6911
▁Reco	-13.6914
▁Bent	-13.6918
professional	-13.6932
price	-13.6934
▁eman	-13.6943
ERS	-13.6946
IC	-13.6947
▁disclos	-13.695
burger	-13.6952
derly	-13.6963
etw	-13.6965
terr	-13.6969
▁Lav	-13.6971
skar	-13.6975
▁unl	-13.6982
▁faci	-13.6988
iochemi	-13.6989
rn	-13.7001
iki	-13.7008
▁202	-13.701
Even	-13.7013
▁sportsw	-13.702
'(3:1:	-13.7021
▁Rog	-13.7026
▁ours	-13.7029
lence	-13.7031
ross	-13.7035
Thank	-13.704
▁wil	-13.704
possibilit	-13.7041
▁machiner	-13.7041
▁Experi	-13.7041
lica	-13.7044
ien	-13.7044
▁genera	-13.7049
olan	-13.7055
rap	-13.7057
▁excer	-13.7058
idle	-13.7059
ATC	-13.706
▁DH	-13.7063
reviously	-13.7065
bj	-13.7067
▁Organi	-13.7069
▁OPE	-13.7073
ision	-13.7078
▁Nico	-13.7079
utumn	-13.7082
siko	-13.7085
▁decrea	-13.7086
space	-13.7087
▁individu	-13.7087
▁Shy	-13.7089
▁slo	-13.7089
break	-13.7089
gran	-13.7091
▁garme	-13.7093
ously	-13.7104
▁thrive	-13.7104
cio	-13.7106
gasse	-13.7107
quil	-13.7108
▁acti	-13.7114
▁improvi	-13.7115
ledge	-13.7115
boo	-13.7121
▁chops	-13.7123
iall	-13.7123
▁DEL	-13.7124
ckles	-13.7127
warm	-13.7131
urger	-13.7133
▁generaliz	-13.7133
eni	-13.7145
▁oblivio	-13.7155
▁dominat	-13.7155
pad	-13.7159
▁FR	-13.7162
▁comparati	-13.7164
vourite	-13.7165
SB	-13.7169
▁dea	-13.717
afford	-13.717
▁Haw	-13.7173
ousand	-13.7174
▁regulati	-13.7176
consequence	-13.7181
opolis	-13.7182
ides	-13.7187
▁delica	-13.7188
",	-13.7192
icha	-13.7193
▁GR	-13.7196
metic	-13.7197
▁Uh	-13.7197
▁Matte	-13.7206
▁knit	-13.721
arbour	-13.721
lm	-13.7211
build	-13.7211
▁habitants	-13.7216
▁Surpris	-13.722
PT	-13.7222
still	-13.7224
lapse	-13.7226
▁demonstra	-13.7228
▁Kac	-13.7228
omical	-13.7232
sphere	-13.7238
▁inconvenien	-13.7239
eparation	-13.724
Hello	-13.7243
▁FE	-13.7249
prepare	-13.7253
parks	-13.7254
overb	-13.7255
team	-13.7258
machine	-13.7258
▁unab	-13.7259
loo	-13.7264
ived	-13.7273
anza	-13.7273
auth	-13.7274
nctua	-13.7278
Work	-13.7285
▁microscop	-13.7286
HIA	-13.7289
inted	-13.7295
rb	-13.73
▁WR	-13.7303
cumber	-13.7308
▁195	-13.7312
Final	-13.7316
olog	-13.7319
pid	-13.732
▁Marti	-13.732
▁instil	-13.7332
▁prejudic	-13.7337
▁furn	-13.7337
▁Emp	-13.7337
ocked	-13.7341
▁expo	-13.7342
▁stylis	-13.7344
Well	-13.7346
▁substitu	-13.7349
pleasure	-13.735
▁expres	-13.7352
RSE	-13.7353
▁bay	-13.7356
icle	-13.7359
carlet	-13.7361
▁Johan	-13.7361
dence	-13.7364
ppear	-13.7368
hriller	-13.7372
zation	-13.7374
chai	-13.7383
▁listing	-13.7384
invention	-13.7387
▁cycl	-13.7387
umero	-13.7388
▁MA	-13.7389
▁fami	-13.7389
bean	-13.739
Wh	-13.7391
TR	-13.7392
asting	-13.7394
ropic	-13.7395
roduction	-13.7396
heft	-13.7399
14	-13.7403
hon	-13.7409
▁FRIENDS	-13.741
▁scientis	-13.7414
▁degre	-13.7417
fee	-13.7421
boat	-13.7422
▁cuisin	-13.7423
ritz	-13.7429
THE	-13.7429
ima	-13.7431
ENT	-13.7435
priva	-13.7436
▁intri	-13.7439
onym	-13.744
vantages	-13.7443
▁Rem	-13.7445
balance	-13.7447
▁basil	-13.7454
▁desc	-13.7455
pizza	-13.7456
▁depen	-13.746
know	-13.7462
▁floa	-13.7462
▁Bat	-13.7465
invent	-13.7468
inform	-13.7468
▁replica	-13.7471
conquet	-13.7473
technical	-13.7473
belief	-13.7474
Time	-13.7475
ols	-13.7478
2012	-13.748
wealth	-13.748
cus	-13.7482
castle	-13.7483
pian	-13.7483
commercial	-13.7484
▁chu	-13.7486
ski	-13.7487
11	-13.749
▁Pot	-13.749
Where	-13.7491
ncia	-13.7492
▁Lab	-13.7493
ston	-13.7496
mbled	-13.7498
guard	-13.7504
▁rem	-13.7507
ign	-13.7508
Who	-13.7509
political	-13.7509
perate	-13.751
▁stab	-13.7511
listen	-13.7514
grateful	-13.7517
structures	-13.7517
oven	-13.7519
▁optimiz	-13.7519
hour	-13.7523
MR	-13.7524
orts	-13.7525
▁..........	-13.7526
▁Kua	-13.7535
rking	-13.7535
▁roboti	-13.7536
wheel	-13.7537
▁insi	-13.7538
crut	-13.7538
packed	-13.7542
minute	-13.7543
elled	-13.7547
critical	-13.7548
MIN	-13.7549
ubio	-13.755
oj	-13.7553
aster	-13.7554
tak	-13.7555
mical	-13.7556
▁bene	-13.7557
qualified	-13.7559
▁pobl	-13.7559
interpret	-13.756
▁compe	-13.756
▁environm	-13.7561
AV	-13.7561
▁000	-13.7561
assage	-13.7561
▁sampl	-13.7562
vive	-13.7564
fortun	-13.7565
tick	-13.7566
polluted	-13.7567
23	-13.7568
Cast	-13.7569
▁Plant	-13.7571
blow	-13.7572
existence	-13.7575
fford	-13.7575
consistent	-13.7577
tell	-13.7578
▁nowaday	-13.7579
patrioti	-13.7581
Max	-13.7581
foot	-13.7582
ppo	-13.7583
SW	-13.7583
surprising	-13.7586
brew	-13.7587
drop	-13.7589
compar	-13.7591
Give	-13.7593
▁lag	-13.7593
folk	-13.7594
▁negativ	-13.7594
stuff	-13.7596
▁HI	-13.7596
▁stric	-13.7596
▁transpo	-13.7597
repair	-13.7599
▁interac	-13.7599
peace	-13.76
basket	-13.7601
phrase	-13.7601
addict	-13.7601
daughter	-13.7602
punctual	-13.7602
▁hom	-13.7604
brush	-13.7605
uro	-13.7607
illusion	-13.7607
▁ther	-13.7607
etta	-13.761
cake	-13.761
ett	-13.7611
plex	-13.7615
Subject	-13.7615
▁upgrad	-13.7616
▁cruis	-13.7616
distinct	-13.7618
▁ref	-13.7619
occupie	-13.7622
punk	-13.7625
rrection	-13.7626
▁traveler	-13.7626
NIC	-13.7628
decoration	-13.7628
SPA	-13.7629
eath	-13.7631
Columb	-13.7634
▁Sprin	-13.7635
composition	-13.7637
advis	-13.7638
▁spher	-13.7639
drift	-13.7645
GT	-13.7647
graceful	-13.7648
domestic	-13.765
aerobic	-13.765
privilege	-13.765
▁Remark	-13.7652
▁chick	-13.7654
about	-13.7654
confiden	-13.7655
justifi	-13.7659
http	-13.7659
▁prede	-13.766
decipher	-13.7661
scientific	-13.7662
conc	-13.7666
IA	-13.7667
PR	-13.7669
▁dissol	-13.767
thinking	-13.767
fashionable	-13.767
dging	-13.7671
radi	-13.7672
camps	-13.7673
▁requi	-13.7674
Academ	-13.7674
35	-13.7676
TOP	-13.7676
knife	-13.7676
strange	-13.7678
jaz	-13.7679
3:1:15	-13.7681
weekdays	-13.7683
shift	-13.7684
ransferr	-13.7685
poetic	-13.7686
ST	-13.7688
▁revol	-13.7692
merits	-13.7694
faithful	-13.7698
MO	-13.7701
'(2:1:1	-13.7703
26	-13.7704
racial	-13.7705
achiev	-13.771
animate	-13.771
FS	-13.7711
assembl	-13.7711
comprehensi	-13.7713
▁McC	-13.7716
nterrupt	-13.7718
Ok	-13.7721
▁machinist	-13.7722
▁acco	-13.7723
Net	-13.7725
continent	-13.7729
neu	-13.7729
▁BF	-13.7729
Co	-13.7732
web	-13.7734
▁prog	-13.7741
▁BT	-13.7743
tagoni	-13.7743
▁Taxi	-13.7745
ignificant	-13.7747
▁fav	-13.7747
▁dreamer	-13.7751
▁pedagog	-13.7752
sincere	-13.7754
▁vegetable	-13.7754
sourc	-13.7756
nterpretation	-13.7758
▁Nad	-13.776
AI	-13.7761
▁Spac	-13.7761
ass	-13.7762
DI	-13.7762
▁infrastructur	-13.7763
▁ope	-13.7765
▁Georg	-13.7766
Pu	-13.7767
▁fled	-13.7771
hau	-13.7773
ali	-13.7775
acula	-13.7776
▁backward	-13.7776
▁avoi	-13.7777
Lee	-13.7778
VI	-13.7779
uci	-13.7781
▁facilitat	-13.7785
don	-13.7787
▁impatien	-13.7791
motional	-13.78
▁Refer	-13.7804
▁highlighte	-13.7806
1.9	-13.7808
▁quer	-13.7808
Sur	-13.781
▁Plu	-13.782
By	-13.7822
▁Importan	-13.7822
anger	-13.7822
▁enrol	-13.7825
▁begg	-13.7825
▁similarit	-13.7825
An	-13.7826
▁transparen	-13.7828
spoke	-13.7829
dvocate	-13.783
rida	-13.7832
tempora	-13.7832
▁ano	-13.7832
---------------	-13.7833
▁audi	-13.7835
OTH	-13.7836
▁GA	-13.7839
▁theatr	-13.7842
orn	-13.7843
dimension	-13.7844
NB	-13.7844
▁siste	-13.7846
ficienc	-13.7848
▁averag	-13.7849
napp	-13.7849
▁extravag	-13.7849
harsh	-13.7849
training	-13.7851
▁pension	-13.7852
▁syllab	-13.7853
tai	-13.7853
▁TW	-13.7854
sea	-13.7854
MERI	-13.7856
occurr	-13.7859
▁consulta	-13.786
▁hypo	-13.7861
blog	-13.7861
generation	-13.7863
specifi	-13.7865
▁fianc	-13.7867
▁Hun	-13.7867
FC	-13.7868
▁rabbi	-13.7869
▁unpop	-13.7872
liber	-13.7873
▁paparazz	-13.7875
awai	-13.7875
imber	-13.7879
layers	-13.788
ITA	-13.788
oct	-13.7884
egree	-13.7886
012345	-13.7887
ENTI	-13.7888
mily	-13.7889
▁joi	-13.7889
earth	-13.789
gered	-13.789
accurate	-13.789
▁faitfull	-13.7893
AB	-13.7895
KI	-13.7897
▁Julie	-13.7897
ior	-13.7898
rgenc	-13.7899
RENT	-13.79
WO	-13.79
▁hesitati	-13.79
▁accord	-13.79
▁absu	-13.7901
▁Build	-13.7901
pel	-13.7902
▁brillian	-13.7903
▁MEDIC	-13.7904
▁beggin	-13.7907
Fi	-13.7908
▁slip	-13.7909
▁nightmar	-13.7912
▁Program	-13.7916
mple	-13.7916
ML	-13.7921
imension	-13.7923
▁COL	-13.7928
prope	-13.7929
▁Cana	-13.793
rmous	-13.7931
pendence	-13.7933
ija	-13.7933
zuc	-13.7935
law	-13.7938
▁separa	-13.7939
coat	-13.794
bum	-13.794
App	-13.794
▁mischie	-13.7941
▁famili	-13.7942
ngjin	-13.7944
▁finisher	-13.7945
▁Southern	-13.7945
▁invol	-13.7947
▁merit	-13.7948
▁evolu	-13.7951
WAN	-13.7953
▁althou	-13.7954
Hart	-13.7954
(3:2:1	-13.7955
ska	-13.7957
▁juic	-13.7958
GH	-13.7959
▁neces	-13.796
▁12.	-13.796
derstand	-13.796
CRI	-13.7961
▁Fas	-13.7961
▁sid	-13.7961
▁illeg	-13.7962
nfrastructures	-13.7964
▁pronoun	-13.7965
harit	-13.7966
▁Italia	-13.7966
▁Geo	-13.7966
cussion	-13.7966
roportional	-13.7967
INC	-13.7968
▁turbulen	-13.7969
▁casu	-13.7969
bt	-13.797
tender	-13.7971
eighbour	-13.7971
▁protagoni	-13.7973
▁Alejandr	-13.7974
▁Claudi	-13.7974
OTE	-13.7975
▁gymnast	-13.7976
▁capita	-13.7977
novic	-13.7978
▁Term	-13.7978
pontaneous	-13.7978
interrupt	-13.7978
ntrigue	-13.7978
▁9.	-13.7978
▁omelet	-13.7979
mistak	-13.7979
▁encour	-13.7979
▁temp	-13.7979
nstructor	-13.7979
▁GET	-13.798
Gre	-13.798
▁Ens	-13.798
iria	-13.7981
▁predi	-13.7982
▁misunderst	-13.7982
▁Physi	-13.7982
▁Sebasti	-13.7982
▁backgrou	-13.7982
▁recepti	-13.7983
fic	-13.7983
▁Andrei	-13.7984
▁dioxi	-13.7984
avorite	-13.7984
xecutive	-13.7984
quipment	-13.7984
radicate	-13.7985
unicipalit	-13.7985
hilosoph	-13.7985
▁contami	-13.7985
OPE	-13.7985
anufactur	-13.7985
iploma	-13.7986
▁Introduc	-13.7986
▁Serio	-13.7986
▁volleyb	-13.7986
ainbow	-13.7986
irthday	-13.7986
▁THIN	-13.7987
▁obje	-13.7987
▁sculpt	-13.7987
elsius	-13.7987
rancisco	-13.7987
▁acquaint	-13.7987
osevelt	-13.7988
▁Lancas	-13.7988
vious	-13.7988
petitive	-13.7988
journ	-13.7988
cumulat	-13.7988
▁Rodr	-13.7988
proxim	-13.7988
▁intellect	-13.7988
5:1	-13.7989
▁unfourtun	-13.7989
10:0	-13.7989
▁STRENG	-13.7989
1:1	-13.7989
66666666	-13.7989
COMM	-13.7989
RGE	-13.7989
▁AVICII	-13.7989
▁Adolescen	-13.7989
▁Celulosa	-13.7989
▁FOOTBALL	-13.7989
▁IMPORTANT	-13.7989
▁Satanist	-13.7989
▁Vesuviu	-13.7989
▁antibiotic	-13.7989
▁christian	-13.7989
▁configuration	-13.7989
▁cyborg	-13.7989
▁disobedien	-13.7989
▁engulf	-13.7989
▁epidemic	-13.7989
▁eponymo	-13.7989
▁jargon	-13.7989
▁philosof	-13.7989
▁proffesional	-13.7989
▁reluctant	-13.7989
MMMMMMMMM	-13.7989
OOOO	-13.7989
xxxxxxx	-13.7989
▁ovbious	-13.7989
▁barbeque	-13.7989
▁profiterol	-13.7989
▁vulcan	-13.7989
▁MICHAEL	-13.7989
▁exhume	-13.7989
▁seatbelt	-13.7989
▁testimon	-13.7989
Scorpion	-13.7989
▁Tatami	-13.7989
▁disobey	-13.7989
▁incinerat	-13.7989
ICHA	-13.7989
▁terolis	-13.7989
▁Thirteen	-13.7989
▁xxx	-13.7989
▁Peolp	-13.7989
▁CHILD	-13.7989
▁irrev	-13.7989
▁conuntry	-13.7989
▁pupi	-13.7989
▁recicl	-13.7989
▁monoculture	-13.7989
ANK	-13.7989
▁sunburn	-13.7989
▁kebab	-13.7989
▁Cachar	-13.799
▁CNG	-13.799
▁seabird	-13.799
▁TRANS	-13.799
MENTS	-13.799
CLOCK	-13.799
borhood	-13.799
▁INTER	-13.799
▁TAK	-13.799
▁Doubtless	-13.799
▁perplex	-13.799
▁Teleplay	-13.799
ECOM	-13.7991
▁sombre	-13.7991
URE	-13.7991
▁Rodrig	-13.7991
▁forebear	-13.7991
quaintance	-13.7991
cupation	-13.7992
▁Asperge	-13.7992
▁gastro	-13.7992
mpione	-13.7992
piate	-13.7992
▁Djur	-13.7993
▁lenguage	-13.7993
▁umpire	-13.7993
▁apprec	-13.7993
ulgar	-13.7993
▁jack	-13.7993
ERO	-13.7993
vaca	-13.7993
siastical	-13.7993
▁administer	-13.7993
▁Deforest	-13.7993
DERS	-13.7993
▁Result	-13.7993
AKA	-13.7994
▁emmit	-13.7994
HER	-13.7994
ERG	-13.7994
▁oilfield	-13.7994
▁Villa	-13.7994
egislati	-13.7994
RU	-13.7994
guez	-13.7995
astroph	-13.7995
GES	-13.7995
PAS	-13.7995
▁starstruck	-13.7995
lorio	-13.7995
ACI	-13.7995
▁Evidence	-13.7995
ique	-13.7995
uisine	-13.7996
tamia	-13.7996
▁volcan	-13.7996
nstance	-13.7997
AP	-13.7997
ERES	-13.7997
▁Faith	-13.7997
▁videocall	-13.7997
▁Elvi	-13.7998
tificate	-13.7998
▁disadvanta	-13.7998
▁HDI	-13.7998
▁sponsorship	-13.7999
▁chris	-13.7999
▁montain	-13.7999
▁disadvan	-13.7999
▁certif	-13.8
articipa	-13.8
▁Thief	-13.8
▁WON	-13.8
▁tactically	-13.8
▁bankrupt	-13.8
▁WW	-13.8
▁unpl	-13.8001
▁4500	-13.8001
▁GU	-13.8001
▁foodstuff	-13.8001
▁Kuba	-13.8001
OPED	-13.8001
▁misgiving	-13.8002
ENA	-13.8002
-20	-13.8002
▁Shakes	-13.8003
▁minnow	-13.8005
lified	-13.8006
▁cerebrat	-13.8007
unnel	-13.8007
▁televisi	-13.8007
▁Flatter	-13.8008
cipate	-13.8008
ervous	-13.8008
pinion	-13.8008
rofessional	-13.8008
▁turbulence	-13.8009
▁Birdwat	-13.8009
errari	-13.801
▁deform	-13.8011
▁frank	-13.8011
nitiative	-13.8011
▁BEA	-13.8012
omania	-13.8012
selfish	-13.8012
pande	-13.8012
▁downturn	-13.8013
▁Munic	-13.8013
▁Carbo	-13.8013
▁Vol	-13.8014
▁preconce	-13.8014
▁pesti	-13.8014
06	-13.8015
▁Viv	-13.8016
3:	-13.8016
▁malnutri	-13.8016
▁Resu	-13.8016
SPE	-13.8017
▁daugh	-13.8017
mica	-13.8017
ronaut	-13.8017
0.2	-13.8017
cessor	-13.8018
▁coastline	-13.8019
▁Diff	-13.8019
▁piont	-13.8019
mergenc	-13.802
enuine	-13.802
▁previ	-13.8021
▁melanc	-13.8023
discriminate	-13.8023
▁perpet	-13.8024
emia	-13.8025
▁Writ	-13.8025
▁turbi	-13.8026
▁Poz	-13.8027
▁dispat	-13.8029
▁Bush	-13.8029
OLO	-13.8029
▁proble	-13.803
ANG	-13.803
hnology	-13.8031
▁billi	-13.8031
UD	-13.8034
▁easli	-13.8034
ARI	-13.8034
▁freind	-13.8035
▁atractive	-13.8035
▁condiment	-13.8035
zzo	-13.8036
▁Lands	-13.8036
mployer	-13.8038
▁Sigh	-13.8039
▁Steph	-13.8039
INCE	-13.8039
mph	-13.804
▁magi	-13.804
▁blogger	-13.804
wetlan	-13.8041
▁unsc	-13.8042
articula	-13.8042
itude	-13.8043
▁Relationship	-13.8043
tician	-13.8044
ogs	-13.8044
ACHI	-13.8048
▁Heigh	-13.8048
▁Positiv	-13.8048
▁coward	-13.8049
▁enco	-13.8049
BAL	-13.8051
ention	-13.8052
crucia	-13.8052
▁Interest	-13.8052
harmac	-13.8053
arv	-13.8054
SARA	-13.8055
cuate	-13.8057
cathed	-13.8059
ardiz	-13.806
▁empha	-13.8061
▁Comb	-13.8061
▁fea	-13.8063
ything	-13.8063
▁Berg	-13.8063
DR	-13.8064
oundtrack	-13.8064
guides	-13.8064
▁Mathi	-13.8066
correction	-13.8067
▁buddie	-13.8067
availab	-13.8067
NOTE	-13.8068
▁10:	-13.8068
IGH	-13.807
▁Doubt	-13.807
▁fowl	-13.8071
inju	-13.8073
▁grace	-13.8074
corin	-13.8074
▁Destin	-13.8075
▁sq	-13.8075
▁Rich	-13.8075
venient	-13.8076
ocki	-13.8077
▁Braz	-13.8079
ogniti	-13.8079
▁Sci	-13.8079
▁MEDICIN	-13.808
NTE	-13.8081
lamo	-13.8081
5.0	-13.8084
pilot	-13.8086
▁faitfully	-13.8086
▁philant	-13.8086
nevitabl	-13.8087
▁AF	-13.8088
gregate	-13.8088
duction	-13.8089
▁Pau	-13.8089
▁CAMP	-13.809
▁observat	-13.8091
▁compass	-13.8091
dess	-13.8093
hua	-13.8094
bub	-13.8095
▁190	-13.8096
arki	-13.8096
NVI	-13.8097
freeze	-13.8098
super	-13.8098
▁alergi	-13.8099
ouche	-13.8099
robi	-13.81
▁reservo	-13.81
▁tactic	-13.8101
andscape	-13.8102
▁Audi	-13.8102
▁firs	-13.8103
▁col	-13.8103
▁rubbis	-13.8105
liminate	-13.8105
ATM	-13.8106
▁gall	-13.8106
▁Individual	-13.8107
GO	-13.8108
LP	-13.8108
mplif	-13.8109
▁bloom	-13.8112
▁trevel	-13.8112
▁percepti	-13.8113
DREN	-13.8115
▁neig	-13.8118
▁misc	-13.8118
▁Soft	-13.812
▁tempera	-13.812
-2	-13.8121
▁Conf	-13.8122
▁DE	-13.8123
▁televion	-13.8123
▁archa	-13.8123
999999	-13.8124
▁Ferna	-13.8126
▁consecuen	-13.8127
vided	-13.8128
▁subsid	-13.8128
tribute	-13.8129
2.1	-13.813
ishab	-13.813
har	-13.813
tej	-13.8134
ios	-13.8137
▁frien	-13.8141
Bue	-13.8142
▁Cada	-13.8144
mine	-13.8145
anim	-13.8147
erroris	-13.8147
▁Decorati	-13.8147
nacks	-13.8148
tchen	-13.8151
rips	-13.8154
lumin	-13.8155
harisma	-13.8159
romise	-13.8159
▁modal	-13.8159
zam	-13.816
valo	-13.816
orci	-13.8161
▁satis	-13.8164
moon	-13.8164
grammer	-13.8164
ss	-13.8165
Fa	-13.8166
elimina	-13.8166
▁Deb	-13.8168
▁versa	-13.8169
▁Anton	-13.8171
[...]
