[PAD]	0
[UNK]	0
[BOS]	0
[EOS]	0
▁.	-3.17168
▁,	-3.30553
▁the	-3.32162
s	-3.38019
▁to	-3.70345
▁and	-3.88403
▁I	-3.95573
▁a	-3.98321
▁of	-4.11198
▁in	-4.31881
ing	-4.32417
▁is	-4.36246
ed	-4.58765
▁	-4.61272
y	-4.71058
▁that	-4.71845
▁you	-4.75558
e	-4.76541
▁it	-4.8419
▁be	-4.84467
▁for	-4.91271
ly	-4.92398
t	-5.1049
▁are	-5.14013
▁have	-5.14882
▁'	-5.1583
▁my	-5.19391
▁with	-5.20761
▁on	-5.28385
▁was	-5.31221
d	-5.4367
▁can	-5.44363
▁people	-5.48558
▁we	-5.53866
▁not	-5.55897
▁The	-5.56234
▁this	-5.62405
▁will	-5.66217
▁do	-5.7409
▁as	-5.76599
'	-5.81617
▁but	-5.83688
▁more	-5.84798
▁n	-5.86429
▁time	-5.87651
▁at	-5.89057
▁or	-5.89846
▁like	-5.90321
▁he	-5.91685
▁by	-5.96588
▁your	-5.9714
▁so	-5.98062
▁about	-5.98129
▁an	-5.98717
▁me	-5.99228
▁all	-5.99476
▁their	-6.03471
n	-6.0372
▁from	-6.04223
▁It	-6.10059
▁becaus	-6.10793
very	-6.10925
▁there	-6.11719
▁would	-6.12272
▁-	-6.12884
▁"	-6.13003
▁In	-6.13388
▁some	-6.13666
▁our	-6.1665
▁one	-6.20756
▁transport	-6.23656
▁has	-6.25187
en	-6.26054
▁had	-6.26179
▁public	-6.30016
m	-6.31846
▁which	-6.32332
▁also	-6.32967
▁am	-6.3508
▁if	-6.35693
▁us	-6.36057
▁when	-6.36938
▁good	-6.39217
▁go	-6.39509
▁think	-6.40794
▁his	-6.42247
▁other	-6.4251
▁them	-6.437
▁lot	-6.46229
▁car	-6.47726
▁want	-6.5129
▁could	-6.51944
▁work	-6.52337
▁many	-6.54717
▁who	-6.54723
▁most	-6.56662
▁every	-6.57678
▁her	-6.59142
▁life	-6.59528
▁?	-6.60011
er	-6.6006
▁A	-6.62082
▁know	-6.65887
▁!	-6.66731
▁day	-6.70045
▁should	-6.7044
▁help	-6.70767
▁what	-6.73061
▁need	-6.73496
▁way	-6.73631
▁up	-6.73739
▁were	-6.74753
▁get	-6.75386
▁use	-6.76128
▁really	-6.76722
▁al	-6.7772
▁years	-6.78588
▁she	-6.78903
▁than	-6.80295
f	-6.82474
▁new	-6.85128
▁make	-6.8557
▁how	-6.85821
▁see	-6.86641
▁We	-6.87293
▁sport	-6.874
▁important	-6.8835
able	-6.88424
▁out	-6.88484
▁He	-6.89524
▁love	-6.91439
a	-6.93112
▁take	-6.93187
▁best	-6.93313
▁:	-6.9396
▁On	-6.94132
cause	-6.94514
▁world	-6.95196
ways	-6.96318
▁just	-6.97077
▁different	-6.97846
ever	-6.99273
▁This	-6.99559
▁much	-6.99637
▁My	-7.00446
▁city	-7.01173
▁no	-7.01951
es	-7.01972
▁place	-7.04458
al	-7.06342
▁him	-7.06638
▁friends	-7.07418
▁future	-7.07721
▁play	-7.09821
▁children	-7.09858
▁find	-7.09869
▁where	-7.10187
▁There	-7.11601
▁job	-7.11864
▁school	-7.12807
ies	-7.12844
▁enjoy	-7.14338
▁How	-7.14924
▁give	-7.15087
▁old	-7.1526
▁great	-7.15276
one	-7.17507
▁But	-7.18005
▁first	-7.1816
uch	-7.18243
▁things	-7.18656
▁going	-7.19093
▁live	-7.19121
▁well	-7.19174
▁You	-7.20258
▁did	-7.2109
▁any	-7.22105
▁For	-7.22598
r	-7.22721
.	-7.22843
▁family	-7.24597
▁English	-7.2469
ce	-7.27518
▁They	-7.28223
▁own	-7.30143
▁look	-7.30653
▁s	-7.30944
▁t	-7.3196
▁better	-7.33324
▁)	-7.34122
▁experience	-7.34619
▁When	-7.36169
▁even	-7.3628
▁To	-7.36935
▁these	-7.36985
▁two	-7.3729
▁learn	-7.37882
▁person	-7.38266
▁say	-7.38593
▁As	-7.38783
▁travel	-7.38865
▁too	-7.38937
▁food	-7.39953
ve	-7.40128
▁watch	-7.41353
▁So	-7.414
▁bus	-7.41693
▁long	-7.42462
▁money	-7.42672
▁something	-7.42922
▁start	-7.44253
▁hand	-7.44536
▁same	-7.44684
▁home	-7.44722
▁example	-7.44798
▁mad	-7.44974
▁feel	-7.45175
▁country	-7.4545
w	-7.46107
▁environment	-7.46174
▁year	-7.46606
▁after	-7.46968
▁kind	-7.46978
▁First	-7.47088
other	-7.4724
▁try	-7.47348
▁cars	-7.47385
▁(	-7.48432
▁Michael	-7.48605
▁students	-7.49105
▁change	-7.49166
ion	-7.49468
out	-7.49756
▁must	-7.50023
▁part	-7.50153
▁last	-7.5038
▁into	-7.50523
▁now	-7.53906
▁big	-7.54005
▁She	-7.54101
▁call	-7.54189
▁;	-7.55167
▁visit	-7.56802
▁problem	-7.58562
went	-7.5869
▁course	-7.58737
▁town	-7.58924
▁language	-7.60165
▁thing	-7.60802
▁house	-7.61249
le	-7.61518
▁around	-7.62361
▁And	-7.62388
hose	-7.62701
▁opinion	-7.62703
▁may	-7.62966
▁show	-7.63207
▁travell	-7.63717
▁over	-7.64295
▁high	-7.64877
th	-7.65011
▁Dear	-7.65445
▁spend	-7.65675
▁believe	-7.67684
▁never	-7.67977
▁hard	-7.68693
▁young	-7.7012
▁sports	-7.70236
▁keep	-7.71038
▁summer	-7.71161
ll	-7.71162
▁still	-7.71469
▁before	-7.71999
▁care	-7.73355
▁problems	-7.73434
▁since	-7.74256
little	-7.7461
▁main	-7.75463
▁working	-7.75553
▁reason	-7.7556
▁hope	-7.75816
▁whil	-7.76052
▁interest	-7.76212
▁become	-7.76438
▁lives	-7.76627
▁order	-7.77079
▁parent	-7.77093
ten	-7.77395
c	-7.77512
re	-7.77528
▁mean	-7.78526
on	-7.79199
▁team	-7.79618
▁come	-7.79791
▁S	-7.79799
▁shopping	-7.79936
▁why	-7.80322
▁each	-7.80409
▁got	-7.80841
▁started	-7.81065
self	-7.81609
o	-7.81671
▁un	-7.81732
▁skill	-7.827
▁being	-7.82986
▁fact	-7.83627
▁buy	-7.83746
▁does	-7.83818
▁said	-7.84024
next	-7.84313
▁tell	-7.84368
▁C	-7.84635
▁ask	-7.84992
▁football	-7.85038
▁doing	-7.85141
▁improve	-7.85572
▁bad	-7.85713
▁idea	-7.86001
▁moment	-7.86227
▁information	-7.86574
▁through	-7.87776
▁favourite	-7.89
▁name	-7.89009
▁back	-7.8942
▁dur	-7.89544
▁both	-7.89565
▁movie	-7.89767
▁thought	-7.9032
▁Tha	-7.90421
▁week	-7.90546
▁writing	-7.90734
▁consider	-7.90985
▁teacher	-7.91084
▁eat	-7.91112
▁activities	-7.91495
an	-7.91564
▁read	-7.91573
▁transportation	-7.92191
▁beautiful	-7.92399
lso	-7.92817
▁everything	-7.93344
▁soon	-7.9344
ther	-7.93475
▁b	-7.93484
ful	-7.93609
▁ca	-7.93653
▁fun	-7.93878
▁number	-7.93878
▁few	-7.9406
▁kne	-7.94444
▁small	-7.94607
▁talk	-7.94779
▁education	-7.94799
▁famous	-7.95166
▁After	-7.96672
▁thre	-7.96828
▁door	-7.96924
▁point	-7.97253
▁happy	-7.97278
twe	-7.97997
▁end	-7.98211
▁film	-7.98474
▁free	-7.98665
▁i	-7.98858
▁follow	-7.9887
▁What	-7.98994
▁happen	-7.99999
▁water	-8.00779
▁looking	-8.00845
▁friend	-8.01539
▁wait	-8.02316
▁month	-8.02341
▁learning	-8.02453
▁places	-8.03374
▁right	-8.03388
▁convenient	-8.03797
▁T	-8.04469
▁speak	-8.04848
▁hear	-8.05095
▁study	-8.05542
▁human	-8.05609
ld	-8.05732
▁makes	-8.05829
▁service	-8.06033
▁hav	-8.06648
est	-8.06733
▁recommend	-8.07044
▁countries	-8.07074
▁Be	-8.07179
▁enough	-8.07285
ment	-8.07414
ity	-8.07457
▁prefer	-8.07724
▁man	-8.08528
▁open	-8.08774
▁restaurant	-8.08788
▁music	-8.08895
▁near	-8.09636
▁train	-8.09776
▁special	-8.10069
▁choose	-8.1019
▁difficult	-8.1086
ness	-8.10918
▁addition	-8.10998
body	-8.11005
▁found	-8.1113
▁saw	-8.11177
i	-8.11652
side	-8.11748
▁girl	-8.12035
▁pollution	-8.12045
▁At	-8.12709
▁playing	-8.13748
▁might	-8.14283
▁meet	-8.146
▁down	-8.14706
▁sure	-8.15413
▁usual	-8.15436
ation	-8.15559
ok	-8.15839
in	-8.15873
▁knowledge	-8.1588
▁private	-8.15881
▁cause	-8.15923
▁society	-8.15951
▁technology	-8.16588
▁mind	-8.17357
▁1	-8.18001
▁night	-8.18089
▁less	-8.18095
▁...	-8.18143
▁again	-8.18183
▁type	-8.18499
▁second	-8.18681
▁system	-8.19393
▁living	-8.19632
▁room	-8.19696
▁street	-8.20111
▁forward	-8.20178
▁health	-8.20211
▁days	-8.20538
▁tru	-8.20974
▁TV	-8.21078
▁People	-8.21082
▁offer	-8.21318
▁traffic	-8.2132
▁put	-8.21533
▁stay	-8.21572
▁easy	-8.21806
ether	-8.22014
▁here	-8.227
▁More	-8.22833
▁especial	-8.23282
▁government	-8.23285
▁face	-8.23406
▁Every	-8.23467
ays	-8.23585
over	-8.23688
▁citie	-8.23823
▁advantage	-8.24278
▁stop	-8.24458
▁save	-8.24532
▁social	-8.24559
▁reasons	-8.24567
A	-8.2487
▁strong	-8.25032
▁clean	-8.25081
▁Second	-8.25542
▁Nowad	-8.25796
▁F	-8.26022
▁ago	-8.26071
▁develop	-8.26395
l	-8.26451
▁ever	-8.26626
▁All	-8.27432
▁seem	-8.27549
▁cook	-8.27604
▁tak	-8.28372
▁body	-8.28508
▁comfortable	-8.28695
▁fast	-8.28704
▁hours	-8.28883
▁park	-8.28888
▁clothes	-8.28904
▁turn	-8.29158
▁mother	-8.29173
▁class	-8.29538
▁let	-8.30218
ous	-8.30374
▁game	-8.30824
▁others	-8.31035
g	-8.31238
▁Some	-8.31813
▁television	-8.31814
▁understand	-8.31833
▁dream	-8.32084
▁boy	-8.32087
▁book	-8.32239
▁M	-8.33488
ry	-8.33769
▁sometime	-8.34044
▁Your	-8.34316
▁far	-8.3479
▁opportunit	-8.35037
▁conclusion	-8.35947
▁B	-8.36012
▁interested	-8.36109
▁wo	-8.362
▁expensive	-8.36794
▁increase	-8.36794
▁mistake	-8.36795
▁word	-8.36824
▁walk	-8.36887
▁away	-8.37049
▁pay	-8.37495
▁popular	-8.37955
▁view	-8.37964
▁An	-8.38006
▁Final	-8.38091
▁gett	-8.38866
▁quit	-8.38874
▁case	-8.38977
▁came	-8.38993
st	-8.39063
▁E	-8.39133
▁provide	-8.39411
▁cost	-8.39415
▁P	-8.39656
▁kid	-8.39697
▁favorite	-8.39965
▁Although	-8.40349
▁tog	-8.40387
▁swimming	-8.4056
▁whole	-8.40872
▁complete	-8.41034
▁quality	-8.41737
▁personal	-8.4183
▁2	-8.42221
k	-8.42985
▁nice	-8.43003
▁full	-8.43066
▁exercise	-8.43082
▁agree	-8.43125
▁cheap	-8.43239
▁present	-8.43248
▁university	-8.43369
▁relax	-8.43388
day	-8.43451
▁mak	-8.43755
▁group	-8.43781
u	-8.43937
▁morning	-8.44151
▁age	-8.44258
▁energ	-8.44457
▁brother	-8.44765
dy	-8.4496
▁result	-8.45042
▁child	-8.45072
▁healthy	-8.45092
▁Man	-8.45325
▁chance	-8.4538
▁local	-8.4538
▁finish	-8.45689
▁situation	-8.46338
▁waste	-8.4636
or	-8.46479
▁late	-8.46585
▁large	-8.46624
▁company	-8.46937
h	-8.47306
most	-8.47424
possible	-8.47439
▁area	-8.4745
▁air	-8.47868
▁perfect	-8.48145
▁runn	-8.48145
▁off	-8.48181
▁question	-8.48201
▁letter	-8.48862
▁anything	-8.48868
▁real	-8.49313
▁fel	-8.49425
▁remember	-8.50128
▁camp	-8.50282
ic	-8.50574
▁easi	-8.50974
▁necessar	-8.51105
▁bring	-8.51126
▁move	-8.51433
coming	-8.51761
▁known	-8.51976
▁useful	-8.52635
▁past	-8.5265
▁animal	-8.53423
▁ten	-8.53423
us	-8.541
▁Hi	-8.54469
▁due	-8.54798
▁support	-8.54824
▁Do	-8.54947
▁final	-8.55113
▁several	-8.55116
▁product	-8.55156
▁story	-8.55293
▁building	-8.55436
▁wonder	-8.55462
▁reduce	-8.55636
▁trip	-8.55648
▁feeling	-8.56034
▁decide	-8.56697
▁answer	-8.57177
▁studying	-8.57314
▁shops	-8.57532
▁bank	-8.5755
▁ra	-8.57588
▁bit	-8.57812
▁drink	-8.57876
▁allow	-8.57959
▁amazing	-8.58304
▁instead	-8.58602
▁deal	-8.58647
tic	-8.58655
▁listen	-8.58667
▁choice	-8.58933
▁role	-8.59286
▁option	-8.5929
▁close	-8.5938
▁explain	-8.59642
▁today	-8.59696
▁sister	-8.59999
▁position	-8.60416
▁apply	-8.6072
▁With	-8.60721
▁leave	-8.60728
ers	-8.6077
▁until	-8.60914
▁decid	-8.61218
▁etc	-8.61804
▁Peter	-8.62169
▁reach	-8.62173
▁run	-8.62303
▁process	-8.62328
▁student	-8.62429
▁vehicle	-8.62536
ty	-8.62567
▁alrea	-8.63066
▁culture	-8.63173
▁step	-8.63534
▁leas	-8.63537
less	-8.63539
▁concern	-8.63643
▁matter	-8.64015
▁light	-8.64114
▁write	-8.64333
▁advice	-8.64388
is	-8.64423
▁drive	-8.64535
▁side	-8.64592
▁walking	-8.64639
tention	-8.6475
▁huge	-8.65267
ge	-8.65329
▁program	-8.65505
▁recent	-8.65516
▁modern	-8.65895
▁grow	-8.66031
▁event	-8.66979
▁father	-8.67816
▁closed	-8.67931
▁chang	-8.6818
▁advertisement	-8.68199
more	-8.68297
▁rubbish	-8.68587
▁concert	-8.68977
▁dai	-8.69022
▁Sir	-8.691
be	-8.69102
▁done	-8.6917
▁thinking	-8.69846
▁village	-8.70158
▁project	-8.7019
▁level	-8.70296
▁These	-8.70441
▁effect	-8.70545
▁price	-8.70719
▁ways	-8.71284
▁driv	-8.71361
▁research	-8.71569
cy	-8.71674
▁space	-8.71798
▁development	-8.71804
ble	-8.72021
▁Internet	-8.72346
▁books	-8.72836
▁nowadays	-8.7297
▁US	-8.7307
▁centre	-8.732
▁design	-8.73302
▁Further	-8.73378
refore	-8.73586
▁under	-8.736
▁games	-8.73721
▁Now	-8.73839
▁create	-8.73887
▁avoid	-8.74199
▁lead	-8.74472
▁amount	-8.74698
▁art	-8.74712
ish	-8.75095
▁5	-8.75123
▁phone	-8.75515
▁warm	-8.75528
asketball	-8.75585
▁reading	-8.75592
▁character	-8.75627
▁though	-8.75675
▁notes	-8.75836
▁talking	-8.75914
▁realize	-8.76296
▁four	-8.76708
▁suitable	-8.76752
▁maybe	-8.76758
ite	-8.77022
▁break	-8.77135
▁sea	-8.7756
▁Beside	-8.77615
ar	-8.77666
▁short	-8.77782
▁factor	-8.77908
▁power	-8.78074
▁beach	-8.78264
▁quick	-8.78271
▁hotel	-8.78418
▁manage	-8.78531
▁co	-8.78578
and	-8.78631
▁10	-8.78708
▁Publi	-8.78913
▁depend	-8.79067
lthough	-8.79141
▁activity	-8.79275
um	-8.79757
▁easier	-8.79892
▁field	-8.80215
▁share	-8.80262
▁No	-8.80448
ch	-8.80792
▁plan	-8.80811
▁plane	-8.81022
▁de	-8.81024
▁abilit	-8.81735
▁friendly	-8.81762
▁wom	-8.81787
▁aspect	-8.81912
▁subject	-8.81912
▁common	-8.81932
▁aware	-8.81955
▁suggest	-8.82303
▁relationship	-8.8236
▁sheets	-8.82493
▁Du	-8.8264
▁particular	-8.82807
▁surprise	-8.82807
▁increasing	-8.82808
▁Even	-8.82808
man	-8.8282
▁set	-8.82854
▁N	-8.83473
▁3	-8.83515
▁certain	-8.8371
▁physical	-8.83728
▁later	-8.83819
▁forget	-8.83874
▁p	-8.83986
ious	-8.84514
▁condition	-8.84621
▁global	-8.84629
▁immediatel	-8.8463
▁pass	-8.84636
▁continue	-8.8508
▁market	-8.85083
▁heard	-8.85205
▁environmental	-8.85538
▁themselves	-8.8555
▁positive	-8.85551
▁professional	-8.85562
p	-8.86014
weather	-8.8631
▁computer	-8.86312
history	-8.86366
▁contact	-8.86936
▁natural	-8.86952
▁50	-8.87015
I	-8.87342
▁teach	-8.87383
▁probabl	-8.87405
▁competition	-8.87406
▁minutes	-8.87691
▁tri	-8.87947
▁green	-8.88225
ng	-8.88496
nis	-8.88544
▁yourself	-8.88622
▁actual	-8.88787
▁general	-8.88843
▁front	-8.88878
ternet	-8.89141
▁sum	-8.8917
▁teaching	-8.8922
▁availab	-8.89313
▁mention	-8.89364
▁alone	-8.89473
▁nature	-8.89787
▁report	-8.8979
▁members	-8.89812
▁Tom	-8.89891
▁fit	-8.90078
▁task	-8.9027
▁Therefor	-8.9061
▁imagine	-8.90769
▁May	-8.90915
▁international	-8.91243
▁business	-8.91249
▁nothing	-8.91304
▁protect	-8.91677
▁excit	-8.91695
▁Thank	-8.91752
where	-8.92142
▁left	-8.92226
▁serious	-8.92226
▁focus	-8.92226
▁D	-8.92231
▁wear	-8.92465
▁relat	-8.92688
▁Spain	-8.92721
▁Last	-8.92749
▁6	-8.92793
▁club	-8.92816
▁areas	-8.9285
-	-8.92889
▁clear	-8.92906
▁evening	-8.93112
▁decision	-8.9322
▁R	-8.93414
▁per	-8.93638
▁museum	-8.93719
▁facilities	-8.93724
▁center	-8.93729
▁faster	-8.93981
▁self	-8.94257
▁station	-8.9427
▁population	-8.94729
▁includ	-8.94741
▁attend	-8.94748
▁st	-8.95044
▁definite	-8.95235
▁communication	-8.95248
▁discover	-8.95332
▁instance	-8.95744
▁W	-8.95907
as	-8.96014
▁safe	-8.96205
▁ticket	-8.96256
▁current	-8.96327
S	-8.96344
▁join	-8.9667
aught	-8.96775
▁control	-8.96836
▁lesson	-8.96865
▁bigge	-8.96918
▁foreign	-8.97313
▁sleep	-8.97418
▁store	-8.97656
▁customer	-8.97928
▁rest	-8.98369
▁studies	-8.98627
▁journey	-8.98861
▁resource	-8.98861
▁goal	-8.98954
▁heart	-8.99006
ir	-8.99202
▁ga	-8.99363
▁material	-8.9939
▁taken	-8.99445
▁classes	-8.99628
▁affect	-8.99865
▁method	-9.00231
cer	-9.00288
▁road	-9.00371
▁colour	-9.00456
▁From	-9.00457
▁solve	-9.01178
▁arrive	-9.01288
▁Europe	-9.01535
▁tree	-9.0156
0	-9.0189
age	-9.01925
el	-9.02226
▁eyes	-9.02846
line	-9.03005
▁value	-9.03537
▁notice	-9.03541
▁office	-9.03622
▁discuss	-9.03671
▁University	-9.03728
▁among	-9.04006
▁stress	-9.04255
▁normal	-9.04309
▁w	-9.04838
▁faithfully	-9.04841
▁Of	-9.04935
ate	-9.05079
▁4	-9.0511
▁Whi	-9.0515
▁communit	-9.05706
ally	-9.05941
▁period	-9.05967
▁shop	-9.05985
▁economic	-9.06001
▁mobile	-9.06058
ance	-9.06478
▁please	-9.06536
▁purpose	-9.06536
▁hour	-9.06548
▁influence	-9.06585
▁Most	-9.06802
▁cinema	-9.07107
▁sound	-9.07107
▁advertis	-9.07109
▁wide	-9.07114
▁changes	-9.07273
▁kitchen	-9.07682
▁Madam	-9.07682
▁pool	-9.07727
▁issues	-9.07967
▁player	-9.0812
▁tradition	-9.0826
▁Spanish	-9.08262
▁Russia	-9.08266
▁statement	-9.08283
ary	-9.08287
▁five	-9.08289
▁ball	-9.08377
nt	-9.08805
▁stand	-9.09232
▁By	-9.09274
▁vari	-9.09359
▁toward	-9.09387
▁afford	-9.09427
▁college	-9.09428
▁expect	-9.09511
▁possibilit	-9.09513
taly	-9.09598
▁destination	-9.10016
▁aim	-9.10034
▁Not	-9.10233
▁New	-9.10555
▁London	-9.10606
▁abroad	-9.10606
▁simple	-9.10606
▁centur	-9.10606
▁head	-9.10905
la	-9.10925
b	-9.11045
▁benefits	-9.11124
▁search	-9.11201
▁excellent	-9.11221
▁teenager	-9.11222
▁wrong	-9.118
▁importan	-9.11892
▁American	-9.11903
▁ver	-9.12178
▁effort	-9.12402
▁paper	-9.12426
▁lose	-9.12493
▁news	-9.12921
▁achieve	-9.13004
▁impact	-9.1301
▁takes	-9.13017
ring	-9.13127
gan	-9.13171
▁anyone	-9.1416
▁happi	-9.14232
▁beginning	-9.14235
▁responsibl	-9.14235
▁needed	-9.14471
▁regard	-9.14513
▁rules	-9.1506
▁issue	-9.1518
▁meeting	-9.15376
▁Chin	-9.15425
▁suffer	-9.1547
▁located	-9.1547
▁career	-9.15652
▁20	-9.157
▁practise	-9.15909
▁re	-9.16042
▁begin	-9.16091
media	-9.16383
▁Since	-9.16724
tion	-9.1685
▁comes	-9.1696
▁Sometime	-9.17369
ought	-9.17498
▁effective	-9.1801
▁gain	-9.18031
▁whe	-9.18143
it	-9.18566
▁further	-9.18635
▁met	-9.18783
▁describe	-9.1899
▁o	-9.19176
▁miss	-9.19304
gainst	-9.19349
▁training	-9.19368
▁party	-9.19652
▁Wh	-9.19926
▁essential	-9.19929
▁atmosphere	-9.19955
▁style	-9.19966
▁cold	-9.19978
▁players	-9.20051
▁practice	-9.20474
▁degree	-9.20583
▁lack	-9.20709
▁computers	-9.20804
▁build	-9.20949
▁mov	-9.21127
▁distance	-9.21252
▁newspaper	-9.21253
▁article	-9.21317
▁act	-9.21445
ive	-9.2164
▁topic	-9.21693
▁accept	-9.21798
▁interview	-9.21904
▁negative	-9.21905
▁along	-9.22023
raid	-9.22024
▁term	-9.22174
▁prepare	-9.22177
▁land	-9.2218
▁smile	-9.22238
▁spen	-9.22417
▁disadvantages	-9.2245
▁fall	-9.2247
▁lost	-9.22708
▁table	-9.22733
▁planet	-9.22839
▁kill	-9.23086
▁respect	-9.23145
▁difference	-9.23241
▁above	-9.23242
▁network	-9.23254
▁worth	-9.23307
▁damage	-9.23379
▁require	-9.23441
ra	-9.23657
▁science	-9.23917
▁Ou	-9.24086
▁meal	-9.24091
▁citizens	-9.24209
▁wish	-9.245
▁bar	-9.24633
eless	-9.2506
2	-9.25118
▁total	-9.25134
▁enter	-9.25284
▁dangerous	-9.25293
▁Hav	-9.25441
▁19	-9.25441
▁police	-9.25727
▁careful	-9.25972
▁consequence	-9.25982
▁individual	-9.25995
▁law	-9.2605
▁plann	-9.26515
▁G	-9.26606
▁habit	-9.26655
▁adult	-9.26666
▁extreme	-9.26666
▁return	-9.26666
▁six	-9.26673
▁excited	-9.2672
▁early	-9.26762
land	-9.27355
▁major	-9.27365
▁sense	-9.27366
▁source	-9.27366
ia	-9.27467
▁recycl	-9.27502
▁organization	-9.27514
▁His	-9.27789
▁plant	-9.27802
▁fresh	-9.28069
▁low	-9.28392
▁prepar	-9.28475
▁bas	-9.28564
▁website	-9.28779
▁robot	-9.28793
▁limit	-9.28803
▁sad	-9.28863
▁Jo	-9.29251
▁worker	-9.2946
▁fantas	-9.29493
v	-9.295
▁send	-9.29503
▁form	-9.2955
▁arriv	-9.29744
x	-9.29842
▁song	-9.29892
▁tired	-9.29978
▁Hello	-9.30212
▁specific	-9.30216
▁else	-9.30284
▁efficient	-9.30323
▁Y	-9.3079
▁mountain	-9.30937
▁cultural	-9.31044
▁maintain	-9.31667
▁fight	-9.31669
▁Best	-9.31907
▁holiday	-9.31922
▁plastic	-9.32402
giving	-9.32405
▁season	-9.32414
▁similar	-9.32417
▁variety	-9.32475
▁exam	-9.32665
▁hot	-9.32669
▁possibl	-9.32734
z	-9.32769
▁soc	-9.32862
▁companies	-9.33143
▁couple	-9.33148
▁key	-9.33149
▁glad	-9.33162
▁writ	-9.33706
▁ones	-9.33827
▁Italian	-9.33889
▁funny	-9.33901
▁c	-9.33939
▁account	-9.34054
ter	-9.34135
▁test	-9.34156
▁Japan	-9.34641
▁entertainment	-9.34669
▁communicate	-9.34737
ese	-9.34754
▁challenge	-9.34811
il	-9.34861
at	-9.35229
▁direct	-9.35302
▁action	-9.35336
▁restaurants	-9.35349
▁swim	-9.35396
▁argument	-9.35403
▁memor	-9.35429
▁application	-9.3545
▁successful	-9.35482
▁engineer	-9.35493
▁K	-9.35614
▁produce	-9.35769
▁scar	-9.35888
▁Co	-9.36049
▁appreciate	-9.36306
▁chose	-9.36392
▁programme	-9.36508
▁schools	-9.36612
▁detail	-9.36931
▁appear	-9.36957
▁Un	-9.37214
▁men	-9.37316
▁films	-9.37422
▁trains	-9.37541
▁fashion	-9.37602
▁floor	-9.37706
▁wif	-9.37742
▁younger	-9.38444
▁sudden	-9.38488
▁prevent	-9.38502
▁win	-9.3852
▁historical	-9.38525
▁born	-9.38532
▁top	-9.38541
rench	-9.38548
▁basic	-9.38565
▁line	-9.38796
▁post	-9.38851
▁state	-9.39154
▁responsibilit	-9.39275
▁militar	-9.39276
▁becam	-9.39286
D	-9.39336
hind	-9.39713
▁cut	-9.39816
▁receive	-9.39846
▁encourage	-9.39971
▁include	-9.40044
▁John	-9.40069
▁dark	-9.40073
▁cover	-9.40166
▁improvement	-9.40217
▁La	-9.40331
▁buil	-9.40428
▁Well	-9.40641
▁solution	-9.4077
▁poor	-9.40876
▁glass	-9.40919
ago	-9.40944
▁tourists	-9.41151
▁holidays	-9.41394
▁color	-9.41678
▁attitude	-9.41749
▁dog	-9.41822
▁cafe	-9.41847
na	-9.4202
▁carry	-9.42155
▁separate	-9.42347
T	-9.42484
▁fish	-9.42587
▁Let	-9.4277
▁improved	-9.42987
ship	-9.43067
ext	-9.43154
▁dinner	-9.43308
▁Neverth	-9.43316
▁rich	-9.43397
▁creat	-9.43463
▁band	-9.43639
▁pet	-9.43718
▁camps	-9.43742
ur	-9.43883
▁background	-9.44134
▁exist	-9.44136
▁mom	-9.44203
▁results	-9.44211
▁Mr	-9.44268
▁painting	-9.44648
ro	-9.44649
▁200	-9.44665
▁involve	-9.44758
▁sun	-9.44885
▁nervous	-9.44968
▁gym	-9.44969
▁Travell	-9.44991
▁stage	-9.45121
ffe	-9.45198
▁stopp	-9.45269
▁machine	-9.45808
▁demand	-9.45808
▁impossible	-9.45814
▁laugh	-9.45834
3	-9.4585
▁half	-9.45864
▁fan	-9.46463
▁range	-9.46645
▁disease	-9.46655
▁winter	-9.46667
▁mall	-9.46673
▁single	-9.46707
▁pleasure	-9.4672
▁star	-9.46754
▁rid	-9.46785
▁match	-9.46843
▁H	-9.46965
▁12	-9.47351
Y	-9.4741
▁entertain	-9.47479
▁third	-9.4751
▁throw	-9.47515
▁pick	-9.47519
▁calm	-9.47534
▁wind	-9.47539
▁rain	-9.47583
▁roads	-9.47806
▁earn	-9.47924
▁force	-9.47947
▁doubt	-9.48141
▁vacation	-9.48372
▁series	-9.48374
▁journalist	-9.48392
▁friendship	-9.48407
▁express	-9.49186
▁German	-9.49242
▁worry	-9.49254
▁buildings	-9.49305
▁mental	-9.49548
▁ye	-9.49625
▁inform	-9.50105
▁magazine	-9.50119
▁volunteer	-9.50119
▁deep	-9.50133
▁catch	-9.50138
▁weekend	-9.50228
▁taste	-9.50262
▁L	-9.5046
▁benefit	-9.50512
▁wants	-9.50727
▁dishe	-9.50756
ork	-9.50793
▁Pleas	-9.51004
▁voice	-9.51005
▁significant	-9.51044
▁fair	-9.51051
▁active	-9.51085
▁advance	-9.51092
▁bike	-9.51178
▁pret	-9.51413
▁red	-9.51605
▁forest	-9.51656
▁sales	-9.51665
▁compar	-9.51702
nce	-9.51725
▁dress	-9.51777
▁boat	-9.51897
▁sign	-9.51897
▁Anna	-9.51924
▁doctor	-9.51929
▁educate	-9.5194
▁attractive	-9.51955
▁hold	-9.51962
▁scene	-9.52193
▁af	-9.52309
▁shar	-9.52554
▁strange	-9.52637
▁prove	-9.52675
▁success	-9.52699
▁luck	-9.52771
▁families	-9.52798
▁simply	-9.52798
▁lifestyle	-9.52805
▁war	-9.5283
▁Ba	-9.52846
thing	-9.52929
▁dis	-9.53353
▁magic	-9.53419
ta	-9.53471
▁photo	-9.53707
▁conclude	-9.53713
▁piece	-9.53713
▁earth	-9.53715
▁security	-9.53716
▁jump	-9.53846
▁programmes	-9.54116
▁experiences	-9.54139
▁O	-9.5442
▁industr	-9.5462
▁regular	-9.54624
▁boring	-9.54626
▁image	-9.54626
▁performance	-9.54632
▁contrast	-9.54639
▁garba	-9.54641
▁connect	-9.54657
▁delic	-9.54724
ne	-9.55003
▁speed	-9.55555
▁serve	-9.55557
▁fuel	-9.55563
▁claim	-9.55611
▁check	-9.56073
▁Unfortunatel	-9.56485
▁Thus	-9.56498
▁obvious	-9.56503
▁30	-9.56642
▁bag	-9.56668
▁developing	-9.56678
▁opportunities	-9.56757
▁jobs	-9.5742
▁afternoon	-9.57428
▁typical	-9.57429
▁Hong	-9.57432
▁discussion	-9.57523
to	-9.57543
▁Bo	-9.58236
friend	-9.58311
▁situations	-9.58341
lison	-9.58345
▁proud	-9.58381
▁U	-9.58395
ture	-9.58399
▁video	-9.58414
ri	-9.58459
ol	-9.58786
▁studie	-9.58817
▁Her	-9.58859
ian	-9.58868
▁collect	-9.59276
▁brain	-9.59342
▁World	-9.59342
▁disappear	-9.59342
▁busy	-9.59588
▁access	-9.59674
▁jams	-9.59754
▁guy	-9.59782
▁model	-9.60331
▁national	-9.6042
ctual	-9.60467
▁dad	-9.60515
▁ran	-9.60899
▁crowded	-9.60954
▁dance	-9.60997
▁correct	-9.61236
▁absolute	-9.61293
▁channel	-9.61293
▁convenience	-9.61294
▁hospital	-9.61294
▁black	-9.613
rote	-9.61366
▁organis	-9.61388
▁wall	-9.61397
▁receiv	-9.6157
▁sitt	-9.62124
▁sing	-9.62131
▁audience	-9.62283
▁hurt	-9.62284
▁State	-9.62295
kept	-9.62372
▁consideration	-9.62444
▁eye	-9.63074
▁constant	-9.63283
▁Desp	-9.63285
▁garden	-9.63286
▁birthday	-9.63289
▁thank	-9.6329
ood	-9.63306
▁Anyway	-9.6333
▁sincerely	-9.6339
▁patient	-9.63446
▁sit	-9.63653
go	-9.63713
▁regards	-9.63831
que	-9.63844
▁improv	-9.64059
▁seven	-9.64294
▁shape	-9.64301
▁broke	-9.64318
▁fell	-9.6454
▁See	-9.64656
▁thanks	-9.64717
▁tourist	-9.64968
▁Kong	-9.65314
▁lunch	-9.65314
▁fine	-9.65342
▁th	-9.65358
▁reality	-9.65414
▁anymore	-9.65514
▁participate	-9.65519
▁worse	-9.6569
▁15	-9.66135
9	-9.66158
▁rush	-9.66345
▁scientific	-9.6635
▁passion	-9.66434
▁confident	-9.66745
▁won	-9.66855
▁heav	-9.6692
▁argue	-9.67292
▁attract	-9.67321
▁according	-9.67387
▁blood	-9.67387
▁pleasant	-9.67593
▁proper	-9.67674
▁add	-9.67964
▁prices	-9.68007
▁St	-9.68145
▁destroyed	-9.68206
▁raise	-9.6825
▁decrease	-9.68328
ise	-9.68369
uck	-9.68415
▁staff	-9.68439
▁risk	-9.6844
▁ground	-9.6844
▁freedom	-9.68451
▁Unit	-9.68461
▁print	-9.68482
all	-9.68543
▁Sudde	-9.68551
▁wishes	-9.68624
▁tend	-9.68672
▁groups	-9.68701
▁bin	-9.69205
▁incredibl	-9.69503
▁plent	-9.69503
▁arm	-9.69548
▁box	-9.69569
▁invention	-9.69728
▁academic	-9.69756
▁schedule	-9.69855
▁ages	-9.69864
▁fee	-9.70117
1	-9.70158
▁actors	-9.70472
▁response	-9.70578
▁bird	-9.70579
▁exact	-9.7058
▁wedding	-9.7058
▁talent	-9.70584
▁According	-9.70606
▁touch	-9.70671
j	-9.70976
▁m	-9.71042
ant	-9.71319
▁creativ	-9.71604
▁remain	-9.71665
▁majorit	-9.71665
▁essay	-9.71666
▁fear	-9.7167
▁native	-9.71784
▁ride	-9.72154
lo	-9.7228
▁speaker	-9.72412
ical	-9.72505
▁guide	-9.72595
▁secret	-9.72683
▁author	-9.72734
▁Brazil	-9.72757
▁School	-9.72764
▁routine	-9.72764
▁Madrid	-9.72764
▁adapt	-9.72764
▁cousin	-9.72764
▁entire	-9.72764
▁climb	-9.72765
▁forgot	-9.72769
▁woke	-9.7279
▁charge	-9.72795
▁appropriate	-9.72803
▁breath	-9.72872
▁movement	-9.72873
▁reply	-9.72882
▁valu	-9.73144
▁beside	-9.73389
ver	-9.7341
▁Pol	-9.73497
▁cr	-9.7372
▁Thanks	-9.73834
▁member	-9.73861
▁progress	-9.73865
▁extra	-9.73874
▁saving	-9.73875
▁middle	-9.73877
▁Sunday	-9.73878
▁concept	-9.73882
▁Other	-9.73919
▁lower	-9.74135
by	-9.74216
▁caus	-9.74384
▁independent	-9.74521
▁required	-9.74611
ould	-9.7465
P	-9.74742
▁Paul	-9.74894
▁9	-9.7494
ti	-9.7498
▁feature	-9.74999
▁thousand	-9.75003
▁castle	-9.75011
▁river	-9.75099
▁provided	-9.75276
▁cat	-9.75356
▁Faceboo	-9.75426
▁feed	-9.75474
▁sell	-9.75741
R	-9.75744
▁emotion	-9.75961
▁dead	-9.76124
▁Taiwan	-9.76135
▁brand	-9.76135
▁underground	-9.76135
▁court	-9.76135
▁wake	-9.76137
▁cool	-9.76153
▁stars	-9.76161
▁recycle	-9.76308
ig	-9.7636
▁leader	-9.76494
sure	-9.7655
▁accidents	-9.76733
ga	-9.7677
▁count	-9.76887
ember	-9.77153
▁Just	-9.77173
▁Saturday	-9.77285
▁million	-9.77285
▁quiet	-9.77286
▁message	-9.77289
▁airport	-9.77292
▁organise	-9.77443
▁haven	-9.77531
▁cultures	-9.77596
▁inter	-9.77616
▁previous	-9.77701
▁contain	-9.78013
▁Par	-9.78097
ie	-9.78108
▁happening	-9.78195
▁date	-9.78214
▁horse	-9.78447
▁reference	-9.78448
▁angry	-9.78449
▁Good	-9.78458
▁subway	-9.78545
▁introduce	-9.78631
ow	-9.78667
5	-9.79001
▁island	-9.79401
▁weekends	-9.79484
▁capital	-9.79581
▁user	-9.7959
▁region	-9.79624
▁Monday	-9.79627
▁plot	-9.79628
▁2014	-9.79638
▁visitor	-9.79685
▁sorry	-9.79734
▁trust	-9.79841
▁gas	-9.79921
E	-9.80103
▁organiz	-9.80136
ach	-9.80383
▁fly	-9.8041
ped	-9.80477
inton	-9.80637
▁regret	-9.80814
▁injur	-9.80815
▁ice	-9.80836
▁master	-9.8087
▁die	-9.80899
▁thriller	-9.80908
▁worried	-9.80967
▁generation	-9.80997
fore	-9.8179
▁Franc	-9.81946
▁leav	-9.81989
▁bicycle	-9.82019
▁decade	-9.82019
▁church	-9.82021
▁white	-9.8203
▁taxi	-9.82052
▁spread	-9.82099
▁size	-9.82112
ily	-9.82311
id	-9.82771
▁fill	-9.82816
li	-9.82873
▁base	-9.82886
bul	-9.83148
ca	-9.83164
▁colleague	-9.83239
▁deserve	-9.83239
▁Summer	-9.83248
▁director	-9.83304
co	-9.83395
▁countryside	-9.83564
▁Here	-9.83923
▁skat	-9.84031
ory	-9.84131
▁adventure	-9.84214
son	-9.84239
ization	-9.84421
▁request	-9.84473
▁attack	-9.84474
▁burn	-9.84474
▁email	-9.84474
▁cup	-9.84478
▁spoke	-9.8448
▁sort	-9.84497
▁ourselves	-9.84506
▁represent	-9.84565
▁sent	-9.84575
pe	-9.84618
paid	-9.84715
fast	-9.84788
▁opera	-9.84851
▁nation	-9.84871
ma	-9.85334
▁score	-9.85438
▁plays	-9.85644
▁understanding	-9.85653
▁Club	-9.85723
▁unique	-9.85723
▁trend	-9.85723
▁financial	-9.85724
▁celebrit	-9.85724
▁replace	-9.85724
▁novel	-9.85726
▁pressure	-9.85727
▁twenty	-9.8573
▁standard	-9.8573
▁Park	-9.85748
▁Hope	-9.85785
▁ancient	-9.86097
▁Re	-9.86424
om	-9.86435
▁com	-9.86649
ure	-9.86683
▁organize	-9.86976
▁Friday	-9.86989
▁behaviour	-9.86989
▁alternative	-9.8699
▁pizza	-9.86997
▁pair	-9.86999
▁rock	-9.87013
▁homework	-9.87032
▁blue	-9.87054
▁suit	-9.87082
▁original	-9.87091
▁Barc	-9.87198
▁item	-9.87232
▁practical	-9.87254
time	-9.87426
rs	-9.87475
▁pm	-9.87642
▁weight	-9.87657
▁hobby	-9.87742
▁invite	-9.87801
▁strength	-9.88074
▁THE	-9.88271
▁technologie	-9.88271
▁terribl	-9.88271
▁bedroom	-9.88272
▁earlie	-9.88273
▁mood	-9.88284
▁di	-9.88333
ball	-9.88443
▁anywhere	-9.8847
wise	-9.88633
▁Car	-9.89039
▁ski	-9.8918
▁race	-9.8929
▁Brit	-9.89291
elon	-9.89441
▁situat	-9.89515
▁contribute	-9.89524
▁energetic	-9.89571
▁cheerful	-9.89578
▁equipment	-9.8958
▁sweet	-9.89616
▁connection	-9.89649
▁destroy	-9.89859
▁graduate	-9.89944
▁trouble	-9.90023
▁safet	-9.90118
▁survive	-9.90233
4	-9.9037
vi	-9.90552
den	-9.90789
▁driver	-9.9079
▁Third	-9.90886
▁brought	-9.90886
▁chair	-9.90886
▁death	-9.90886
ine	-9.91023
▁fire	-9.91049
▁Mos	-9.91117
▁Mar	-9.91209
00	-9.9131
▁Yes	-9.91419
▁window	-9.91442
▁pain	-9.91632
▁pre	-9.91663
ton	-9.91986
▁comfort	-9.92203
▁element	-9.92219
▁volleyball	-9.92219
▁married	-9.9222
▁menu	-9.92359
▁employees	-9.92425
▁metal	-9.92427
▁Who	-9.92467
▁mark	-9.92529
▁manager	-9.92646
▁f	-9.92724
▁g	-9.92949
C	-9.9331
▁accident	-9.93332
▁husband	-9.9357
▁UK	-9.93573
▁suppose	-9.93574
▁Triv	-9.93575
▁fix	-9.93576
▁path	-9.93671
▁loud	-9.93729
iz	-9.93867
▁ei	-9.94133
ina	-9.94324
▁perform	-9.9436
nd	-9.94621
▁Sep	-9.94834
▁Consequentl	-9.9494
▁fruit	-9.9494
▁librar	-9.9494
▁deliver	-9.94942
▁crime	-9.94944
▁desp	-9.94955
▁apartment	-9.94957
▁CV	-9.94958
▁parks	-9.95041
per	-9.95835
▁13	-9.95873
▁approach	-9.96206
▁dessert	-9.96329
▁device	-9.96329
▁measure	-9.96329
▁fail	-9.96331
▁hang	-9.96431
▁tall	-9.96448
▁shoes	-9.96603
▁hit	-9.96656
bout	-9.96663
▁passengers	-9.96852
▁polic	-9.96882
▁jam	-9.9717
▁list	-9.97213
▁provid	-9.97242
▁balance	-9.97311
▁hands	-9.97453
▁100	-9.97717
ial	-9.97729
▁priva	-9.97732
▁honest	-9.97738
▁carbon	-9.97738
▁ensure	-9.97815
ust	-9.98053
!	-9.9809
came	-9.9847
▁personalit	-9.98596
▁cry	-9.98949
▁wors	-9.9895
▁graduat	-9.9895
▁mine	-9.99111
▁disagree	-9.99134
▁fascinat	-9.99166
▁lecture	-9.99166
▁pub	-9.99168
▁emission	-9.9917
▁2012	-9.99171
▁oil	-9.99187
hood	-9.99193
bo	-9.99324
ps	-9.99367
▁danc	-9.99614
▁artist	-9.99647
▁consumpti	-9.99754
▁leg	-9.99834
ilit	-9.99918
▁actions	-9.99926
▁picture	-10.0008
▁rule	-10.0012
▁America	-10.0038
▁writer	-10.0048
▁invent	-10.0056
▁disaster	-10.0062
▁desire	-10.0062
▁Television	-10.0062
▁smart	-10.0062
▁candidate	-10.0062
▁department	-10.0063
sh	-10.0084
▁meaning	-10.0126
▁reduc	-10.0129
▁14	-10.0144
▁cricket	-10.0152
▁kee	-10.0157
▁Or	-10.016
▁trie	-10.0165
▁Al	-10.0173
▁ex	-10.0185
▁treat	-10.0206
▁danger	-10.0206
▁metro	-10.0208
▁scientist	-10.0209
he	-10.021
▁16	-10.0211
▁salar	-10.0211
▁timetable	-10.0213
▁dramatic	-10.0214
▁Introduction	-10.0214
▁text	-10.0222
▁Th	-10.0225
▁foot	-10.0225
▁Can	-10.0235
▁City	-10.0236
▁son	-10.0254
▁petrol	-10.0269
cross	-10.0275
▁Ca	-10.0303
low	-10.0305
▁gon	-10.0308
▁cross	-10.0309
▁ordina	-10.0329
▁supermarket	-10.0358
▁percent	-10.0358
▁belief	-10.0358
▁baby	-10.0358
▁boss	-10.0358
▁entr	-10.0363
▁frequent	-10.0366
▁suggestion	-10.0377
▁primar	-10.038
▁Mrs	-10.0381
▁compare	-10.0391
whil	-10.041
▁Love	-10.0412
▁considering	-10.0424
▁advise	-10.0441
▁Us	-10.0444
▁tir	-10.0449
▁sheet	-10.0486
▁econom	-10.0501
▁electric	-10.0506
▁invest	-10.0509
▁International	-10.0509
▁enormous	-10.0509
▁instrument	-10.0509
▁renew	-10.0509
▁route	-10.0509
▁bored	-10.051
▁drawback	-10.051
▁Like	-10.051
▁2010	-10.051
▁mass	-10.0515
▁soap	-10.0518
▁push	-10.0541
▁solutions	-10.0552
ER	-10.0554
▁pupils	-10.0561
▁hobb	-10.0572
ping	-10.0581
till	-10.0581
ize	-10.0598
za	-10.0599
ities	-10.0625
▁generations	-10.0641
▁whom	-10.0656
▁25	-10.0663
▁Earth	-10.0663
▁campaign	-10.0663
▁cream	-10.0663
▁potential	-10.0663
▁expert	-10.0663
▁electronic	-10.0663
▁plate	-10.0663
▁fame	-10.0664
▁fift	-10.0668
▁shout	-10.0669
▁spring	-10.0674
▁hate	-10.0695
ceres	-10.0699
▁overcom	-10.0713
▁crowd	-10.0717
ist	-10.0719
lei	-10.0726
▁choos	-10.0732
▁Vi	-10.0741
▁card	-10.075
▁rent	-10.0756
ell	-10.0762
▁finding	-10.0783
▁cris	-10.0807
part	-10.0815
▁politician	-10.082
▁classmate	-10.0821
▁chef	-10.0822
▁Sweden	-10.0822
unny	-10.0828
▁lake	-10.0835
▁promise	-10.0847
▁cur	-10.085
▁11	-10.0859
▁realis	-10.0869
cial	-10.0884
▁alive	-10.0893
wo	-10.091
ck	-10.0924
▁confiden	-10.0926
io	-10.0933
ni	-10.0951
ice	-10.0958
▁dirt	-10.0966
▁harm	-10.0969
▁except	-10.0973
▁publish	-10.0978
▁location	-10.0978
▁fluent	-10.0978
▁Jack	-10.0978
▁review	-10.0978
▁Brazilian	-10.0979
▁experiment	-10.0979
▁wild	-10.098
▁Will	-10.098
▁sky	-10.0981
▁slight	-10.0983
▁Take	-10.0986
▁becomes	-10.0993
working	-10.0996
▁familiar	-10.1005
▁involv	-10.1018
▁Camp	-10.1025
▁reli	-10.1042
cow	-10.1048
▁sat	-10.1089
▁sh	-10.1114
▁south	-10.1124
▁drama	-10.1134
▁dedicat	-10.1139
▁stuff	-10.1139
▁technological	-10.1139
▁temperature	-10.1139
▁unfortunate	-10.1139
▁convince	-10.114
▁hair	-10.114
▁beaut	-10.1141
tr	-10.1149
▁male	-10.1169
▁rais	-10.118
▁India	-10.1213
▁noise	-10.1214
▁exams	-10.1244
▁South	-10.1258
men	-10.1264
M	-10.1264
▁draw	-10.1303
▁Doctor	-10.1303
▁climate	-10.1303
▁institution	-10.1304
▁conversation	-10.1304
▁zoo	-10.1305
▁motivation	-10.1307
▁political	-10.1307
▁sight	-10.1308
▁assistant	-10.1319
azy	-10.1324
▁flower	-10.1327
▁Nation	-10.1328
▁enhance	-10.1337
way	-10.1367
▁Go	-10.1375
▁non	-10.1395
▁lie	-10.1399
▁welcome	-10.1406
▁fac	-10.141
cycling	-10.1412
▁challeng	-10.1432
▁practic	-10.1463
▁Recent	-10.147
▁grammar	-10.147
▁guess	-10.147
▁hundred	-10.147
▁implement	-10.147
▁dollar	-10.147
▁Sincerely	-10.147
▁shot	-10.147
▁sentence	-10.147
▁sexual	-10.1471
▁unknown	-10.1472
▁technical	-10.1473
▁construction	-10.1474
▁harmful	-10.1475
ru	-10.1475
▁section	-10.1476
▁pollute	-10.1489
tter	-10.1494
▁rise	-10.1494
▁youth	-10.1516
▁homes	-10.1536
hap	-10.1542
▁levels	-10.1581
▁litera	-10.1583
▁drivers	-10.1584
▁pro	-10.1608
▁Australia	-10.1615
▁Are	-10.1618
▁stori	-10.162
▁interact	-10.1633
ors	-10.1634
our	-10.1635
▁professor	-10.164
▁screen	-10.164
▁Education	-10.164
▁obtain	-10.164
▁flexib	-10.164
▁outdoor	-10.164
▁track	-10.164
▁landscape	-10.164
▁Mexico	-10.164
▁Look	-10.164
▁protection	-10.1659
:00	-10.1673
▁explore	-10.1677
▁surround	-10.1677
▁Le	-10.168
▁wood	-10.1697
▁J	-10.1698
ile	-10.1726
deed	-10.1726
▁Students	-10.1728
▁slow	-10.175
▁whose	-10.1766
▁alcohol	-10.1806
▁reflect	-10.1806
▁demonstrate	-10.1812
ger	-10.1812
▁medicine	-10.1812
▁vegetables	-10.1813
▁Engl	-10.1813
▁hall	-10.1815
▁commercial	-10.1815
▁sick	-10.1816
▁Sport	-10.1817
▁hesitate	-10.1829
▁exchange	-10.1836
▁De	-10.1837
▁homeless	-10.184
▁production	-10.1841
▁yell	-10.1842
▁meat	-10.1874
▁board	-10.1876
dical	-10.1884
(	-10.1887
house	-10.189
work	-10.1935
ism	-10.194
fer	-10.1957
ent	-10.1971
▁stor	-10.1976
▁printed	-10.1982
▁Science	-10.1987
▁budget	-10.1987
▁ocean	-10.1987
▁client	-10.1988
▁theatre	-10.1988
▁eight	-10.1988
▁opposite	-10.1988
▁consist	-10.1989
▁Lu	-10.1994
▁tip	-10.2
▁stone	-10.2019
▁V	-10.2041
▁difficulties	-10.2053
▁Per	-10.2074
▁Me	-10.2081
▁basi	-10.2104
▁surrounding	-10.2126
ci	-10.2132
▁admire	-10.2137
▁vital	-10.2141
▁educat	-10.2141
▁led	-10.2158
▁north	-10.2158
erous	-10.216
▁Footbal	-10.2166
▁female	-10.2166
▁participant	-10.2166
▁perspective	-10.2166
▁qualification	-10.2166
▁urban	-10.2166
▁furni	-10.2166
▁flight	-10.2166
▁grade	-10.2167
▁classroom	-10.2167
▁address	-10.2169
▁treatment	-10.217
▁preparation	-10.2173
▁achievement	-10.2176
hopping	-10.2182
▁con	-10.2187
▁actor	-10.2191
▁l	-10.2205
▁War	-10.221
▁Jane	-10.2216
▁recognize	-10.2226
▁exhaust	-10.2244
▁clock	-10.2244
ada	-10.2251
▁content	-10.2255
▁diet	-10.226
wice	-10.2274
ha	-10.2279
do	-10.2282
▁parties	-10.2289
▁wine	-10.23
▁learner	-10.2305
▁structure	-10.2336
▁admit	-10.2347
▁Personal	-10.2348
▁capacit	-10.2348
▁radio	-10.2348
▁ecological	-10.2348
▁pace	-10.2355
▁stressful	-10.236
▁bear	-10.2438
▁tour	-10.2453
am	-10.2483
▁mode	-10.2502
▁produc	-10.2516
▁Shakespeare	-10.2533
▁daughter	-10.2533
▁Korea	-10.2534
▁illness	-10.2534
6	-10.2536
▁jogg	-10.2537
▁soft	-10.2538
▁enable	-10.2539
▁summar	-10.255
▁surf	-10.2553
▁carrie	-10.2562
▁disadvantage	-10.2567
▁nine	-10.2577
▁consumer	-10.2578
▁199	-10.2596
ke	-10.2603
iet	-10.2606
os	-10.2607
▁revolution	-10.2619
rent	-10.2622
▁secure	-10.2624
▁promote	-10.2631
▁escape	-10.2656
▁multi	-10.27
lic	-10.2708
▁rapid	-10.2722
▁horror	-10.2722
▁artwork	-10.2723
▁electricity	-10.2726
▁expectation	-10.2731
▁Pa	-10.2731
▁collection	-10.2733
▁rang	-10.274
ov	-10.275
▁coun	-10.2757
▁Con	-10.2758
▁rely	-10.2763
▁pictures	-10.2792
▁illustrate	-10.2808
▁figure	-10.2819
▁sp	-10.2827
▁benefi	-10.2853
▁Asia	-10.2871
▁realise	-10.2905
▁spit	-10.2912
▁conflict	-10.2914
▁crucial	-10.2914
▁festival	-10.2914
▁guest	-10.2914
▁shadow	-10.2914
▁competitive	-10.2914
▁behavior	-10.2914
▁grateful	-10.2917
▁mail	-10.2935
▁presentation	-10.2936
▁disappointed	-10.2939
▁purchase	-10.2944
▁Aug	-10.2957
▁container	-10.2987
▁singer	-10.299
▁comed	-10.3005
?	-10.301
life	-10.301
▁yes	-10.3027
cil	-10.3033
▁Cars	-10.3036
▁Po	-10.3048
▁flat	-10.3078
va	-10.3108
▁Egypt	-10.3109
▁Ukrain	-10.311
▁Technolog	-10.311
▁appeal	-10.311
▁opponent	-10.311
▁satisfy	-10.311
▁debate	-10.311
▁Transport	-10.311
▁succeed	-10.311
▁uncomfortable	-10.311
▁economical	-10.3111
▁cell	-10.3112
▁camera	-10.3117
▁van	-10.3119
▁requirement	-10.3119
▁Art	-10.3121
the	-10.313
▁Green	-10.3135
ight	-10.3169
com	-10.3233
ka	-10.3261
▁drop	-10.3262
▁healthi	-10.3276
ric	-10.328
▁complex	-10.3282
▁engine	-10.3285
ul	-10.3302
▁individuals	-10.3303
▁delight	-10.3304
▁David	-10.331
▁chocolate	-10.331
▁relevan	-10.331
▁straight	-10.331
▁weapon	-10.331
▁depress	-10.331
▁awesome	-10.331
▁spot	-10.3311
▁manner	-10.3311
▁manual	-10.3312
▁girlfriend	-10.3316
▁peaceful	-10.3317
▁complicate	-10.3317
▁impress	-10.3318
▁attraction	-10.3321
achel	-10.3324
▁discipline	-10.3325
▁press	-10.3328
▁techniques	-10.3335
▁Everybody	-10.3335
▁divers	-10.3352
▁packed	-10.3359
▁God	-10.3364
▁Li	-10.3406
▁invit	-10.3408
some	-10.3428
ber	-10.3445
▁web	-10.3446
ham	-10.3447
▁seat	-10.3453
▁matche	-10.3469
au	-10.3501
▁cloth	-10.3502
▁establish	-10.3511
▁mix	-10.3514
▁expense	-10.3514
▁repeat	-10.3514
▁General	-10.3514
▁cooperat	-10.3514
▁curricul	-10.3514
▁regulation	-10.3515
▁Sara	-10.3515
▁income	-10.3516
▁wh	-10.3517
▁shoulder	-10.3519
ah	-10.3526
▁direction	-10.3529
▁encourag	-10.354
▁page	-10.3548
▁tea	-10.3549
▁muscles	-10.3555
▁Joe	-10.3558
ling	-10.3563
▁Miche	-10.357
▁heat	-10.3581
▁Time	-10.3586
▁Late	-10.3589
▁Sov	-10.3591
▁hid	-10.3598
▁site	-10.3598
ain	-10.3621
town	-10.3622
tory	-10.3628
ics	-10.3663
▁num	-10.3664
▁define	-10.3698
▁tool	-10.3707
▁circumstance	-10.3722
▁phenomen	-10.3722
▁conscious	-10.3723
▁romantic	-10.3723
▁Louis	-10.3723
hi	-10.3723
▁Over	-10.3724
▁Work	-10.3726
▁grew	-10.3726
▁authorities	-10.3726
▁cake	-10.3727
▁Mean	-10.3727
▁passage	-10.3728
▁Luck	-10.3733
▁identit	-10.3734
▁organisation	-10.3743
iv	-10.3753
▁safer	-10.3755
ast	-10.3765
ak	-10.3768
mi	-10.3768
▁via	-10.3773
▁snow	-10.3786
▁rate	-10.38
▁minute	-10.3806
▁slowly	-10.3813
▁universit	-10.3814
▁24	-10.3824
▁smil	-10.3828
▁pop	-10.3836
▁creates	-10.384
▁cap	-10.3852
istic	-10.3865
▁complain	-10.3872
▁King	-10.3889
▁ignore	-10.3889
ree	-10.3909
aking	-10.3924
surance	-10.3935
▁blog	-10.3935
▁satisfie	-10.3935
▁speech	-10.3935
▁refuse	-10.3935
▁spirit	-10.3935
▁bathroom	-10.3935
▁survey	-10.3936
▁characteristic	-10.3937
▁weird	-10.3937
▁Bi	-10.3938
▁appearance	-10.3939
▁Huan	-10.3939
▁Central	-10.3939
▁waiter	-10.3962
dditional	-10.3962
▁grant	-10.3963
▁dut	-10.3966
▁mil	-10.3973
▁lover	-10.3992
standing	-10.4012
▁meter	-10.4021
▁IN	-10.4039
tual	-10.4044
▁polluted	-10.4045
▁paint	-10.4053
▁monuments	-10.4062
▁Kate	-10.4068
▁wash	-10.4083
lar	-10.4088
▁mum	-10.4105
▁r	-10.4126
▁shirt	-10.4153
▁appli	-10.4153
▁genetic	-10.4154
▁conduct	-10.4155
▁Sarah	-10.4155
▁principle	-10.4156
▁coat	-10.4157
ulous	-10.4158
▁block	-10.4161
▁civil	-10.4163
▁Squa	-10.4165
▁mouth	-10.4165
▁Hence	-10.4179
▁arrange	-10.4211
pp	-10.4214
ard	-10.4228
▁hous	-10.4236
▁Hol	-10.4238
▁recover	-10.4258
un	-10.4269
▁guys	-10.4273
▁gar	-10.4274
▁mo	-10.4309
▁coach	-10.431
▁participat	-10.433
ier	-10.4335
▁celebrate	-10.4355
▁lad	-10.4358
▁fr	-10.4369
▁gift	-10.4375
▁hockey	-10.4375
▁smell	-10.4375
▁gradual	-10.4375
▁Oct	-10.4375
▁magnificent	-10.4375
▁kick	-10.4375
▁Where	-10.4375
▁finger	-10.4376
▁massive	-10.4376
▁bright	-10.4376
▁awful	-10.4377
▁mechanical	-10.4377
▁elder	-10.4378
▁math	-10.4378
▁satisfact	-10.4378
▁spare	-10.4379
▁setting	-10.4379
▁tram	-10.4379
▁infrastructure	-10.438
▁eco	-10.4399
▁wise	-10.4407
▁mu	-10.4424
▁putt	-10.4427
▁sold	-10.4427
▁ideal	-10.4444
▁confused	-10.4444
if	-10.4459
▁occur	-10.4468
▁ring	-10.4477
▁manag	-10.4479
ut	-10.4508
▁Mi	-10.4522
▁brea	-10.4524
▁minds	-10.454
for	-10.4542
▁soul	-10.455
▁engage	-10.4554
ba	-10.4584
▁object	-10.4595
▁bodie	-10.4602
▁remind	-10.4602
UMM	-10.4602
▁Turkey	-10.4603
▁reward	-10.4603
▁sustain	-10.4604
▁trick	-10.4604
▁North	-10.4605
▁investment	-10.4607
▁interaction	-10.461
▁la	-10.461
▁Kind	-10.4612
▁youngster	-10.4613
▁grass	-10.4613
▁su	-10.4623
▁stranger	-10.4643
▁hero	-10.4664
▁practis	-10.4671
▁Sh	-10.4678
▁TO	-10.4694
ober	-10.4694
▁lines	-10.4704
▁partner	-10.4719
dependent	-10.4721
▁Regard	-10.4723
▁scal	-10.4728
clock	-10.4735
▁grandpa	-10.4736
▁custom	-10.4782
▁sites	-10.4784
year	-10.479
▁smoke	-10.4796
▁Cam	-10.4801
▁strategi	-10.4812
▁vi	-10.4815
ho	-10.4818
▁Br	-10.4826
▁threat	-10.4826
▁statu	-10.4827
▁determin	-10.4832
▁attach	-10.4832
▁border	-10.4835
▁machinists	-10.4835
▁trash	-10.4835
▁indoor	-10.4835
▁Life	-10.4835
▁proposal	-10.4835
▁Angel	-10.4835
▁profit	-10.4835
▁neighbour	-10.4835
▁obesity	-10.4835
▁grandmother	-10.4837
▁bottle	-10.4839
▁none	-10.4841
da	-10.4842
▁truly	-10.4844
▁intend	-10.4844
▁40	-10.4845
lin	-10.4847
▁expression	-10.485
▁critical	-10.4853
▁weak	-10.4876
no	-10.489
▁Kar	-10.4891
▁skate	-10.4919
▁scream	-10.4934
▁Red	-10.4941
ated	-10.4964
▁citizen	-10.4971
▁Na	-10.4973
wide	-10.4977
▁Roman	-10.4985
▁remarkabl	-10.5024
▁achiev	-10.5065
▁Computer	-10.5073
▁Fuji	-10.5073
▁central	-10.5073
▁egg	-10.5073
▁souvenir	-10.5073
▁target	-10.5073
▁queue	-10.5073
▁ruin	-10.5073
▁intelligen	-10.5073
▁wealth	-10.5073
▁combination	-10.5074
▁square	-10.5076
▁Cup	-10.5077
▁wheel	-10.5077
▁Milan	-10.5079
▁assist	-10.508
▁era	-10.5083
iano	-10.5084
▁bully	-10.5093
▁perha	-10.5151
ot	-10.5163
▁coast	-10.5172
▁maintena	-10.5173
O	-10.5177
▁expos	-10.5181
▁belong	-10.5196
▁occasion	-10.5206
up	-10.5212
▁windows	-10.5215
po	-10.5232
nic	-10.526
▁gold	-10.5273
▁Christ	-10.5283
▁po	-10.5293
gar	-10.5306
▁CO	-10.5306
▁addict	-10.5311
▁Current	-10.5317
▁certificate	-10.5317
▁cycle	-10.5317
▁temple	-10.5317
▁Through	-10.5317
▁propose	-10.5317
▁switch	-10.5318
▁Dick	-10.5318
▁inspection	-10.532
▁surprising	-10.5321
▁recommendations	-10.5321
▁map	-10.5321
▁surger	-10.5323
▁partial	-10.5329
▁religion	-10.5331
▁Dr	-10.5333
▁Fe	-10.5335
ence	-10.5353
▁k	-10.5365
▁documentar	-10.5373
▁San	-10.5387
▁Thai	-10.54
▁charit	-10.54
▁gra	-10.5416
▁farm	-10.5429
lf	-10.543
▁release	-10.5433
▁fo	-10.5456
▁Ten	-10.5462
▁yog	-10.5465
G	-10.5474
▁hide	-10.5484
cu	-10.5527
▁fat	-10.5529
abilit	-10.5536
▁anyway	-10.5551
▁Write	-10.5556
▁construct	-10.5561
▁Max	-10.5564
▁owner	-10.5566
▁stupid	-10.5567
▁sector	-10.5567
▁session	-10.5567
▁sweat	-10.5567
▁hunt	-10.5567
▁expand	-10.5567
▁2013	-10.5567
▁objective	-10.5568
▁High	-10.5568
▁ink	-10.5569
▁eager	-10.5569
▁crash	-10.557
▁corner	-10.557
▁Metro	-10.5572
▁gap	-10.558
▁diving	-10.5581
▁Oh	-10.5587
ick	-10.559
▁Di	-10.5591
▁specie	-10.5593
▁gases	-10.5594
zerl	-10.5596
▁Gu	-10.5597
▁Ana	-10.561
L	-10.5613
▁fund	-10.5615
jean	-10.5649
▁pa	-10.5667
▁musical	-10.5669
▁centres	-10.5679
ology	-10.5679
▁Swit	-10.5681
CE	-10.5691
▁introduc	-10.5699
▁Mont	-10.5701
mate	-10.5704
ev	-10.5717
forgett	-10.5733
W	-10.5734
▁pr	-10.5736
▁Mary	-10.5752
▁chat	-10.5763
▁fi	-10.5767
▁inspir	-10.579
▁controll	-10.5791
ank	-10.5799
▁broad	-10.5804
courage	-10.5807
▁clubs	-10.5808
▁nor	-10.5815
▁Ashby	-10.5823
▁CAMPS	-10.5823
▁Google	-10.5823
▁Laura	-10.5823
▁confirm	-10.5823
▁extraordinar	-10.5823
▁luxury	-10.5823
▁yesterday	-10.5823
xtrema	-10.5823
▁YOU	-10.5823
▁strict	-10.5823
▁thirt	-10.5823
▁drug	-10.5823
▁mathematic	-10.5823
▁stadium	-10.5824
▁household	-10.5824
▁brilliant	-10.5826
▁translation	-10.5826
▁assessment	-10.5826
▁21	-10.5828
▁equal	-10.5833
▁visual	-10.5835
vision	-10.5835
▁Learning	-10.585
▁tv	-10.585
▁rare	-10.5856
▁died	-10.5868
▁apart	-10.5872
▁relations	-10.5874
doubted	-10.5893
▁annoying	-10.5903
▁reader	-10.5904
sel	-10.5908
▁twi	-10.5918
▁Ann	-10.5925
▁Maria	-10.5925
▁Ji	-10.5944
▁Regards	-10.5949
let	-10.5953
▁kiss	-10.5975
▁consum	-10.5978
▁Pat	-10.5981
back	-10.599
▁Gre	-10.5994
▁flood	-10.5998
▁sacrifice	-10.6001
▁touris	-10.6023
ward	-10.6025
▁Am	-10.6048
ade	-10.6056
ab	-10.606
ative	-10.6061
▁select	-10.6081
dura	-10.6085
▁attempt	-10.6086
▁Stephan	-10.6086
▁league	-10.6086
▁abandon	-10.6086
▁dioxide	-10.6086
▁vast	-10.6087
▁crop	-10.6087
▁pull	-10.6088
▁costume	-10.6089
▁concentrat	-10.6089
▁Canad	-10.609
▁disposal	-10.609
▁qualified	-10.609
▁Alice	-10.6091
▁fulfill	-10.6092
▁cuisine	-10.6092
▁Easter	-10.6094
▁Apr	-10.6097
magination	-10.6099
▁industrial	-10.6113
▁link	-10.6116
▁hire	-10.6117
▁loss	-10.6123
▁wi	-10.6124
clear	-10.6135
▁Mt	-10.6152
▁dish	-10.6173
ai	-10.6211
▁GM	-10.6218
▁bu	-10.6225
▁hop	-10.6226
op	-10.6228
▁hik	-10.6232
▁traveling	-10.6246
qui	-10.6251
▁hat	-10.6252
head	-10.6256
▁mature	-10.6259
▁fa	-10.6267
▁Ye	-10.6283
▁agent	-10.6283
▁residents	-10.6284
mas	-10.6305
board	-10.6339
ING	-10.6341
▁peace	-10.6348
▁contra	-10.6352
▁accomplish	-10.6353
▁empt	-10.6357
▁necessit	-10.6357
ollege	-10.6357
▁steal	-10.6357
▁championship	-10.6357
▁failure	-10.6358
▁reduction	-10.6359
▁Home	-10.6359
▁promotion	-10.636
▁clever	-10.636
▁taxes	-10.6361
▁tower	-10.637
▁trips	-10.6378
▁tast	-10.6381
artial	-10.6381
▁relatives	-10.6381
▁host	-10.6385
▁brave	-10.6389
▁legal	-10.6405
▁Ma	-10.6407
▁nu	-10.6407
H	-10.6415
rry	-10.6422
▁round	-10.643
▁shower	-10.6441
cha	-10.645
▁assure	-10.6454
▁Real	-10.6461
▁underst	-10.6462
▁Day	-10.647
▁accommodat	-10.6495
action	-10.6539
▁Se	-10.654
imate	-10.6562
▁Fam	-10.659
act	-10.6593
▁bikes	-10.6602
▁motivat	-10.6604
pi	-10.6612
▁hung	-10.6621
▁sex	-10.6625
▁architectur	-10.6626
▁Ro	-10.6628
ching	-10.6628
▁trad	-10.6634
▁Conclusion	-10.6634
▁Government	-10.6634
▁Smith	-10.6634
▁humor	-10.6634
▁incident	-10.6634
▁pattern	-10.6634
▁quarter	-10.6634
▁tournament	-10.6634
▁victim	-10.6634
▁Street	-10.6634
▁album	-10.6634
▁brown	-10.6634
▁witness	-10.6634
▁approx	-10.6634
▁Rome	-10.6634
▁emergenc	-10.6635
▁skateboard	-10.6635
▁plu	-10.6635
▁adopt	-10.6635
▁internship	-10.6635
▁June	-10.6635
▁grabb	-10.6635
▁version	-10.6635
▁lazy	-10.6635
▁software	-10.6635
▁smartphone	-10.6636
▁investigation	-10.6636
▁workplace	-10.6637
▁reaction	-10.6638
▁average	-10.6639
▁blow	-10.6641
▁stole	-10.6643
▁2015	-10.6645
▁leaders	-10.6652
tha	-10.6655
▁ban	-10.6662
▁Ver	-10.6664
▁arrival	-10.6667
▁Tak	-10.6668
▁slave	-10.6673
olic	-10.6678
▁Ki	-10.6691
▁officer	-10.6692
▁sand	-10.6703
▁sto	-10.6709
pover	-10.6709
▁Sa	-10.6713
▁stair	-10.672
▁pen	-10.6728
bell	-10.6759
night	-10.6762
▁combine	-10.6762
gh	-10.6762
▁researcher	-10.6765
▁evaluate	-10.6773
iro	-10.6773
▁cons	-10.6796
)	-10.6802
rd	-10.681
▁Ri	-10.6835
ph	-10.6835
▁En	-10.6873
ose	-10.6875
▁23	-10.6886
▁relation	-10.6895
▁Africa	-10.6895
▁historic	-10.6906
chi	-10.6907
▁Sports	-10.6916
▁favour	-10.6919
▁chemist	-10.692
▁motorbike	-10.692
▁palace	-10.692
▁continuous	-10.692
▁enrich	-10.692
▁December	-10.692
▁prize	-10.6921
▁drought	-10.6921
▁existence	-10.6921
▁deny	-10.6924
▁selection	-10.6926
▁agenc	-10.6926
▁comment	-10.6927
▁distribute	-10.6929
▁impression	-10.6931
▁oppos	-10.6932
B	-10.6933
▁delay	-10.694
▁Law	-10.6941
ster	-10.6957
▁emotional	-10.6965
▁Famil	-10.697
tri	-10.6972
▁separat	-10.6972
▁....	-10.7003
red	-10.702
▁wa	-10.7024
▁li	-10.7025
K	-10.7036
▁acquire	-10.705
ual	-10.7094
▁additional	-10.7101
▁societ	-10.7125
▁tools	-10.7142
▁consume	-10.7144
▁pe	-10.7144
▁greatly	-10.7145
▁function	-10.7153
▁employee	-10.7169
▁Play	-10.717
V	-10.7206
▁concentrate	-10.7211
▁consequent	-10.7214
▁procedure	-10.7214
▁boil	-10.7214
▁domestic	-10.7214
▁junk	-10.7214
▁record	-10.7214
▁distribution	-10.7214
▁Adam	-10.7214
▁cheese	-10.7215
▁Jason	-10.7215
▁Alex	-10.7215
▁instructor	-10.7215
▁enthusiastic	-10.7217
▁horribl	-10.7217
▁severe	-10.7218
▁associate	-10.7222
▁lonel	-10.7222
▁dear	-10.7225
▁pros	-10.7225
▁motivate	-10.7241
▁bother	-10.7246
▁seek	-10.7252
tation	-10.7255
▁Australian	-10.7257
▁priorit	-10.7258
ona	-10.726
ley	-10.7264
▁Gro	-10.7273
isation	-10.728
▁former	-10.728
mental	-10.7308
▁extensi	-10.7326
▁king	-10.7362
▁classic	-10.7386
bi	-10.7388
nstead	-10.739
▁port	-10.7397
▁Arab	-10.7439
▁cave	-10.7446
▁Jul	-10.7451
dom	-10.7461
ney	-10.7474
▁technique	-10.748
▁Gran	-10.749
▁sights	-10.7507
▁guitar	-10.7516
▁respond	-10.7517
▁obstacle	-10.7517
▁suburb	-10.7517
▁laborator	-10.7517
▁repair	-10.7517
▁Jenni	-10.7517
▁Health	-10.7517
▁fiction	-10.7518
▁River	-10.7518
▁farmland	-10.7518
▁Train	-10.7519
▁tension	-10.7519
▁creature	-10.7519
▁sofa	-10.752
▁blame	-10.7522
▁data	-10.7522
▁eventual	-10.7528
▁ha	-10.7547
▁airplane	-10.755
▁chart	-10.7552
▁zone	-10.7555
con	-10.7565
U	-10.7568
▁mis	-10.7584
berg	-10.7601
elephone	-10.7605
ler	-10.761
▁Bu	-10.762
gen	-10.763
▁pasta	-10.7631
▁los	-10.7642
▁Fin	-10.7657
▁cope	-10.7681
uar	-10.7689
eline	-10.7703
The	-10.7705
▁lov	-10.7706
EC	-10.7709
▁Ob	-10.7711
bridge	-10.7728
healthy	-10.773
wood	-10.7747
ried	-10.7748
▁Ka	-10.7748
sible	-10.7752
led	-10.776
F	-10.776
▁Jan	-10.7796
▁relative	-10.7808
▁Wat	-10.7814
▁distract	-10.7824
port	-10.7827
▁sail	-10.7827
▁assess	-10.7829
▁Fortunat	-10.783
▁agricultur	-10.783
▁ingredient	-10.783
▁spectacul	-10.783
▁strategy	-10.783
▁vacanc	-10.783
▁monster	-10.783
▁gorge	-10.783
▁Future	-10.783
▁cloud	-10.783
▁unexpected	-10.783
▁neighbourhood	-10.783
▁mysterious	-10.7831
habitants	-10.7831
▁employment	-10.7832
▁Juan	-10.7833
▁orient	-10.784
▁tight	-10.7841
ple	-10.7843
▁organic	-10.7844
ept	-10.7845
bal	-10.7863
▁employer	-10.787
▁joy	-10.787
▁automobile	-10.7873
ania	-10.7882
▁Ven	-10.7887
▁engag	-10.7896
mission	-10.79
sk	-10.7909
▁tear	-10.791
▁skin	-10.7919
ries	-10.7931
ana	-10.7949
stan	-10.798
▁Dan	-10.7987
▁ta	-10.7992
▁basket	-10.8023
▁aid	-10.8023
weight	-10.8052
ug	-10.8056
▁seats	-10.8066
▁tough	-10.8076
▁explor	-10.809
iff	-10.8095
ide	-10.8102
▁enthusias	-10.815
▁reception	-10.8152
▁boost	-10.8152
▁illegal	-10.8152
▁vocabular	-10.8152
▁identify	-10.8152
▁grandfather	-10.8152
▁district	-10.8152
▁galler	-10.8152
▁harass	-10.8152
▁title	-10.8152
▁lift	-10.8152
▁aggressive	-10.8153
▁spell	-10.8153
▁dining	-10.8153
▁supp	-10.8156
▁weakness	-10.8157
000	-10.8164
▁official	-10.8165
▁quantit	-10.8165
▁gather	-10.8175
orthern	-10.8176
▁House	-10.8176
▁broaden	-10.8177
cia	-10.8179
▁committ	-10.8184
▁sufficient	-10.8187
▁Lot	-10.8191
▁cleaner	-10.8193
▁fashionable	-10.8201
▁mayor	-10.8204
▁counter	-10.8208
▁Usuall	-10.8209
evil	-10.8213
▁east	-10.8218
OK	-10.8234
▁magical	-10.8256
▁Sp	-10.8264
.00	-10.827
▁lay	-10.8277
▁trainer	-10.8277
▁Ho	-10.8297
▁supervis	-10.83
▁nei	-10.8314
ime	-10.835
▁Sam	-10.8352
▁owners	-10.8352
▁gre	-10.8359
▁confus	-10.8382
▁Pre	-10.8385
stair	-10.8387
ace	-10.8403
ill	-10.8414
pr	-10.8435
▁photograph	-10.8437
▁Ph	-10.8455
sia	-10.8461
▁judge	-10.8484
▁chicken	-10.8486
▁disorder	-10.8486
▁luxuri	-10.8486
▁resort	-10.8486
▁Environment	-10.8486
▁congest	-10.8486
▁deforest	-10.8486
▁Scout	-10.8486
▁Monica	-10.8486
▁criminal	-10.8486
▁abort	-10.8486
▁rose	-10.8486
▁Human	-10.8487
▁dr	-10.8488
▁desk	-10.8488
▁highlight	-10.849
▁invitation	-10.849
▁contribut	-10.8492
▁charm	-10.8492
▁poet	-10.8496
▁limitation	-10.85
▁viewer	-10.8505
▁froze	-10.8507
▁Pala	-10.8514
▁mid	-10.8518
▁recommendation	-10.8527
▁sightsee	-10.853
▁fu	-10.8537
▁Mia	-10.8541
▁outline	-10.8555
▁Friends	-10.8565
▁Luc	-10.8577
▁beat	-10.8591
logical	-10.8596
▁decreas	-10.8613
▁tin	-10.8617
▁checking	-10.8636
▁behave	-10.8641
▁compet	-10.8643
▁del	-10.8647
▁preserve	-10.8648
▁useless	-10.8684
▁Bus	-10.8704
writ	-10.8712
▁accessib	-10.8712
rising	-10.8722
like	-10.8728
▁award	-10.8731
▁west	-10.8742
▁resolve	-10.8759
▁flow	-10.8782
▁AC	-10.8783
▁Los	-10.8787
ip	-10.8789
▁worrie	-10.8791
▁meant	-10.8808
hou	-10.8817
gent	-10.882
▁Twi	-10.8822
▁frustrat	-10.8824
▁Vietnam	-10.8829
▁Especial	-10.883
▁comparison	-10.883
▁episode	-10.883
▁evidence	-10.883
▁innocent	-10.883
▁principal	-10.883
▁context	-10.883
▁dispatch	-10.883
▁encounter	-10.883
▁lugg	-10.883
▁moral	-10.883
▁command	-10.883
▁fault	-10.883
▁psychological	-10.8831
▁Think	-10.8831
▁alarm	-10.8831
▁abuse	-10.8831
▁Egyptian	-10.8832
▁remote	-10.8832
▁commitment	-10.8832
▁v	-10.8835
▁innovation	-10.8835
illa	-10.8839
viously	-10.8843
pest	-10.8855
▁Pro	-10.8859
ement	-10.8863
▁tomorrow	-10.888
ink	-10.8886
▁inspected	-10.8895
▁smok	-10.89
▁divid	-10.8928
▁Almos	-10.8945
app	-10.8964
▁processe	-10.8981
▁Cent	-10.9008
▁Nor	-10.9012
▁Bye	-10.9015
▁beyo	-10.9015
▁acquir	-10.9028
▁super	-10.9033
▁fare	-10.9044
audi	-10.9048
▁trans	-10.9069
▁net	-10.9071
teen	-10.9088
▁jokes	-10.9089
▁Was	-10.9093
▁22	-10.9093
kay	-10.9098
▁analyse	-10.9106
ads	-10.9119
▁specializ	-10.9134
king	-10.9156
▁rivers	-10.916
ff	-10.9168
▁ok	-10.9173
hildren	-10.9182
▁Ta	-10.9182
▁transform	-10.9185
▁tutor	-10.9187
▁Danderyd	-10.9188
▁diagram	-10.9188
▁ecosystem	-10.9188
▁gadget	-10.9188
▁guard	-10.9188
▁pitch	-10.9188
▁senior	-10.9188
▁treasure	-10.9188
▁James	-10.9188
▁AND	-10.9188
▁contest	-10.9188
▁elev	-10.9188
▁Scot	-10.9188
▁definition	-10.9188
▁loyal	-10.9188
▁outcome	-10.9188
▁Speak	-10.9188
▁Master	-10.9188
▁therap	-10.9188
▁soldier	-10.9188
▁Turk	-10.9188
▁polite	-10.9188
▁fond	-10.9188
▁instant	-10.9189
▁wetland	-10.9189
▁automatic	-10.9189
▁thin	-10.9189
▁trait	-10.9189
▁reputa	-10.919
▁Parent	-10.919
▁Bad	-10.9191
▁Emil	-10.9192
▁celebration	-10.9193
▁Mark	-10.9193
▁forbid	-10.9199
▁stunn	-10.9204
AN	-10.9209
▁Jak	-10.9212
▁respective	-10.9214
▁Tri	-10.9226
▁soup	-10.9226
▁ship	-10.9229
▁Aga	-10.9235
ural	-10.9238
▁peer	-10.9241
▁sensitiv	-10.9253
▁falls	-10.9255
▁farmer	-10.926
tan	-10.9263
▁tap	-10.9271
▁Marian	-10.9275
▁Mala	-10.9311
cal	-10.9325
use	-10.9326
▁Dis	-10.9337
▁surviv	-10.9369
▁commut	-10.9369
room	-10.9369
▁Histor	-10.9371
▁enclose	-10.9385
mong	-10.9386
▁destructi	-10.9402
▁Ha	-10.9412
ano	-10.9437
▁shock	-10.9453
hould	-10.9464
▁handle	-10.9476
light	-10.9484
▁Usual	-10.9493
▁Charl	-10.9493
▁refer	-10.9495
▁employ	-10.9506
▁struggle	-10.9506
▁nois	-10.9517
▁preferr	-10.9524
ue	-10.9527
▁thrill	-10.953
▁fed	-10.9534
▁neighbor	-10.9557
▁kilometre	-10.9558
▁kindergarten	-10.9558
▁marriage	-10.9558
▁tremendous	-10.9558
▁unnecessar	-10.9558
▁violence	-10.9558
▁Richard	-10.9558
▁independence	-10.9558
▁refresh	-10.9558
▁symbol	-10.9558
▁unemploy	-10.9558
▁desert	-10.9558
▁confront	-10.9558
▁angel	-10.9558
▁Cafe	-10.9558
▁Sevill	-10.9558
▁retire	-10.9558
▁respondent	-10.9559
▁civilization	-10.9559
▁stick	-10.956
▁Sky	-10.956
▁pray	-10.9562
▁26	-10.9562
▁Wall	-10.9563
▁narrow	-10.9563
▁Relations	-10.9564
terra	-10.9567
▁passionate	-10.9571
▁paparazzi	-10.9573
▁western	-10.9573
▁patien	-10.9574
▁Natural	-10.9581
▁highway	-10.9587
fect	-10.959
▁Da	-10.9603
▁height	-10.961
lly	-10.9613
▁Tit	-10.9614
▁recipe	-10.9617
▁dresses	-10.9622
ara	-10.9623
▁Ky	-10.9628
,000	-10.9631
tom	-10.964
▁button	-10.9646
▁compete	-10.9647
▁Ne	-10.9663
▁commute	-10.9666
▁finance	-10.9676
▁Bali	-10.9692
▁reserve	-10.9715
polit	-10.973
▁ju	-10.975
▁cri	-10.9752
og	-10.9757
▁resistan	-10.9764
,	-10.9778
▁package	-10.9783
▁intention	-10.9794
bri	-10.9802
"	-10.9804
▁60	-10.9817
▁Medi	-10.9824
▁wave	-10.9846
▁import	-10.9852
hand	-10.986
stry	-10.9861
▁damag	-10.9863
book	-10.9871
▁impressi	-10.9912
50	-10.9917
▁disturb	-10.9941
▁endanger	-10.9943
▁President	-10.9943
▁Thomas	-10.9943
▁evident	-10.9943
▁ghost	-10.9943
▁guarantee	-10.9943
▁rhythm	-10.9943
▁shift	-10.9943
▁theoretical	-10.9943
▁vivid	-10.9943
▁Engineer	-10.9943
▁controversi	-10.9943
▁predict	-10.9943
▁bride	-10.9943
▁facult	-10.9943
▁indicate	-10.9943
▁digital	-10.9943
▁knock	-10.9943
▁paragraph	-10.9943
▁orange	-10.9943
▁profile	-10.9943
▁fridge	-10.9943
▁cruise	-10.9943
▁punctual	-10.9943
▁fume	-10.9943
▁representative	-10.9943
▁sixteen	-10.9944
▁Director	-10.9944
▁medium	-10.9944
epartment	-10.9944
▁battle	-10.9945
▁punishment	-10.9945
▁silence	-10.9945
▁precise	-10.9945
▁garage	-10.9946
▁medi	-10.9947
▁preference	-10.9948
▁Year	-10.9952
95	-10.9954
▁Give	-10.9955
▁nitr	-10.9955
▁Ju	-10.9957
▁gaso	-10.9958
▁decorat	-10.996
▁celebrat	-10.9972
▁Start	-10.9976
▁Though	-10.9977
▁load	-10.9983
▁skirt	-10.9985
▁hill	-10.9988
▁El	-10.999
▁CD	-10.9993
▁lips	-10.9994
▁modes	-11.0002
ather	-11.0019
▁Christian	-11.002
▁copy	-11.0032
ect	-11.0033
▁Ch	-11.0034
▁Arabia	-11.0044
round	-11.0051
▁literal	-11.0055
appointment	-11.006
▁coordinat	-11.0068
▁welcom	-11.0102
▁packag	-11.0106
▁mess	-11.0133
▁IT	-11.0135
ack	-11.0151
▁pursue	-11.0151
▁exhausted	-11.0169
▁hug	-11.0203
ternal	-11.0203
por	-11.0205
nia	-11.021
▁lo	-11.0217
▁divide	-11.023
▁reveal	-11.0237
sleep	-11.0243
▁cop	-11.0262
▁decline	-11.0276
▁Pu	-11.028
cl	-11.0283
fully	-11.0286
▁na	-11.031
▁religio	-11.0323
▁analysi	-11.0324
▁ill	-11.0332
wimming	-11.0332
ij	-11.0333
▁Compare	-11.0343
▁Yesterday	-11.0343
▁athlete	-11.0343
▁description	-11.0343
▁evolve	-11.0343
▁immense	-11.0343
▁laptop	-11.0343
▁Dream	-11.0343
▁utiliz	-11.0343
▁Manager	-11.0343
▁astonish	-11.0343
▁double	-11.0343
▁clue	-11.0343
▁hurry	-11.0343
▁discount	-11.0343
▁exploit	-11.0343
▁broadcast	-11.0343
▁cruel	-11.0343
▁announce	-11.0343
▁cathedral	-11.0343
▁depart	-11.0343
▁ending	-11.0345
▁Feder	-11.0345
▁flavor	-11.0347
evolution	-11.0347
▁habitat	-11.0348
▁ti	-11.035
▁equip	-11.0353
▁White	-11.0356
▁degrad	-11.0357
▁ma	-11.0364
▁Fernand	-11.0368
▁rank	-11.0369
▁captur	-11.0377
▁bann	-11.0379
ze	-11.0382
RE	-11.0401
latter	-11.0406
▁gun	-11.0413
▁cure	-11.0415
ino	-11.0417
▁Any	-11.0421
▁preci	-11.0433
▁chatt	-11.0441
▁usage	-11.0476
ub	-11.0477
▁categorie	-11.0489
▁Develop	-11.0489
hu	-11.0493
▁Men	-11.0496
city	-11.0509
▁mate	-11.0513
▁unit	-11.0521
▁preserv	-11.0559
▁Pi	-11.0572
▁90	-11.0585
▁origin	-11.0595
▁balle	-11.0595
how	-11.0599
ater	-11.0604
▁operat	-11.0605
▁grown	-11.0607
▁bone	-11.0614
▁Sant	-11.0626
▁imp	-11.0635
▁pack	-11.0655
▁Pen	-11.0658
▁accommodati	-11.0667
hen	-11.0673
▁exception	-11.0711
▁dive	-11.0715
▁maxim	-11.0721
ety	-11.0732
▁murder	-11.0732
q	-11.0747
magine	-11.0756
▁birth	-11.0757
▁distan	-11.0757
▁Professor	-11.0759
▁brief	-11.0759
▁entrepreneur	-11.0759
▁playground	-11.0759
▁prison	-11.0759
▁smooth	-11.0759
▁examination	-11.0759
▁utilit	-11.0759
▁gossip	-11.0759
▁initial	-11.0759
▁Dutch	-11.0759
▁genre	-11.0759
▁Music	-11.0759
▁Business	-11.0759
▁conserv	-11.0759
▁Talk	-11.0759
▁eighteen	-11.076
▁Buda	-11.076
▁edition	-11.076
ango	-11.076
▁Vietnamese	-11.076
ngue	-11.0761
▁arise	-11.0761
▁chao	-11.0761
▁melt	-11.0762
▁workshop	-11.0763
▁billion	-11.0764
▁brush	-11.0766
▁occupie	-11.0766
▁solved	-11.0767
▁32	-11.0768
istan	-11.0769
▁repli	-11.077
▁painful	-11.0771
▁Cook	-11.0776
▁Sophie	-11.0784
▁Bra	-11.0788
▁instruction	-11.0807
▁OF	-11.0809
▁Driv	-11.081
▁sak	-11.0815
sz	-11.0818
▁Cast	-11.082
▁Gra	-11.0824
▁inner	-11.0826
hal	-11.083
▁referr	-11.0831
ford	-11.0849
▁chip	-11.0852
▁killer	-11.0862
IES	-11.088
tors	-11.0883
ik	-11.0907
▁Ja	-11.0931
▁hi	-11.0987
▁releas	-11.0988
▁earning	-11.1005
rem	-11.1016
▁Ms	-11.1027
▁Lor	-11.1044
▁recogniz	-11.1047
▁Jew	-11.1049
▁annoy	-11.1059
▁Michel	-11.1076
▁dro	-11.1101
▁remove	-11.1105
ED	-11.1122
▁purchas	-11.1126
useum	-11.1169
▁chase	-11.1193
▁Literature	-11.1194
▁chapter	-11.1194
▁embarrass	-11.1194
▁frighten	-11.1194
▁president	-11.1194
▁register	-11.1194
▁renovat	-11.1194
▁semester	-11.1194
▁sibling	-11.1194
▁adjust	-11.1194
▁oxygen	-11.1194
▁honor	-11.1194
▁Film	-11.1194
▁firm	-11.1194
▁Probabl	-11.1194
▁sociable	-11.1194
▁calorie	-11.1194
▁qualiti	-11.1194
▁interior	-11.1194
▁pocket	-11.1194
▁launch	-11.1194
▁neighborhood	-11.1195
▁fortunate	-11.1195
▁beginner	-11.1195
▁stock	-11.1196
▁Long	-11.1196
▁accus	-11.1196
▁format	-11.1196
▁script	-11.1198
▁conquer	-11.12
▁distinct	-11.12
▁sharp	-11.1201
▁chill	-11.1201
▁dispute	-11.1205
▁winner	-11.1206
▁cash	-11.121
▁adequate	-11.121
crew	-11.1214
▁railway	-11.1214
▁lion	-11.1216
ists	-11.1218
▁Berl	-11.1218
▁innovati	-11.1225
▁defend	-11.1229
▁Martin	-11.1233
▁core	-11.1239
▁Try	-11.1249
▁min	-11.126
▁strengthen	-11.1262
▁bott	-11.1279
EN	-11.128
lov	-11.1289
▁Mini	-11.129
ung	-11.131
OD	-11.1316
▁150	-11.1324
▁Min	-11.1336
▁virtu	-11.1341
▁formal	-11.1349
▁careless	-11.1353
▁designer	-11.1365
▁pollut	-11.1366
▁par	-11.1369
motion	-11.1372
▁mar	-11.1389
▁uncle	-11.1395
▁promot	-11.1402
▁exten	-11.145
▁recognise	-11.1457
▁occurre	-11.1458
▁sin	-11.1458
▁myster	-11.1466
▁Ham	-11.1483
▁previously	-11.1483
▁Ben	-11.1486
ible	-11.1509
bra	-11.1516
enna	-11.1528
▁document	-11.1544
▁IS	-11.1546
cket	-11.1546
power	-11.1548
mark	-11.1553
▁comfortabl	-11.1563
▁Ke	-11.1567
▁considerabl	-11.1569
mula	-11.1573
nes	-11.1585
▁fri	-11.1597
▁bat	-11.1598
▁ches	-11.16
alter	-11.1603
▁sale	-11.1608
▁relie	-11.1622
▁supplement	-11.1649
▁Associat	-11.1649
▁Thursday	-11.1649
▁athletic	-11.1649
▁flash	-11.1649
▁guilt	-11.1649
▁marathon	-11.1649
▁temporar	-11.1649
▁unusual	-11.1649
▁Portug	-11.1649
▁convert	-11.1649
▁dump	-11.1649
▁roof	-11.1649
▁Emma	-11.1649
▁shelter	-11.1649
▁credit	-11.1649
scope	-11.1649
▁waitress	-11.1649
▁clinic	-11.1649
▁proceed	-11.1649
▁surface	-11.1649
ricket	-11.1649
▁tendenc	-11.165
▁blink	-11.165
▁alien	-11.1651
▁Feb	-11.1651
▁programming	-11.1652
▁dust	-11.1652
▁Julia	-11.1652
▁minor	-11.1652
▁GP	-11.1653
▁offence	-11.1653
▁Gothi	-11.1655
▁Subject	-11.1656
▁moon	-11.1658
▁cabin	-11.1659
▁gate	-11.166
▁foreigner	-11.1664
▁spa	-11.1666
iness	-11.1675
▁Ow	-11.1678
▁shore	-11.168
▁Marcu	-11.1681
▁lock	-11.1681
▁shak	-11.1681
▁hir	-11.1681
▁Wi	-11.1683
▁enemy	-11.1685
ushi	-11.1688
▁Inde	-11.1688
▁irr	-11.1716
▁Grand	-11.1717
▁Cop	-11.1721
▁glor	-11.1722
▁Eng	-11.1722
▁functions	-11.173
▁Recommendations	-11.1741
▁joint	-11.1742
▁cab	-11.1749
tery	-11.175
▁miles	-11.1763
▁resident	-11.1774
cast	-11.1781
▁Gi	-11.1783
▁Col	-11.1792
▁Gar	-11.1798
▁bridge	-11.1801
▁Nov	-11.1824
gra	-11.1826
zing	-11.1826
▁ho	-11.1841
▁Hu	-11.185
ek	-11.1852
col	-11.186
▁cast	-11.1863
▁Old	-11.1873
▁dar	-11.1878
stra	-11.1881
▁partners	-11.1883
▁Bon	-11.1886
▁Luci	-11.1893
she	-11.1899
▁Mit	-11.1904
▁mi	-11.1906
▁pos	-11.1918
▁Centr	-11.192
▁puzzle	-11.1932
▁pan	-11.1951
▁sla	-11.1952
▁wor	-11.1952
▁differ	-11.1959
▁Rus	-11.1964
ria	-11.1974
▁roll	-11.1974
ets	-11.199
ob	-11.1992
▁joke	-11.1993
▁decreased	-11.1994
▁lab	-11.2021
funda	-11.2022
J	-11.2023
worth	-11.2024
EL	-11.2029
▁motor	-11.2033
▁Vin	-11.2033
▁discovery	-11.2047
▁Ku	-11.205
ap	-11.2052
▁Lei	-11.207
ella	-11.2077
▁Mor	-11.2079
urs	-11.208
acus	-11.2081
▁scarc	-11.2088
▁fle	-11.209
epper	-11.2094
▁Colombia	-11.2101
▁profession	-11.2103
ition	-11.2109
▁Daniel	-11.2115
▁ador	-11.2116
▁East	-11.2116
▁graph	-11.2119
▁champion	-11.2124
athedral	-11.2124
tube	-11.2124
▁democra	-11.2125
▁Argentin	-11.2125
▁Different	-11.2125
▁Language	-11.2125
▁Physical	-11.2125
▁Temple	-11.2125
▁Wednesday	-11.2125
▁combusti	-11.2125
▁elegan	-11.2125
▁footprint	-11.2125
▁kilometer	-11.2125
▁pronunciat	-11.2125
▁servant	-11.2125
▁inconvenience	-11.2125
▁sensation	-11.2125
▁genius	-11.2125
▁segregat	-11.2125
▁ultimate	-11.2125
▁niece	-11.2125
▁cartoon	-11.2125
▁composition	-11.2125
▁interrupt	-11.2125
▁trail	-11.2125
▁Town	-11.2125
▁litter	-11.2125
▁soundtrack	-11.2125
▁disabilit	-11.2126
▁HE	-11.2128
▁Ocean	-11.2128
▁kara	-11.2131
▁emphasize	-11.2132
▁twist	-11.2132
racle	-11.2135
▁twel	-11.2136
▁j	-11.2137
▁musician	-11.2141
▁decoration	-11.2141
umber	-11.2142
▁Sea	-11.2144
ON	-11.2148
▁determine	-11.2149
▁Colombian	-11.2149
toxic	-11.2156
▁metre	-11.2167
▁root	-11.2168
▁biolog	-11.2169
▁strike	-11.217
▁pure	-11.2171
▁bio	-11.2183
ctic	-11.219
▁statue	-11.2192
▁admir	-11.2205
▁Hone	-11.2218
▁toleran	-11.222
▁Casa	-11.2224
▁bargain	-11.2247
zy	-11.2248
▁shocked	-11.2262
lot	-11.2264
▁generate	-11.2271
ui	-11.2271
▁Bal	-11.2284
uri	-11.2289
lor	-11.2302
▁amuse	-11.2314
▁u	-11.2321
ww	-11.2345
▁investigate	-11.2347
▁advis	-11.2348
emo	-11.2355
▁Indian	-11.2398
▁interpret	-11.2413
▁critic	-11.2433
▁Mo	-11.2511
▁hasn	-11.2517
pleasant	-11.2524
convenient	-11.2525
▁fab	-11.2531
AS	-11.2535
▁cra	-11.255
▁invi	-11.2555
▁Edi	-11.2556
▁ki	-11.2589
▁vo	-11.2606
▁solid	-11.261
imilar	-11.2615
▁presen	-11.2616
▁assert	-11.262
▁hell	-11.2624
▁Ronald	-11.2625
▁Certificate	-11.2625
▁George	-11.2625
▁Jenny	-11.2625
▁Katowice	-11.2625
▁Tuesday	-11.2625
▁corrupt	-11.2625
▁excursion	-11.2625
▁lounge	-11.2625
▁pellet	-11.2625
▁questionnaire	-11.2625
▁ceiling	-11.2625
▁curtain	-11.2625
▁excuse	-11.2625
▁Wang	-11.2625
▁gender	-11.2625
▁turtle	-11.2625
▁blind	-11.2625
▁gentle	-11.2625
▁jacket	-11.2625
▁Follow	-11.2625
▁Isabel	-11.2625
▁salad	-11.2625
▁Welcom	-11.2625
▁Read	-11.2625
▁affair	-11.2625
▁pride	-11.2625
▁Running	-11.2625
▁Stock	-11.2625
▁juice	-11.2625
▁peak	-11.2626
▁lawyer	-11.2626
▁stem	-11.2626
▁unfair	-11.2627
▁anxious	-11.2627
▁Greek	-11.2627
▁Lucas	-11.2627
▁Wait	-11.2629
▁isolate	-11.2629
▁announcement	-11.2629
▁2009	-11.2629
▁transformation	-11.2629
▁translator	-11.263
▁animat	-11.2631
▁lane	-11.2632
▁code	-11.2634
▁Daniela	-11.2635
▁Robert	-11.2636
▁lean	-11.2636
▁operation	-11.2636
▁Historical	-11.2637
▁Susan	-11.2637
▁terrorist	-11.2639
▁shortage	-11.264
▁asset	-11.264
▁Valen	-11.264
▁batter	-11.2641
▁Hall	-11.2643
▁Cath	-11.2643
▁Serg	-11.2644
▁hydroge	-11.2646
▁Indonesian	-11.2648
▁hunger	-11.265
▁proportion	-11.2653
rist	-11.2654
▁creation	-11.266
▁km	-11.2666
▁Tru	-11.2668
▁govern	-11.2675
cited	-11.2682
▁Mel	-11.2682
▁argu	-11.2704
▁Ali	-11.2704
▁warning	-11.2706
▁End	-11.2721
▁Victoria	-11.2721
▁sl	-11.2727
SA	-11.2733
▁shooting	-11.2749
▁dropp	-11.2756
gging	-11.2758
▁nurse	-11.2758
▁Jon	-11.2764
▁Mari	-11.2776
▁Games	-11.2784
▁Chi	-11.2794
▁suspens	-11.2803
▁teen	-11.2803
▁cutt	-11.2808
▁fanc	-11.2811
▁sa	-11.2819
rage	-11.2819
▁shorter	-11.2825
▁Mike	-11.2827
▁kissed	-11.283
▁observe	-11.2831
nder	-11.2832
▁Lo	-11.2852
▁snacks	-11.2859
▁Bor	-11.2873
▁minimu	-11.288
▁describ	-11.2905
▁Che	-11.2908
ified	-11.2913
▁ear	-11.2914
▁Cz	-11.2939
▁Mag	-11.2946
▁intens	-11.2965
▁curse	-11.2972
unt	-11.2973
▁Abo	-11.2984
BA	-11.2996
▁Cha	-11.3
▁arrang	-11.3002
inal	-11.3009
IS	-11.3011
BC	-11.3033
pul	-11.3059
▁201	-11.3067
▁runner	-11.3068
abet	-11.3076
▁communicat	-11.3077
lack	-11.3079
IL	-11.3112
▁Mal	-11.3117
▁embrace	-11.3124
▁Mat	-11.3126
▁Indonesia	-11.3127
eval	-11.3127
ari	-11.314
▁rail	-11.3141
right	-11.3144
nformation	-11.3148
▁tone	-11.3148
▁punish	-11.3149
▁Nonethe	-11.3151
▁incentive	-11.3151
▁pregnant	-11.3151
▁serving	-11.3151
▁skyscraper	-11.3151
▁snake	-11.3151
▁spoil	-11.3151
▁wardrobe	-11.3151
TS	-11.3151
▁grocer	-11.3151
▁contract	-11.3151
▁actress	-11.3151
▁misunderstand	-11.3151
▁nutrition	-11.3151
▁Friendship	-11.3151
▁drunk	-11.3151
▁rational	-11.3151
▁mask	-11.3151
▁lern	-11.3152
▁institute	-11.3152
▁Wonder	-11.3152
▁facilitate	-11.3152
▁proficien	-11.3152
▁tidy	-11.3155
▁examine	-11.3155
▁Night	-11.3155
▁hello	-11.3156
▁establishment	-11.3159
▁Youtube	-11.316
▁chas	-11.3161
▁Jessi	-11.3168
▁english	-11.3171
▁accompanie	-11.3171
▁fairy	-11.3172
▁somehow	-11.318
▁Pr	-11.3181
▁Loc	-11.3192
▁disable	-11.3215
▁Post	-11.322
▁struggl	-11.3226
▁Fred	-11.3237
▁municipal	-11.3241
▁bill	-11.3247
▁Rid	-11.3256
▁im	-11.3264
▁sub	-11.3268
▁Air	-11.3279
▁Cr	-11.3286
▁Natur	-11.3303
▁300	-11.3305
▁Gree	-11.3306
▁apologise	-11.3311
▁devote	-11.3328
▁quicker	-11.3329
diz	-11.3331
▁soil	-11.3341
▁gene	-11.3342
its	-11.335
▁chemicals	-11.3359
▁Marc	-11.3392
uan	-11.3395
▁CL	-11.3402
▁Su	-11.3412
eria	-11.3415
rupt	-11.3427
▁minim	-11.3445
▁combin	-11.3451
air	-11.3464
ki	-11.3485
OR	-11.3497
▁solv	-11.3504
▁troubles	-11.3512
▁Mart	-11.3525
seas	-11.3526
▁Den	-11.3526
▁Yo	-11.3527
▁hip	-11.353
▁toys	-11.354
▁Soc	-11.3546
EST	-11.3549
▁tele	-11.3552
▁West	-11.3554
▁shoot	-11.357
eep	-11.357
▁inspect	-11.3589
ita	-11.3597
▁196	-11.361
▁cancer	-11.3618
mar	-11.3619
▁supporter	-11.3621
▁ab	-11.3621
ica	-11.3644
IN	-11.365
dent	-11.3651
mach	-11.3655
▁assume	-11.366
▁defen	-11.3663
▁fulfil	-11.3694
ban	-11.3701
odern	-11.3706
▁Aurora	-11.3707
▁Maleficen	-11.3707
▁awkward	-11.3707
▁chamber	-11.3707
▁cigarette	-11.3707
▁explanation	-11.3707
▁gymnastic	-11.3707
▁monitor	-11.3707
▁nephew	-11.3707
▁outweigh	-11.3707
▁pound	-11.3707
▁sandwich	-11.3707
▁slalom	-11.3707
▁sphere	-11.3707
▁thief	-11.3707
▁violent	-11.3707
▁Hotel	-11.3707
▁depict	-11.3707
▁euro	-11.3707
▁perception	-11.3707
▁bulb	-11.3707
▁headache	-11.3707
▁editor	-11.3707
▁expans	-11.3707
▁forgive	-11.3707
ttom	-11.3707
▁occupation	-11.3707
▁display	-11.3707
▁Colosseum	-11.3707
▁timing	-11.3707
▁branch	-11.3707
▁analytic	-11.3707
▁yield	-11.3707
▁excessive	-11.3707
▁multiple	-11.3707
▁Elena	-11.3707
▁evaluation	-11.3707
▁textbook	-11.3707
▁pretend	-11.3707
▁detective	-11.3707
▁capabilit	-11.3707
▁fake	-11.3707
▁narrator	-11.3707
▁modifi	-11.3708
▁Keep	-11.3708
▁Frank	-11.3708
▁Yellow	-11.3708
▁row	-11.3709
▁sheep	-11.3709
▁Harry	-11.3709
▁fiance	-11.3709
laza	-11.3709
▁cheat	-11.371
▁Bright	-11.371
▁marry	-11.371
▁interactive	-11.371
▁FOR	-11.371
▁restriction	-11.3711
▁butterfl	-11.3711
▁Near	-11.3712
holm	-11.3714
▁Chand	-11.3715
▁reuse	-11.3716
▁contribution	-11.3716
▁Bob	-11.3716
▁truck	-11.3717
▁portion	-11.3717
▁Fun	-11.372
▁babysitter	-11.3721
▁Yel	-11.3722
▁Food	-11.3722
ium	-11.3723
▁Tim	-11.3728
▁trap	-11.3728
▁roller	-11.373
▁Get	-11.3731
▁miser	-11.3734
▁Ober	-11.3735
▁wire	-11.3739
▁conference	-11.374
▁universal	-11.3741
▁undergo	-11.3742
▁Hug	-11.3746
▁fal	-11.375
▁venue	-11.3757
▁45	-11.3763
▁bless	-11.3766
▁Far	-11.3771
▁defin	-11.3772
▁transfer	-11.3783
▁downside	-11.3784
▁complexit	-11.3787
▁exceptional	-11.3792
▁tie	-11.3797
UT	-11.38
▁formula	-11.3802
▁tense	-11.3813
▁motorway	-11.3818
▁Liv	-11.3821
▁Never	-11.3822
▁obs	-11.3829
▁acceptable	-11.3831
▁promises	-11.3831
▁panic	-11.3848
mankind	-11.3855
▁pant	-11.386
▁chi	-11.3871
troduction	-11.3871
▁Need	-11.3876
ude	-11.3883
▁Dat	-11.3884
:	-11.3901
▁swa	-11.3903
▁organizer	-11.3918
▁PA	-11.3925
▁caf	-11.393
▁monument	-11.3945
▁complet	-11.3953
▁Lim	-11.3961
case	-11.3963
ock	-11.3989
pu	-11.3989
▁teache	-11.3998
▁optimis	-11.4007
▁Gal	-11.4014
▁literat	-11.4036
phone	-11.4039
PP	-11.4044
▁categor	-11.408
▁hopeful	-11.4085
rant	-11.4103
▁generat	-11.4122
rio	-11.4131
nda	-11.4164
BI	-11.4166
odbye	-11.4177
net	-11.4179
gun	-11.4182
ION	-11.4186
▁amaz	-11.4189
familiar	-11.4194
happy	-11.4195
▁bi	-11.4196
▁authorit	-11.42
water	-11.4203
think	-11.4203
▁theater	-11.421
▁advanc	-11.4213
nts	-11.4227
▁curren	-11.4234
ox	-11.4234
▁compos	-11.4241
▁35	-11.4243
otic	-11.4246
▁gran	-11.4248
mediate	-11.4273
.5	-11.4274
▁squa	-11.4281
▁possess	-11.4289
▁exquisit	-11.4295
▁humour	-11.4295
▁hygien	-11.4295
▁motorcycle	-11.4295
▁protagonist	-11.4295
▁pyramid	-11.4295
▁substance	-11.4295
▁sympath	-11.4295
▁thirst	-11.4295
▁desperate	-11.4295
▁enforc	-11.4295
▁vulnerab	-11.4295
▁whisper	-11.4295
▁superior	-11.4295
▁Muslim	-11.4295
▁philosoph	-11.4295
▁ease	-11.4295
▁deplet	-11.4295
▁cellphone	-11.4295
▁stylish	-11.4295
▁external	-11.4296
▁Tower	-11.4296
▁allergi	-11.4296
▁Olympic	-11.4296
▁shade	-11.4296
▁densit	-11.4296
▁shut	-11.4296
▁anxi	-11.4296
▁dissatisf	-11.4296
▁torture	-11.4296
▁panel	-11.4296
raffi	-11.4297
▁nerve	-11.4297
▁2006	-11.4297
▁Craco	-11.4298
▁barel	-11.4299
▁bath	-11.4299
▁Sandr	-11.43
▁hugg	-11.4301
▁Back	-11.4301
▁ambitio	-11.4302
▁distraction	-11.4306
▁alert	-11.4306
met	-11.4307
position	-11.4309
▁elde	-11.4309
▁Social	-11.4319
▁bond	-11.4322
▁Ros	-11.433
▁Surprising	-11.4333
▁pity	-11.4339
▁subl	-11.434
uous	-11.4345
▁quote	-11.435
▁relaxation	-11.4354
▁manufacturer	-11.4355
▁exclude	-11.4366
going	-11.4373
▁Lion	-11.4388
stallation	-11.4389
▁apparent	-11.4396
aka	-11.4397
▁univers	-11.4398
▁Bl	-11.4404
▁Char	-11.4409
▁sir	-11.4414
▁guides	-11.4415
cular	-11.4415
▁Activ	-11.4417
▁Mua	-11.4427
cious	-11.4433
▁admitted	-11.4434
▁efficien	-11.4436
▁revealed	-11.4453
▁workout	-11.4463
▁iron	-11.4473
▁coache	-11.4481
ussel	-11.4484
gy	-11.4488
▁shine	-11.4492
▁transmit	-11.4497
▁matur	-11.4515
Tu	-11.4526
▁worsen	-11.4527
of	-11.4533
ash	-11.4537
rude	-11.4547
unk	-11.4548
▁stepp	-11.4555
▁considerate	-11.4561
▁--	-11.4572
▁enclos	-11.4578
▁dispos	-11.4592
▁originat	-11.4599
lem	-11.4605
In	-11.4609
var	-11.4617
▁comic	-11.4625
▁characteriz	-11.4637
▁expose	-11.4639
▁pursu	-11.4642
▁Academ	-11.4643
nted	-11.4651
ero	-11.4654
tical	-11.4656
▁reserv	-11.4657
▁env	-11.466
rk	-11.4691
▁stimulate	-11.4705
▁bro	-11.4721
ncient	-11.4732
stage	-11.4734
▁ri	-11.4736
▁Tra	-11.4742
▁airway	-11.4749
▁propert	-11.476
▁shin	-11.4764
▁Ex	-11.4769
ail	-11.4771
east	-11.4776
til	-11.4792
bel	-11.4795
▁SP	-11.4801
hr	-11.4806
▁Cultur	-11.481
view	-11.4818
solution	-11.4818
field	-11.4821
▁mobil	-11.4823
ilver	-11.4838
ellow	-11.4854
pic	-11.4856
20	-11.4857
dispens	-11.4859
ffle	-11.4887
▁calculate	-11.4902
▁impose	-11.4905
▁surg	-11.4905
▁politic	-11.4905
▁Respons	-11.4907
▁judg	-11.4916
▁jog	-11.4918
▁Gorbach	-11.492
ontemporar	-11.492
▁Bulgaria	-11.492
▁Ferrari	-11.492
▁Programm	-11.492
▁artificial	-11.492
▁brutal	-11.492
▁companion	-11.492
▁drastic	-11.492
▁esteem	-11.492
▁hurricane	-11.492
▁inherit	-11.492
▁jungle	-11.492
▁mirror	-11.492
▁obsession	-11.492
▁phrase	-11.492
▁platform	-11.492
▁technician	-11.492
▁Compan	-11.492
▁devastati	-11.492
▁retail	-11.492
▁voluntar	-11.492
▁virus	-11.492
▁serial	-11.492
▁trauma	-11.492
▁annual	-11.492
▁Visit	-11.492
▁association	-11.492
▁giant	-11.492
▁Costa	-11.492
▁assault	-11.492
▁wander	-11.492
▁Leonard	-11.492
▁prejudice	-11.492
▁Cuba	-11.492
▁fingermark	-11.492
▁thirteen	-11.492
▁recall	-11.492
▁silent	-11.492
▁swimmer	-11.492
▁extract	-11.4921
▁grasp	-11.4921
burden	-11.4921
▁Juliet	-11.4921
▁urgent	-11.4921
▁jail	-11.4921
▁unbelievable	-11.4921
▁exhibition	-11.4921
▁angle	-11.4921
▁download	-11.4922
▁election	-11.4922
az	-11.4922
▁contamination	-11.4922
▁ships	-11.4923
▁labor	-11.4923
▁Allison	-11.4923
▁vary	-11.4923
tress	-11.4924
ando	-11.4924
▁exit	-11.4925
▁toilet	-11.4926
▁visi	-11.4926
▁sauce	-11.4926
▁booklet	-11.4927
▁potion	-11.4927
▁Catal	-11.4927
▁graphic	-11.4927
▁unlike	-11.4928
▁upset	-11.4928
▁nuts	-11.4928
▁coca	-11.4929
▁roa	-11.4929
▁salt	-11.4929
▁arrangement	-11.493
▁accurate	-11.493
chain	-11.4932
▁addiction	-11.4935
▁absen	-11.4935
▁cheer	-11.4937
▁Franco	-11.494
▁selfish	-11.4941
▁Recycling	-11.4944
▁tee	-11.4945
▁opt	-11.4946
uese	-11.4946
▁Helen	-11.4948
▁Jose	-11.4948
▁Mass	-11.4948
▁kisses	-11.495
▁Teacher	-11.4956
123456	-11.4957
ueen	-11.4958
▁exp	-11.4964
▁donate	-11.4968
▁updat	-11.4973
can	-11.4975
▁AM	-11.4979
▁cl	-11.4982
▁Study	-11.4983
▁extend	-11.4984
pad	-11.4992
ential	-11.4993
▁grip	-11.4994
▁Bronte	-11.4996
▁programmer	-11.5
▁dys	-11.5007
▁emitt	-11.5011
▁photographer	-11.5013
ava	-11.5022
cid	-11.5022
▁Live	-11.5022
▁Mc	-11.5023
▁AT	-11.5029
ugu	-11.5044
12	-11.5044
▁stabili	-11.5049
live	-11.5051
urer	-11.5065
▁cater	-11.5079
▁Princes	-11.5098
▁spi	-11.5106
▁complaint	-11.511
▁dat	-11.5112
▁prop	-11.5114
▁Discover	-11.5119
ES	-11.513
▁inspire	-11.5132
ATION	-11.5144
slim	-11.5157
40	-11.5171
▁mini	-11.5181
▁lett	-11.5196
▁butter	-11.5199
timate	-11.5214
oc	-11.5229
▁VI	-11.5238
▁Student	-11.5238
▁hike	-11.5246
▁vote	-11.5246
▁Gor	-11.5249
TH	-11.5259
So	-11.5267
▁Yu	-11.5273
occ	-11.5283
▁persuade	-11.5285
bol	-11.5291
▁Belgi	-11.5296
TER	-11.5304
▁petrole	-11.5311
▁observ	-11.5313
ublin	-11.5317
▁mono	-11.5336
N	-11.5356
▁devot	-11.5365
▁Sharm	-11.5372
▁cho	-11.5397
▁rep	-11.5416
▁ob	-11.5418
ador	-11.542
▁grandm	-11.5423
cultural	-11.5436
tamina	-11.5452
▁bench	-11.5468
▁publication	-11.5469
▁cal	-11.5476
▁Cru	-11.5478
▁Kat	-11.5479
develop	-11.5482
personal	-11.5494
▁Hung	-11.5497
▁threaten	-11.5507
▁assistan	-11.5515
▁deposit	-11.5532
rga	-11.5542
▁disco	-11.5555
band	-11.5562
▁passe	-11.5568
▁terrifi	-11.5579
▁facilit	-11.5579
spire	-11.5583
mad	-11.5583
▁react	-11.5584
▁execut	-11.5585
hurch	-11.5586
equality	-11.5586
▁Netherlands	-11.5586
▁Research	-11.5586
▁Restaurant	-11.5586
▁aerobic	-11.5586
▁circle	-11.5586
▁complication	-11.5586
▁compromise	-11.5586
▁correspond	-11.5586
▁declare	-11.5586
▁elevator	-11.5586
▁enterprise	-11.5586
▁famine	-11.5586
▁fingerprint	-11.5586
▁prospect	-11.5586
▁reckon	-11.5586
▁stretch	-11.5586
▁thorough	-11.5586
▁uncertain	-11.5586
▁depth	-11.5587
▁Place	-11.5587
▁migrat	-11.5587
▁prestig	-11.5587
▁stroke	-11.5587
▁curios	-11.5587
▁Clean	-11.5587
▁reform	-11.5587
▁Little	-11.5587
▁beverage	-11.5587
▁convey	-11.5587
▁idol	-11.5587
▁initiative	-11.5587
▁frog	-11.5587
▁apologize	-11.5587
▁2011	-11.5587
▁obey	-11.5587
▁criteri	-11.5588
▁plain	-11.5588
▁neck	-11.5588
▁Cause	-11.5589
▁decen	-11.5589
▁Alexand	-11.5589
▁Head	-11.5592
▁Four	-11.5592
▁obligation	-11.5593
▁anaesthe	-11.5594
▁Afterward	-11.5596
▁explod	-11.5598
▁sickness	-11.5599
▁BE	-11.5601
▁afterward	-11.5602
▁socialize	-11.5603
▁manda	-11.5605
▁Eat	-11.5608
▁advancement	-11.5612
▁endure	-11.5619
▁Bull	-11.562
▁trainee	-11.5621
▁eth	-11.5622
!.	-11.5623
▁Ti	-11.5623
▁babi	-11.5623
▁Basketball	-11.5627
▁Ly	-11.5631
titude	-11.5639
▁proof	-11.5641
▁Island	-11.5652
▁analyze	-11.5656
rade	-11.5658
▁architectural	-11.5661
▁sportsman	-11.5667
▁Cas	-11.5671
ivity	-11.5673
inning	-11.5686
▁nap	-11.5686
▁Plane	-11.5687
dden	-11.5688
▁Rose	-11.57
dad	-11.5722
▁spin	-11.5723
▁threatening	-11.5726
▁drag	-11.573
▁stable	-11.5738
▁scor	-11.5745
▁sincere	-11.5748
▁Nin	-11.5755
ael	-11.5757
▁discriminat	-11.5763
▁Did	-11.5764
▁acc	-11.577
evin	-11.5773
▁starr	-11.5785
▁sil	-11.5791
▁hu	-11.5798
ja	-11.5815
▁floods	-11.5819
ewell	-11.5824
▁Inter	-11.5831
oul	-11.5843
cosy	-11.5861
edicine	-11.5862
aca	-11.5863
▁Shar	-11.589
▁Class	-11.5894
▁beam	-11.5906
▁resist	-11.5909
▁commun	-11.591
▁slide	-11.5919
oven	-11.5923
▁stimulat	-11.5926
adel	-11.5965
▁jo	-11.5968
anna	-11.5986
rina	-11.5995
ational	-11.6014
ashing	-11.603
▁ir	-11.6038
iddle	-11.604
▁cow	-11.604
PE	-11.6056
▁da	-11.6064
gro	-11.6078
ukh	-11.61
▁Kha	-11.6105
uca	-11.6121
uma	-11.613
aga	-11.6133
gie	-11.6155
▁Fr	-11.6161
▁gri	-11.6168
SU	-11.6194
▁Crist	-11.6197
graduate	-11.62
school	-11.6201
what	-11.6201
lit	-11.6217
▁commit	-11.6236
▁prim	-11.6236
▁coll	-11.6241
LY	-11.6248
fluenc	-11.6259
▁tablet	-11.626
pass	-11.6262
lia	-11.6267
▁tax	-11.6271
▁physic	-11.6273
▁teenage	-11.6283
▁guid	-11.6285
mber	-11.6287
▁favor	-11.6288
ification	-11.629
▁licen	-11.6294
▁ecolog	-11.6297
▁Euro	-11.6298
▁destin	-11.6298
▁Flor	-11.6299
▁roman	-11.63
taneous	-11.6301
▁indirect	-11.6301
▁Words	-11.6301
▁absorb	-11.6301
▁manipulat	-11.6301
▁snorkel	-11.6301
NCLU	-11.6301
corporate	-11.6301
▁Alhambra	-11.6301
▁Animal	-11.6301
▁Design	-11.6301
▁Fashion	-11.6301
▁Republic	-11.6301
▁astronaut	-11.6301
▁attribut	-11.6301
▁collapse	-11.6301
▁complement	-11.6301
▁divorce	-11.6301
▁franchise	-11.6301
▁genuine	-11.6301
▁immun	-11.6301
▁infinite	-11.6301
▁invalu	-11.6301
▁jealous	-11.6301
▁marvellous	-11.6301
▁mechanism	-11.6301
▁multinational	-11.6301
▁prohibit	-11.6301
▁refuge	-11.6301
▁scooter	-11.6301
▁sophisticate	-11.6301
▁sword	-11.6301
▁unsuccessful	-11.6301
▁William	-11.6301
▁autograph	-11.6301
▁synthe	-11.6301
▁intellectual	-11.6301
▁coincide	-11.6301
▁nightmare	-11.6301
▁victor	-11.6301
▁Messi	-11.6301
▁detriment	-11.6301
▁wizard	-11.6301
▁cogniti	-11.6301
▁Saint	-11.6301
▁handicap	-11.6301
▁unreal	-11.6301
▁cheek	-11.6301
▁distinguish	-11.6301
▁scholarship	-11.6301
▁royal	-11.6301
▁studio	-11.6301
▁Midsummer	-11.6301
▁emphasis	-11.6301
▁geographical	-11.6301
▁deceiv	-11.6301
▁Petersburg	-11.6301
▁kung	-11.6301
▁poem	-11.6301
▁Taip	-11.6301
▁viewpoint	-11.6301
▁Andrea	-11.6301
▁Flam	-11.6302
▁tragi	-11.6302
▁Steve	-11.6302
restl	-11.6302
▁psychologist	-11.6302
▁receptionist	-11.6302
▁implie	-11.6302
▁Java	-11.6302
▁empath	-11.6302
agline	-11.6302
▁bow	-11.6302
▁Margar	-11.6302
▁grab	-11.6302
▁shame	-11.6303
▁committee	-11.6303
▁LO	-11.6303
▁audition	-11.6303
▁Communist	-11.6303
▁mixture	-11.6303
▁assignment	-11.6304
▁Fox	-11.6304
▁Sitt	-11.6305
▁Marina	-11.6305
▁overlook	-11.6305
▁hook	-11.6306
▁chore	-11.6306
▁eradicat	-11.6306
▁1990	-11.6306
▁esp	-11.6306
▁hitt	-11.6307
▁vanish	-11.6307
▁Tij	-11.6308
▁deadline	-11.6309
▁Chile	-11.6309
▁hole	-11.631
▁Jac	-11.6311
▁accessori	-11.6311
▁steam	-11.6313
▁wallet	-11.6314
▁fellow	-11.6316
▁grand	-11.6317
▁pale	-11.6317
▁gaze	-11.6321
▁gang	-11.6321
jk	-11.6323
uel	-11.6323
▁joyful	-11.6325
▁delightful	-11.6326
zza	-11.6327
▁:)	-11.6327
▁Nia	-11.6327
▁corporation	-11.6328
endar	-11.6328
▁Ton	-11.6329
▁functional	-11.6335
▁Del	-11.6337
▁Miss	-11.6342
matic	-11.6342
▁socialis	-11.6343
▁-"	-11.6344
▁sci	-11.6345
▁rough	-11.6347
▁Muse	-11.6349
reland	-11.6349
▁restore	-11.6352
▁Water	-11.6354
▁Main	-11.6356
▁Sun	-11.6356
▁SO	-11.6359
▁homeland	-11.6364
▁African	-11.6364
▁approaches	-11.6366
▁Paula	-11.6368
▁antique	-11.6371
▁transit	-11.6375
▁Has	-11.6378
lim	-11.6383
▁conce	-11.6383
▁relieve	-11.6391
▁respectful	-11.6396
vention	-11.6397
VER	-11.64
▁archer	-11.6403
anne	-11.6407
▁input	-11.6411
▁Macha	-11.6415
▁Sad	-11.642
▁storm	-11.6421
▁perfection	-11.6435
▁variable	-11.6436
▁organism	-11.6442
aja	-11.6447
UL	-11.6452
▁integrate	-11.6456
amp	-11.6459
izer	-11.6463
▁commuter	-11.6466
▁Mol	-11.6471
▁pic	-11.6475
▁Singa	-11.6476
▁amus	-11.6477
▁Age	-11.6492
bin	-11.6502
▁Har	-11.6511
▁Ras	-11.6516
olet	-11.6522
▁che	-11.6527
▁criticis	-11.654
▁comp	-11.6545
▁fate	-11.6576
He	-11.6579
una	-11.6604
▁recogni	-11.6613
▁winn	-11.6625
▁vet	-11.6628
▁ja	-11.6634
CH	-11.6654
coal	-11.667
▁starter	-11.6679
wel	-11.669
▁dam	-11.6693
▁Pedr	-11.6696
▁grave	-11.6708
ograph	-11.6711
revolutionary	-11.6711
▁snack	-11.6715
▁Institut	-11.672
lie	-11.6735
dministration	-11.6742
arta	-11.6757
EU	-11.6788
▁Sav	-11.6796
ough	-11.6801
▁Tex	-11.6808
ronic	-11.6812
▁poster	-11.6815
▁Sid	-11.6826
page	-11.684
▁manufactur	-11.684
▁Mad	-11.6851
nation	-11.6852
adh	-11.686
izab	-11.6874
▁planner	-11.6883
suit	-11.6903
▁arena	-11.6904
".	-11.6918
▁appreciat	-11.6921
pan	-11.6925
thon	-11.6929
teration	-11.6929
TION	-11.6943
▁Cat	-11.6949
▁FI	-11.696
▁disappoint	-11.6963
person	-11.6965
;	-11.697
safe	-11.697
step	-11.6975
hell	-11.6988
chest	-11.7005
▁architect	-11.7007
▁kw	-11.7013
▁cultivate	-11.7017
▁braver	-11.7022
cock	-11.7031
selves	-11.7033
onverse	-11.7034
▁reproduc	-11.7044
▁robb	-11.7052
ears	-11.7054
▁bla	-11.7059
eenager	-11.7063
▁advert	-11.7064
▁restrict	-11.7064
▁Leo	-11.7065
▁Mexic	-11.7066
▁assign	-11.7067
▁Direct	-11.7067
▁babysitt	-11.7068
▁psycholog	-11.7069
▁commerc	-11.707
sedent	-11.707
▁Communication	-11.707
▁Patrick	-11.707
▁Secret	-11.707
▁Service	-11.707
▁System	-11.707
▁convincing	-11.707
▁enroll	-11.707
▁folk	-11.707
▁hamburger	-11.707
▁helicopter	-11.707
▁indulge	-11.707
▁negotiat	-11.707
▁overwhelm	-11.707
▁purify	-11.707
▁scenario	-11.707
▁trigger	-11.707
▁unpredic	-11.707
▁dominate	-11.707
▁recruit	-11.707
▁brick	-11.707
▁float	-11.707
▁Stefan	-11.707
▁consult	-11.707
▁scru	-11.707
ido	-11.707
▁boom	-11.707
▁betray	-11.707
▁chief	-11.707
▁exclusive	-11.707
▁dustbin	-11.707
▁interfere	-11.707
▁simul	-11.707
▁Symb	-11.707
▁lamp	-11.7071
▁marvelous	-11.7071
▁apple	-11.7071
▁fortun	-11.7071
▁creep	-11.7071
struck	-11.7071
▁resolution	-11.7071
▁suspicious	-11.7071
▁gear	-11.7072
▁immers	-11.7072
▁extinction	-11.7073
▁stiff	-11.7073
▁passport	-11.7074
▁sample	-11.7074
▁appliance	-11.7074
▁legend	-11.7077
▁licence	-11.7078
▁starv	-11.708
▁leap	-11.7081
▁supplier	-11.7083
▁privilege	-11.7083
▁rice	-11.7085
▁impos	-11.7091
▁pregnanc	-11.7091
▁hy	-11.7094
▁estimat	-11.7098
▁kidnapp	-11.71
▁bowl	-11.7102
▁Ok	-11.7105
star	-11.7106
▁MU	-11.7119
omen	-11.7122
▁insist	-11.7123
ute	-11.7125
▁Marketing	-11.7132
▁Eco	-11.7137
▁rescue	-11.7139
▁trou	-11.7139
▁Jona	-11.714
▁fil	-11.7142
▁layer	-11.7146
▁Relat	-11.717
▁Ren	-11.7178
▁specialist	-11.7188
▁Culture	-11.7208
They	-11.7209
▁glob	-11.7218
▁trial	-11.7219
▁appr	-11.7225
cademic	-11.7234
▁Brita	-11.7246
▁Ur	-11.7255
everal	-11.7258
▁rac	-11.7268
iate	-11.7274
ix	-11.7286
▁horizons	-11.7293
▁buff	-11.7314
oon	-11.7318
pine	-11.7319
arding	-11.7327
veni	-11.7327
SH	-11.7344
▁dispose	-11.7356
eved	-11.7363
▁pot	-11.7376
ient	-11.7428
▁occasional	-11.7436
▁Ya	-11.7457
▁alley	-11.7462
▁optim	-11.7464
bb	-11.7475
ountries	-11.7483
▁Exam	-11.7491
OL	-11.7515
▁alter	-11.7522
▁Dar	-11.7531
▁belonging	-11.7534
bur	-11.7536
▁screaming	-11.7545
onia	-11.7555
unta	-11.7557
▁promi	-11.7574
▁Crim	-11.7591
zone	-11.7593
▁Ru	-11.7604
▁Ele	-11.7611
▁Danc	-11.7613
▁kn	-11.7614
uana	-11.7621
▁Bone	-11.7625
rav	-11.7634
▁qu	-11.7634
▁Rai	-11.7648
▁apologi	-11.7651
chin	-11.7659
▁Eli	-11.7663
▁1000	-11.7673
hilar	-11.7689
▁translat	-11.769
▁Isr	-11.7704
▁Lak	-11.7711
ccount	-11.7716
dmitted	-11.7722
▁emerge	-11.7741
▁Plan	-11.7779
▁Basil	-11.7795
Jones	-11.7799
craft	-11.7801
loud	-11.7802
▁Val	-11.7806
▁500	-11.7809
road	-11.7814
▁hesitat	-11.7821
look	-11.7821
▁Agri	-11.784
▁sigh	-11.7842
▁decor	-11.785
▁Out	-11.7851
▁ham	-11.7857
▁Teach	-11.7863
ambia	-11.7867
insula	-11.7867
▁tech	-11.787
▁accompan	-11.7871
▁sup	-11.7886
reeze	-11.7887
lexi	-11.7895
▁handl	-11.7896
ogue	-11.7901
▁coup	-11.7903
▁poison	-11.7903
accurac	-11.7903
▁Certain	-11.7903
▁Eurasian	-11.7903
▁Faculty	-11.7903
▁Particular	-11.7903
▁Pyram	-11.7903
▁Sebastian	-11.7903
▁Vancouver	-11.7903
▁Writing	-11.7903
▁authentic	-11.7903
▁autumn	-11.7903
▁backpack	-11.7903
▁ceremon	-11.7903
▁cherish	-11.7903
▁commodit	-11.7903
▁competitor	-11.7903
▁compulsor	-11.7903
▁concrete	-11.7903
▁cottage	-11.7903
▁entail	-11.7903
▁glacier	-11.7903
▁grammatical	-11.7903
▁illuminat	-11.7903
▁immigra	-11.7903
▁inexpensive	-11.7903
▁lifeguard	-11.7903
▁moderate	-11.7903
▁pedestrian	-11.7903
▁pensioner	-11.7903
▁profound	-11.7903
▁reinforce	-11.7903
▁vampire	-11.7903
▁wheelchair	-11.7903
▁allocation	-11.7903
▁flaw	-11.7903
▁mistreat	-11.7903
▁potato	-11.7903
▁courtyard	-11.7903
▁dynasty	-11.7903
▁portray	-11.7903
▁Course	-11.7903
▁sculpture	-11.7903
▁tackle	-11.7903
▁contend	-11.7903
▁Consider	-11.7903
▁jerk	-11.7903
▁rabbit	-11.7903
▁Afro	-11.7903
▁intrigu	-11.7903
▁fainte	-11.7904
▁Basical	-11.7904
▁Albert	-11.7904
▁Wiki	-11.7904
▁captain	-11.7904
▁wrap	-11.7904
▁implicat	-11.7904
▁click	-11.7904
▁casual	-11.7904
▁Corn	-11.7904
▁crawl	-11.7904
▁fluid	-11.7904
EF	-11.7904
▁Trapa	-11.7904
▁Latin	-11.7904
▁nineteen	-11.7904
▁corp	-11.7905
▁Antonio	-11.7905
▁Sicil	-11.7905
▁greet	-11.7905
▁queen	-11.7905
▁Chic	-11.7905
▁dislike	-11.7905
▁landmark	-11.7905
▁Phoe	-11.7906
▁marine	-11.7906
▁plaza	-11.7906
▁contradiction	-11.7906
▁Hans	-11.7907
▁Cali	-11.7907
▁Jackson	-11.7907
▁observation	-11.7907
.30	-11.7908
EAR	-11.7908
▁obligat	-11.791
▁2001	-11.791
▁fence	-11.791
▁sew	-11.791
▁Nick	-11.791
▁loan	-11.7912
▁trace	-11.7912
▁Pont	-11.7913
▁radical	-11.7913
▁Moon	-11.7913
rode	-11.7914
umba	-11.7914
▁Tao	-11.7914
▁Flori	-11.7914
▁Peru	-11.7914
nzo	-11.7916
▁31	-11.7916
▁respir	-11.7917
▁continent	-11.7917
▁kitt	-11.7918
▁icon	-11.7919
▁consistent	-11.792
▁insul	-11.7921
kka	-11.7923
▁Kor	-11.7923
▁disagreement	-11.7924
▁Phil	-11.7926
▁length	-11.7926
▁Ivan	-11.7927
▁norm	-11.7927
▁Azu	-11.7927
▁Help	-11.7927
▁Die	-11.7927
▁Week	-11.7928
▁bitter	-11.7929
livi	-11.793
LM	-11.7931
▁lucki	-11.7933
ield	-11.7933
▁settl	-11.7937
▁Saf	-11.7938
▁ambition	-11.794
▁edge	-11.7941
▁NA	-11.7945
▁DC	-11.7945
▁funnie	-11.7946
▁reco	-11.7952
▁Leon	-11.7953
unch	-11.7957
▁spic	-11.7964
▁BC	-11.7975
petition	-11.7978
▁Tian	-11.7984
iova	-11.7985
▁strategic	-11.7989
▁comply	-11.799
▁Mohamed	-11.7992
▁affection	-11.7998
▁Brad	-11.7998
▁Justin	-11.8
▁consen	-11.8003
enha	-11.8005
▁warn	-11.8006
▁inventor	-11.8007
▁craft	-11.8009
▁princes	-11.8016
erto	-11.802
▁foundation	-11.8023
▁advers	-11.8048
▁Kid	-11.8053
▁Cho	-11.8057
▁tur	-11.8061
▁Mu	-11.8081
▁remov	-11.8083
▁submit	-11.8084
stain	-11.8097
▁Norma	-11.8109
laid	-11.811
▁sim	-11.8112
▁Henr	-11.8113
▁miner	-11.8114
▁slope	-11.8119
▁NO	-11.8126
▁batt	-11.8132
▁stat	-11.8146
▁Economics	-11.8147
▁Mon	-11.8152
▁Gui	-11.816
parent	-11.8173
fli	-11.8178
inste	-11.8182
▁intern	-11.8185
▁file	-11.8186
▁deni	-11.8188
13	-11.8195
sane	-11.8202
▁diff	-11.8207
uk	-11.8211
▁auto	-11.8233
▁purp	-11.8246
▁mission	-11.827
▁Mons	-11.8274
▁beating	-11.8275
▁lu	-11.8279
nches	-11.8282
IT	-11.8283
▁heavi	-11.8303
CS	-11.8306
tif	-11.8311
agg	-11.8313
▁informati	-11.8314
bilit	-11.8316
▁contaminate	-11.8321
▁incan	-11.8339
▁summ	-11.8341
▁Soon	-11.8353
rid	-11.8355
▁investigat	-11.8386
rene	-11.8393
▁char	-11.8424
zu	-11.8428
▁chemical	-11.8457
mont	-11.8464
▁passenger	-11.8464
▁Guan	-11.8465
▁freez	-11.8477
▁Lar	-11.8487
▁accidental	-11.8488
rado	-11.8519
read	-11.8526
▁Win	-11.8531
▁Orl	-11.8534
▁tra	-11.8541
▁log	-11.8546
inter	-11.8573
▁33	-11.8578
▁administrati	-11.8586
▁aqua	-11.8597
▁Come	-11.86
▁jewel	-11.8635
ky	-11.8659
▁install	-11.8667
egre	-11.8671
▁stimul	-11.8674
put	-11.8677
▁Shop	-11.8678
AH	-11.8678
link	-11.8679
▁Niki	-11.8683
▁rec	-11.8701
▁listener	-11.8704
dela	-11.871
skirt	-11.8711
sufficient	-11.8711
front	-11.8712
surf	-11.8715
▁Stud	-11.8719
▁termin	-11.8726
when	-11.8726
▁Met	-11.8728
▁variet	-11.8731
mail	-11.8732
eign	-11.8736
▁Ever	-11.8742
IM	-11.8743
OW	-11.8756
huan	-11.8764
▁bound	-11.8778
▁Travel	-11.8786
▁Tele	-11.8787
▁supplie	-11.8799
▁pie	-11.88
locate	-11.8801
▁Mov	-11.8801
▁approv	-11.8801
▁instruct	-11.8803
▁populat	-11.8807
eautiful	-11.8809
▁Univers	-11.8809
▁excess	-11.8811
▁Advertis	-11.8812
raffic	-11.8812
▁harsh	-11.8812
▁Vacation	-11.8812
▁barbecue	-11.8812
▁blond	-11.8812
▁boots	-11.8812
▁borrow	-11.8812
▁crush	-11.8812
▁eliminate	-11.8812
▁envelope	-11.8812
▁hydraulic	-11.8812
▁merchan	-11.8812
▁permanent	-11.8812
▁rival	-11.8812
▁spectator	-11.8812
▁unwilling	-11.8812
▁villain	-11.8812
▁Occup	-11.8812
▁Special	-11.8812
▁birdwatch	-11.8812
▁crown	-11.8812
▁oppressi	-11.8812
▁depriv	-11.8812
▁enquir	-11.8812
▁graceful	-11.8812
▁monetar	-11.8812
▁pump	-11.8812
▁barrier	-11.8812
▁segment	-11.8812
▁sunbath	-11.8812
▁Print	-11.8812
▁Clear	-11.8812
▁Enjoy	-11.8813
tographer	-11.8813
▁Present	-11.8813
▁Carlos	-11.8813
▁dimension	-11.8813
▁monarch	-11.8813
swear	-11.8813
▁congratulation	-11.8813
▁Somali	-11.8813
skola	-11.8813
▁appeti	-11.8813
▁alleviat	-11.8813
▁furious	-11.8813
▁windsurf	-11.8813
▁imaginar	-11.8813
▁harmonious	-11.8814
▁postgraduate	-11.8814
▁dozen	-11.8814
▁Bridge	-11.8814
▁commission	-11.8814
▁Lisa	-11.8814
ndez	-11.8814
escent	-11.8814
▁Champion	-11.8815
▁Tax	-11.8815
▁Happ	-11.8815
▁referee	-11.8816
▁urge	-11.8816
▁Scar	-11.8818
▁suspect	-11.8818
ANT	-11.8819
▁tune	-11.882
irming	-11.882
▁diary	-11.8821
▁Stra	-11.8823
▁fog	-11.8824
▁Fif	-11.8824
▁Equ	-11.8825
▁irritat	-11.8825
cific	-11.8827
▁shall	-11.8828
▁Je	-11.8829
reverse	-11.8829
▁PC	-11.8829
▁.....	-11.883
▁unwa	-11.883
▁strive	-11.8833
phi	-11.8834
▁bil	-11.8834
▁rating	-11.8835
▁remed	-11.8836
▁bleed	-11.884
▁tank	-11.8843
▁Eye	-11.8846
▁storyline	-11.8848
▁ethical	-11.8849
arrag	-11.885
▁eve	-11.8858
onto	-11.8862
▁territory	-11.8862
▁correction	-11.8869
▁coin	-11.888
ordan	-11.8881
▁dorm	-11.8881
pm	-11.8881
▁Spen	-11.8892
rtis	-11.8895
▁twin	-11.8895
▁intervene	-11.8898
urious	-11.89
▁Van	-11.8906
kwon	-11.8907
▁HA	-11.8909
bar	-11.8925
▁Por	-11.8929
▁pond	-11.893
bit	-11.8938
▁yo	-11.8938
▁Player	-11.8956
sistence	-11.8966
fish	-11.8967
▁translated	-11.8974
mention	-11.8985
▁flee	-11.8991
▁couch	-11.8991
car	-11.8992
▁adore	-11.9003
semina	-11.9005
▁awe	-11.903
▁Ball	-11.9031
mpire	-11.904
▁Nam	-11.9043
▁Cla	-11.9056
▁spice	-11.9061
▁bac	-11.9072
▁experienc	-11.9094
▁mon	-11.9098
MI	-11.9101
hai	-11.9103
▁dri	-11.9118
eek	-11.9122
▁greed	-11.9124
eak	-11.9131
▁Say	-11.9132
.2	-11.9136
outhern	-11.9171
hill	-11.9172
▁34	-11.9177
agreement	-11.9178
▁dependenc	-11.9227
▁GO	-11.9233
▁widen	-11.9241
SE	-11.9256
duct	-11.929
▁exercis	-11.9318
xo	-11.9322
loc	-11.934
▁indi	-11.9347
▁unite	-11.9353
VE	-11.9355
ovice	-11.9356
ebook	-11.9368
▁follower	-11.9368
rama	-11.9373
ux	-11.9373
maker	-11.9377
ody	-11.9397
▁perceive	-11.9413
rous	-11.9427
▁glo	-11.9457
▁suspen	-11.9457
▁pupil	-11.9464
▁Dec	-11.9467
ashi	-11.9486
▁verb	-11.9489
▁Spi	-11.9495
fold	-11.9497
▁appoint	-11.9502
▁snowbo	-11.9502
▁insec	-11.9509
▁accommodate	-11.9519
tting	-11.9531
stern	-11.9547
else	-11.9559
rence	-11.9572
▁pushe	-11.9596
▁Victor	-11.9618
but	-11.9618
▁nurs	-11.9625
▁whi	-11.9629
▁bake	-11.9634
long	-11.9665
▁je	-11.9673
LL	-11.9675
▁Bront	-11.969
load	-11.9696
▁Moham	-11.9707
BO	-11.9708
▁pun	-11.971
connect	-11.9712
aware	-11.9712
with	-11.9713
wind	-11.9713
take	-11.9715
▁Var	-11.9722
lake	-11.9727
There	-11.9727
lett	-11.9728
▁update	-11.9736
disciplin	-11.9737
ampl	-11.9742
▁Bar	-11.9746
▁permit	-11.9748
▁Chris	-11.9751
▁ensur	-11.9757
▁trib	-11.9758
stoc	-11.9761
▁Si	-11.9762
▁1,	-11.9766
▁WE	-11.977
wall	-11.9773
▁flu	-11.9779
▁bon	-11.978
▁ethic	-11.9785
azz	-11.9791
▁Mil	-11.9793
▁cent	-11.9794
▁oblig	-11.9795
▁Pop	-11.98
▁simpli	-11.9801
ecurity	-11.9803
▁academ	-11.9809
jar	-11.981
ichael	-11.9811
scribe	-11.9811
▁vita	-11.9811
ague	-11.9812
▁Lomb	-11.9812
▁fertil	-11.9812
▁Volley	-11.9812
▁explicit	-11.9812
▁unintentional	-11.9812
dvocate	-11.9812
▁Advance	-11.9812
▁Assistant	-11.9812
▁Claudia	-11.9812
▁Clothes	-11.9812
▁Found	-11.9812
▁Freeman	-11.9812
▁Lancaster	-11.9812
▁Magazine	-11.9812
▁Practice	-11.9812
▁Relax	-11.9812
▁SHO	-11.9812
▁SPORT	-11.9812
▁adrenalin	-11.9812
▁arrest	-11.9812
▁assassin	-11.9812
▁circuit	-11.9812
▁component	-11.9812
▁confess	-11.9812
▁defeat	-11.9812
▁diamond	-11.9812
▁dinosaur	-11.9812
▁dynamic	-11.9812
▁equation	-11.9812
▁extrovert	-11.9812
▁liquid	-11.9812
▁marginal	-11.9812
▁metaphor	-11.9812
▁microwave	-11.9812
▁migrant	-11.9812
▁neglect	-11.9812
▁occupy	-11.9812
▁pancake	-11.9812
▁patrol	-11.9812
▁perfume	-11.9812
▁renowned	-11.9812
▁scratch	-11.9812
▁submerg	-11.9812
▁trolley	-11.9812
▁tunnel	-11.9812
▁turbine	-11.9812
▁umbrella	-11.9812
▁vacuum	-11.9812
▁Gasol	-11.9812
▁Tamil	-11.9812
▁bomb	-11.9812
▁continuing	-11.9812
▁diligen	-11.9812
▁invasion	-11.9812
▁regime	-11.9812
hydr	-11.9812
▁Concern	-11.9812
▁diminish	-11.9812
▁error	-11.9812
▁illitera	-11.9812
▁pilgrim	-11.9812
▁resign	-11.9812
▁vitamin	-11.9812
▁Office	-11.9812
▁polu	-11.9812
▁FAVOUR	-11.9812
▁Kisses	-11.9812
▁Open	-11.9812
▁amplifie	-11.9812
▁Lorena	-11.9813
▁explosion	-11.9813
▁refund	-11.9813
▁slamm	-11.9813
▁merits	-11.9813
▁audio	-11.9813
▁trek	-11.9813
▁junior	-11.9813
▁dialogue	-11.9813
▁ecc	-11.9813
▁Global	-11.9813
▁noodle	-11.9813
wift	-11.9813
▁burst	-11.9813
▁Cyber	-11.9813
▁leaflet	-11.9813
▁framework	-11.9813
▁Walk	-11.9813
▁irrigat	-11.9813
▁shelve	-11.9813
▁gastronom	-11.9813
▁residenc	-11.9813
▁League	-11.9813
▁harbo	-11.9813
▁Primar	-11.9813
▁Francisco	-11.9813
▁kayak	-11.9813
▁LIVE	-11.9813
▁lazi	-11.9813
▁penalt	-11.9813
▁exceed	-11.9813
▁Skat	-11.9813
▁inevitabl	-11.9813
▁outfit	-11.9813
▁conceiv	-11.9813
▁preced	-11.9813
▁estate	-11.9813
▁Heav	-11.9813
▁Alejandro	-11.9813
▁bacteri	-11.9813
▁adher	-11.9813
▁rafting	-11.9813
▁Kaba	-11.9813
▁revise	-11.9814
LIC	-11.9814
▁tutorial	-11.9814
▁devil	-11.9814
▁reassur	-11.9814
metri	-11.9814
▁Lining	-11.9815
▁Country	-11.9815
▁crack	-11.9815
▁induc	-11.9815
ules	-11.9816
▁Arm	-11.9816
▁pepper	-11.9816
▁odd	-11.9816
▁Jean	-11.9817
▁pill	-11.9817
▁Gene	-11.9817
odor	-11.9817
▁WH	-11.9817
▁sensibl	-11.9818
▁spark	-11.9819
▁Merc	-11.9819
▁Silver	-11.982
▁rig	-11.9821
▁kite	-11.9821
▁pour	-11.9822
▁123	-11.9823
▁possession	-11.9823
▁glow	-11.9823
▁Boat	-11.9823
▁collective	-11.9824
▁Line	-11.9824
▁bury	-11.9824
▁rumor	-11.9824
▁Slov	-11.9824
▁TU	-11.9825
▁approve	-11.9825
▁Hann	-11.9826
▁Team	-11.9826
▁Show	-11.9826
▁Abor	-11.9828
▁Wol	-11.9829
horn	-11.9831
▁metropoli	-11.9831
▁monk	-11.9833
▁hacker	-11.9834
▁Geograph	-11.9834
▁arrogant	-11.9836
▁passive	-11.9836
▁economist	-11.9837
▁insight	-11.9838
▁headline	-11.9839
▁objection	-11.984
ompe	-11.9841
roso	-11.9841
isoa	-11.9841
rdob	-11.9842
▁stumble	-11.9843
▁tale	-11.9843
▁solidar	-11.9843
▁skip	-11.9847
UC	-11.9847
▁summertime	-11.9851
food	-11.9853
▁identities	-11.9855
▁coheren	-11.9857
▁witch	-11.9857
▁Writer	-11.9858
▁Sri	-11.9859
▁Amaz	-11.986
ivil	-11.9861
▁Dana	-11.9862
▁suppress	-11.9873
▁translate	-11.9878
▁Adrian	-11.9881
emember	-11.9882
bear	-11.9884
▁aesthetic	-11.9887
▁Dog	-11.9895
ular	-11.9896
▁Kin	-11.9898
▁FA	-11.9898
▁assumed	-11.9899
valen	-11.99
rich	-11.99
▁owl	-11.9901
aries	-11.9903
▁muscul	-11.9906
▁maximiz	-11.9908
▁boundar	-11.9912
▁dispense	-11.9913
▁productive	-11.9917
▁emb	-11.9918
onna	-11.9921
▁compost	-11.9924
▁Aid	-11.9937
▁BO	-11.994
sala	-11.9941
▁AL	-11.9944
▁canteen	-11.9947
▁Improve	-11.9952
▁rubb	-11.9955
nasty	-11.9958
▁tender	-11.9958
visa	-11.9971
▁Jones	-11.9972
acco	-11.9973
▁accumulate	-11.9991
▁obes	-12.0001
▁manufacture	-12.0015
▁pla	-12.0016
zero	-12.0019
rivate	-12.0019
▁Jim	-12.002
▁Matt	-12.0029
▁collaborat	-12.0029
▁canoe	-12.0037
children	-12.0038
▁pur	-12.0045
▁friendli	-12.0057
▁Dai	-12.0058
▁fade	-12.0065
nerg	-12.0088
EM	-12.0099
▁vol	-12.01
▁producer	-12.0106
tire	-12.0108
▁Buy	-12.0129
▁purse	-12.0132
▁balanc	-12.0135
ARE	-12.0149
▁conscienc	-12.0156
▁greener	-12.0158
icious	-12.016
▁Sur	-12.0179
mble	-12.0181
emed	-12.0194
ulk	-12.0205
▁Fu	-12.0211
▁racis	-12.0213
▁theft	-12.022
▁voca	-12.0227
bag	-12.0229
HD	-12.0235
dull	-12.0238
▁Bru	-12.0254
▁relaxes	-12.0255
▁seller	-12.026
pagan	-12.0288
▁persuad	-12.0291
▁developer	-12.0298
▁Amado	-12.031
▁Kad	-12.0314
▁sexis	-12.0317
▁Clar	-12.0319
▁organiser	-12.0333
▁Count	-12.0345
verb	-12.0372
▁qui	-12.0382
▁Ken	-12.0395
tude	-12.0399
chini	-12.0404
▁CLP	-12.042
▁44	-12.0432
▁du	-12.0484
dual	-12.0546
▁ambi	-12.0563
▁Game	-12.0568
▁gam	-12.059
gz	-12.0591
▁catastroph	-12.062
▁Way	-12.0624
▁faith	-12.0634
▁Clau	-12.0637
▁scen	-12.0644
cap	-12.0659
umm	-12.0664
pel	-12.0667
cover	-12.0676
▁tran	-12.0696
60	-12.0697
▁designat	-12.0698
pparent	-12.0732
▁stead	-12.0748
▁thro	-12.0752
0,000	-12.0753
▁bull	-12.076
▁Lib	-12.0769
▁rub	-12.0776
agna	-12.0778
▁emit	-12.0781
oto	-12.0785
▁Pan	-12.0788
nz	-12.0791
FF	-12.0795
▁analyz	-12.0806
▁believ	-12.0807
▁DI	-12.0812
▁tort	-12.0816
venue	-12.082
describ	-12.082
root	-12.0826
inner	-12.0827
▁enem	-12.0832
▁bush	-12.0839
▁Turin	-12.0842
fair	-12.0842
course	-12.0846
▁Nic	-12.0854
▁frequen	-12.0862
▁civi	-12.0866
fact	-12.087
uction	-12.088
away	-12.0896
▁Historic	-12.0906
▁Mom	-12.0913
cript	-12.0913
▁Sha	-12.0914
▁regulat	-12.0918
▁suspicio	-12.0921
▁demoli	-12.0923
▁Know	-12.0923
▁micro	-12.0923
▁influent	-12.0924
ubsequent	-12.0924
▁temper	-12.0924
▁Faithfully	-12.0924
▁Miserable	-12.0924
▁Project	-12.0924
▁Standard	-12.0924
▁adolescen	-12.0924
▁applicant	-12.0924
▁compliment	-12.0924
▁congratulate	-12.0924
▁dilemma	-12.0924
▁expenditure	-12.0924
▁harvest	-12.0924
▁masterpiece	-12.0924
▁pleasing	-12.0924
▁portrait	-12.0924
▁practitioner	-12.0924
▁qualify	-12.0924
▁regain	-12.0924
▁reject	-12.0924
▁sequence	-12.0924
▁tempt	-12.0924
▁unconscious	-12.0924
▁brake	-12.0924
▁dwell	-12.0924
▁terrify	-12.0924
▁column	-12.0924
▁dentist	-12.0924
▁toddler	-12.0924
▁Runner	-12.0924
▁Interesting	-12.0924
▁obedien	-12.0924
▁strip	-12.0924
▁continual	-12.0924
▁Earl	-12.0924
▁Snow	-12.0924
▁Power	-12.0924
▁wound	-12.0924
▁tomato	-12.0924
▁charisma	-12.0924
▁await	-12.0924
▁substitute	-12.0924
Donald	-12.0924
▁orchestra	-12.0924
▁Blue	-12.0924
▁spontane	-12.0924
▁glance	-12.0924
▁ritual	-12.0924
▁pickpocket	-12.0924
▁Space	-12.0924
▁reven	-12.0925
▁spotlight	-12.0925
▁foster	-12.0925
▁revenue	-12.0925
▁bamboo	-12.0926
▁prosper	-12.0926
ILL	-12.0926
-12	-12.0926
▁Road	-12.0926
motive	-12.0926
▁Meet	-12.0927
▁waist	-12.0927
▁problematic	-12.0928
▁prai	-12.0928
▁yard	-12.0929
▁Curious	-12.0929
unior	-12.0931
cional	-12.0934
▁25-	-12.0934
▁Stor	-12.0934
▁pile	-12.0934
▁assertion	-12.0937
habilit	-12.0938
▁rite	-12.0939
▁stall	-12.094
▁breast	-12.0948
▁Simpl	-12.0948
etus	-12.0949
▁cul	-12.095
▁Pak	-12.0952
elecommunication	-12.0957
▁Still	-12.096
▁Tere	-12.0961
maze	-12.0961
▁alcoholic	-12.0968
rink	-12.0969
▁idiom	-12.097
▁Add	-12.0971
▁affirmati	-12.0974
oid	-12.0975
▁Maz	-12.0978
▁PS	-12.0979
▁2-	-12.0979
▁shortcoming	-12.0982
▁hassle	-12.0986
▁lorr	-12.0988
▁cancel	-12.099
▁bik	-12.0992
▁murderer	-12.0998
▁prof	-12.0999
▁furr	-12.1
▁convi	-12.1002
19	-12.1002
awl	-12.1024
▁Spo	-12.1039
▁Fas	-12.1045
▁Tur	-12.105
▁compel	-12.1054
▁36	-12.1068
▁Sure	-12.1075
▁Sem	-12.1099
▁scarf	-12.1102
list	-12.1107
▁Alb	-12.1111
▁germ	-12.1119
iful	-12.1131
▁Net	-12.1134
▁circulati	-12.1141
▁emerg	-12.1147
▁Oka	-12.116
rated	-12.117
."	-12.1197
▁Comed	-12.1199
AL	-12.1204
▁provoke	-12.1205
igue	-12.1209
▁sca	-12.121
3-	-12.1227
▁ignor	-12.1247
▁wav	-12.1248
▁undertake	-12.1275
vent	-12.1279
▁Ell	-12.1292
struction	-12.1294
gli	-12.13
04	-12.1309
uran	-12.1324
▁lik	-12.1331
otify	-12.1335
▁UN	-12.1378
▁perceiv	-12.139
LAN	-12.1399
lton	-12.1405
olar	-12.1437
▁Mone	-12.1466
kind	-12.1469
▁Dub	-12.1512
▁classifi	-12.1521
▁Jer	-12.1533
▁imper	-12.1541
uncan	-12.1575
▁illustrat	-12.1582
▁behav	-12.1585
▁ME	-12.1621
mpact	-12.1626
EO	-12.1655
:3	-12.1661
ttle	-12.1667
reasonabl	-12.1683
▁Mik	-12.169
▁intensi	-12.1722
34	-12.1732
▁spac	-12.174
▁gener	-12.1748
▁virtue	-12.1748
▁lea	-12.1774
OME	-12.1803
▁Economic	-12.1813
▁horizon	-12.1813
▁Prince	-12.1816
▁PR	-12.1824
illo	-12.1824
▁slop	-12.1861
▁provok	-12.1864
▁integrat	-12.19
▁semi	-12.1911
▁Act	-12.1911
▁conque	-12.1918
▁collaborate	-12.1934
▁municipalit	-12.1956
tein	-12.1965
▁PL	-12.1981
owl	-12.199
ression	-12.2012
trum	-12.2014
▁trop	-12.2018
▁Fran	-12.2021
▁Learn	-12.2039
▁volu	-12.2043
▁quot	-12.2059
45	-12.2066
▁stud	-12.2068
proof	-12.207
▁pleasur	-12.2074
people	-12.2074
club	-12.2074
rived	-12.2075
limit	-12.2077
pool	-12.2077
active	-12.2078
fire	-12.2078
▁Star	-12.2084
amount	-12.2087
kers	-12.2088
keep	-12.2089
▁Fern	-12.2092
type	-12.2102
help	-12.2107
cz	-12.2107
ghan	-12.2107
affirm	-12.2117
anche	-12.2117
▁kidnap	-12.2124
▁mal	-12.2124
▁Hous	-12.2131
▁frag	-12.2135
▁cohe	-12.2135
▁etern	-12.2136
MP	-12.2136
▁Rio	-12.2142
disput	-12.2142
▁journal	-12.2144
▁blend	-12.2149
RIS	-12.215
▁tomb	-12.2151
▁corn	-12.2156
▁flavo	-12.2159
▁Swed	-12.2159
atched	-12.2162
ynagogue	-12.2163
exual	-12.2164
▁Ari	-12.2164
mpse	-12.2165
▁Simp	-12.2168
▁Communi	-12.2169
▁decisi	-12.2169
▁Nutrition	-12.2169
▁Andalu	-12.217
ncreasing	-12.217
▁communicati	-12.2171
▁Journal	-12.2171
HAT	-12.2172
'(2:2:	-12.2172
ountain	-12.2173
▁candida	-12.2173
icroscope	-12.2173
athematic	-12.2173
▁specifi	-12.2173
rmina	-12.2173
ossil	-12.2173
▁psycho	-12.2173
urricul	-12.2173
ospital	-12.2174
▁technol	-12.2174
adio	-12.2174
relli	-12.2174
▁attentive	-12.2174
▁autonom	-12.2174
▁compassion	-12.2174
▁condemn	-12.2174
▁substantia	-12.2174
LOCK	-12.2174
ayoum	-12.2174
laborate	-12.2174
▁Adult	-12.2174
▁Caucasian	-12.2174
▁Djursholm	-12.2174
▁Electronic	-12.2174
▁FRIEND	-12.2174
▁Filip	-12.2174
▁Mathieu	-12.2174
▁Patricia	-12.2174
▁Pozna	-12.2174
▁Rubbish	-12.2174
▁Spaniard	-12.2174
▁Suggestions	-12.2174
▁Suleyman	-12.2174
▁TRANSPORT	-12.2174
▁Technical	-12.2174
▁Vatican	-12.2174
▁amphitheater	-12.2174
▁archaeologi	-12.2174
▁biscuit	-12.2174
▁corridor	-12.2174
▁cosmetic	-12.2174
▁dictate	-12.2174
▁dissuad	-12.2174
▁enlighten	-12.2174
▁enslave	-12.2174
▁extravagan	-12.2174
▁goalkeeper	-12.2174
▁illusion	-12.2174
▁inhibit	-12.2174
▁livelihood	-12.2174
▁overcrowd	-12.2174
▁parachut	-12.2174
▁parallel	-12.2174
▁pessimist	-12.2174
▁pesticide	-12.2174
▁rainbow	-12.2174
▁sausage	-12.2174
▁slipp	-12.2174
▁sponsor	-12.2174
▁squeeze	-12.2174
▁stereo	-12.2174
▁subtitle	-12.2174
▁tattoo	-12.2174
▁thunder	-12.2174
▁unavoidabl	-12.2174
▁unquestionabl	-12.2174
▁vegetarian	-12.2174
▁violation	-12.2174
▁widow	-12.2174
▁Brown	-12.2174
▁Christoph	-12.2174
▁Cooper	-12.2174
▁Factor	-12.2174
▁Holiday	-12.2174
▁Sebu	-12.2174
▁Village	-12.2174
▁centimet	-12.2174
▁contemplat	-12.2174
▁dismiss	-12.2174
▁echoe	-12.2174
▁endurance	-12.2174
▁interval	-12.2174
▁pilot	-12.2174
▁Memor	-12.2174
henko	-12.2174
▁Galicia	-12.2174
▁Jorge	-12.2174
▁dawn	-12.2174
▁google	-12.2174
▁nurture	-12.2174
▁postpone	-12.2174
▁provinc	-12.2174
▁Vega	-12.2174
▁http	-12.2174
▁Donau	-12.2174
▁Sindh	-12.2174
▁Tatar	-12.2174
▁feasib	-12.2174
▁Bandera	-12.2174
▁Flower	-12.2174
▁smash	-12.2174
▁Visual	-12.2174
activist	-12.2174
▁demonstration	-12.2174
▁diploma	-12.2174
▁metaboli	-12.2174
▁paddl	-12.2174
nowledge	-12.2174
▁discre	-12.2174
nocenc	-12.2174
▁Seven	-12.2174
▁cyber	-12.2174
▁protest	-12.2174
▁dizz	-12.2174
rbitra	-12.2174
▁infection	-12.2174
AGE	-12.2174
ITE	-12.2174
▁sanita	-12.2174
▁priest	-12.2174
▁settlement	-12.2174
▁enviroment	-12.2174
▁precaution	-12.2174
▁Bruno	-12.2174
▁circulate	-12.2174
▁Bennet	-12.2174
▁clip	-12.2174
▁OUR	-12.2174
▁indigen	-12.2174
▁electro	-12.2174
▁pirate	-12.2174
▁ambient	-12.2174
▁Carolin	-12.2174
▁fossil	-12.2174
undred	-12.2174
▁sentiment	-12.2174
▁appar	-12.2174
▁dread	-12.2174
ssenger	-12.2174
UB	-12.2174
▁prolif	-12.2174
▁2016	-12.2174
▁Nicol	-12.2175
▁Napol	-12.2175
▁spinach	-12.2175
htc	-12.2175
▁resum	-12.2175
▁Panda	-12.2175
▁utter	-12.2175
▁Petr	-12.2175
▁stew	-12.2175
▁whale	-12.2175
▁Grandma	-12.2175
▁Price	-12.2175
▁withstand	-12.2175
▁Mimi	-12.2175
▁maid	-12.2176
▁Heart	-12.2176
▁lact	-12.2176
▁humi	-12.2176
▁Under	-12.2176
▁pronounce	-12.2176
▁biologist	-12.2176
▁Bern	-12.2176
▁pavement	-12.2176
▁Morgan	-12.2177
▁random	-12.2177
▁premi	-12.2177
▁gut	-12.2177
▁inflat	-12.2177
deniabl	-12.2177
▁discourage	-12.2178
cuba	-12.2178
▁consol	-12.2178
▁1960	-12.2178
etti	-12.2178
▁Ltd	-12.2178
▁Link	-12.2178
▁guitarist	-12.2178
CC	-12.2179
▁Network	-12.2179
▁Appl	-12.2179
▁comprehensive	-12.2179
▁Canton	-12.2179
▁bookcase	-12.2179
▁illustration	-12.218
▁offend	-12.218
▁Northern	-12.218
mond	-12.218
omiz	-12.2181
ethod	-12.2181
▁Fellow	-12.2181
UM	-12.2182
▁Feel	-12.2182
▁pastime	-12.2182
▁Palm	-12.2182
NTR	-12.2182
▁persever	-12.2183
panish	-12.2183
▁fuck	-12.2183
▁Maintain	-12.2184
▁Ram	-12.2184
limpse	-12.2184
▁Send	-12.2184
coni	-12.2186
arrell	-12.2186
▁progressive	-12.2186
▁Athen	-12.2186
ECA	-12.2186
▁geograph	-12.2186
▁impatient	-12.2187
▁exert	-12.2187
▁disse	-12.2188
▁KD	-12.2189
▁Mario	-12.219
▁accomplishment	-12.219
▁mug	-12.2192
▁Nig	-12.2192
EW	-12.2193
▁candle	-12.2194
YS	-12.2195
▁saga	-12.2195
▁bung	-12.2195
▁assembl	-12.2196
▁Marco	-12.2197
cilia	-12.2198
Border	-12.2199
▁auditor	-12.2199
▁Gold	-12.2201
▁whim	-12.2202
mination	-12.2202
▁blender	-12.2202
▁credib	-12.2203
▁linear	-12.2203
▁pole	-12.2203
mmediatel	-12.2204
▁lap	-12.2205
▁Rosa	-12.2205
▁Nea	-12.2205
onroe	-12.2208
▁sailor	-12.2208
▁Fall	-12.2209
▁Authorit	-12.2209
▁ABC	-12.2209
▁Creat	-12.221
▁conta	-12.2211
▁harmon	-12.2211
▁housewi	-12.2211
▁robber	-12.2212
▁fragil	-12.2213
icial	-12.2219
▁Era	-12.2221
▁fatal	-12.2222
▁Aria	-12.2223
▁Annabel	-12.2223
▁flag	-12.2224
▁Parc	-12.2225
▁operator	-12.2226
▁differentiate	-12.2227
▁curve	-12.2228
▁worm	-12.2228
▁scou	-12.2229
▁Agu	-12.2229
▁Change	-12.2229
▁Regula	-12.2229
▁confortab	-12.2234
nez	-12.2239
afra	-12.2239
cous	-12.224
▁reign	-12.2241
PAR	-12.2244
rtation	-12.2246
▁Fir	-12.2246
▁Hur	-12.2247
▁Pia	-12.2247
▁misus	-12.2257
▁clap	-12.2258
▁Nar	-12.2264
▁56	-12.2266
▁stream	-12.2267
ological	-12.2269
▁grin	-12.2271
▁ache	-12.2282
hail	-12.2284
▁Vik	-12.2289
ertia	-12.2291
▁Nova	-12.2296
nnie	-12.2297
▁permitt	-12.23
▁Rest	-12.2316
▁revolve	-12.2319
▁scan	-12.2324
▁Cro	-12.2328
lend	-12.2337
02	-12.2339
▁slog	-12.234
▁smo	-12.2343
▁carton	-12.2346
ET	-12.2354
▁Cord	-12.236
▁processor	-12.2364
▁Mona	-12.2376
asha	-12.2381
SCO	-12.2384
oyal	-12.2391
▁declin	-12.2392
▁Mill	-12.2407
▁Aust	-12.2407
US	-12.2413
mou	-12.2418
▁Mac	-12.2425
▁jewell	-12.2428
ISS	-12.2436
▁remark	-12.245
crative	-12.2475
CU	-12.249
faithful	-12.2511
▁Tick	-12.2516
OT	-12.2522
▁catastrophe	-12.2529
rez	-12.2533
NCE	-12.2534
▁Band	-12.2544
▁dau	-12.2553
rance	-12.2557
INO	-12.2569
minister	-12.2575
azar	-12.2588
▁painter	-12.2588
▁competenc	-12.2588
▁Mall	-12.2635
▁escap	-12.2646
quar	-12.2656
oba	-12.267
▁cricketer	-12.2699
viv	-12.2705
rko	-12.2714
▁Manda	-12.2719
riminal	-12.273
nsic	-12.2734
▁performer	-12.2739
mount	-12.2745
▁methodolog	-12.275
▁clos	-12.2757
ographic	-12.2758
▁Lind	-12.2774
USS	-12.2786
acro	-12.2798
▁Mira	-12.2804
kin	-12.281
vity	-12.2813
▁Chich	-12.2828
DER	-12.283
ption	-12.2847
RO	-12.2854
▁contaminat	-12.2899
mperial	-12.29
ruise	-12.2901
▁vibra	-12.2908
dfather	-12.2946
65	-12.2949
▁Vig	-12.2962
▁Dam	-12.3002
coasters	-12.3003
5000	-12.3003
hang	-12.3009
▁donat	-12.3039
▁Polluti	-12.3127
erminat	-12.3136
porter	-12.3143
▁Disco	-12.3146
bab	-12.3165
rrels	-12.3177
▁medal	-12.3227
▁prior	-12.3233
▁Friend	-12.3249
ltimate	-12.326
▁copi	-12.3261
arna	-12.3304
azi	-12.331
▁Roo	-12.3312
▁NOT	-12.332
lade	-12.3351
LI	-12.3371
lock	-12.3372
aya	-12.3393
place	-12.3401
▁typ	-12.3412
▁plac	-12.3413
▁Tea	-12.3417
cure	-12.3438
lley	-12.3441
bba	-12.3443
▁Improv	-12.3449
▁innovat	-12.3479
stream	-12.3496
spread	-12.3502
claim	-12.3502
popular	-12.3502
You	-12.3502
technology	-12.3502
shore	-12.3503
comfort	-12.3503
games	-12.3503
For	-12.3513
spring	-12.3525
▁Sophi	-12.3528
confortabl	-12.3532
▁logistic	-12.3544
half	-12.3547
productive	-12.3548
▁Lev	-12.3554
▁equi	-12.3555
30	-12.3568
saw	-12.357
RS	-12.3575
hold	-12.3578
▁Jess	-12.3578
play	-12.359
ignificant	-12.3592
separ	-12.3592
raft	-12.3597
estimate	-12.3597
▁blank	-12.36
▁inhabit	-12.3601
efinite	-12.3602
'(2:1:	-12.3602
▁honour	-12.3602
▁Amsterdam	-12.3602
▁Architect	-12.3602
▁Depend	-12.3602
▁Leader	-12.3602
▁Plastic	-12.3602
▁abundan	-12.3602
▁acquaintance	-12.3602
▁armchair	-12.3602
▁certification	-12.3602
▁consecutive	-12.3602
▁earthquake	-12.3602
▁equilibr	-12.3602
▁evoke	-12.3602
▁intruder	-12.3602
▁knife	-12.3602
▁patriotism	-12.3602
▁pharmaceutical	-12.3602
▁retreat	-12.3602
▁shopaholic	-12.3602
▁Sleep	-12.3602
▁Warrior	-12.3602
▁anniversar	-12.3602
▁clarify	-12.3602
▁endeavo	-12.3602
▁entretain	-12.3602
▁feminin	-12.3602
▁nominate	-12.3602
▁warrior	-12.3602
▁wreck	-12.3602
accio	-12.3602
▁combat	-12.3602
▁exterior	-12.3602
▁clown	-12.3602
▁Capita	-12.3602
▁Crowd	-12.3602
▁sweep	-12.3602
buster	-12.3602
▁Atlanti	-12.3602
▁Autum	-12.3602
▁sneak	-12.3602
oxide	-12.3602
▁awake	-12.3602
▁vault	-12.3602
▁patch	-12.3602
▁Sound	-12.3602
▁hazard	-12.3602
▁upgrade	-12.3602
▁Austria	-12.3602
▁splend	-12.3603
▁Believ	-12.3603
▁Arsen	-12.3603
▁dominan	-12.3603
▁flip	-12.3603
▁traged	-12.3603
▁bullet	-12.3603
▁demolish	-12.3603
▁pillow	-12.3603
▁bump	-12.3603
▁attain	-12.3604
▁flourish	-12.3604
▁diner	-12.3604
▁vocation	-12.3604
▁Break	-12.3604
▁cheep	-12.3604
▁Downto	-12.3604
▁balloon	-12.3604
▁blanket	-12.3605
▁fortnight	-12.3605
▁Journalist	-12.3605
▁Castell	-12.3605
▁Terri	-12.3606
▁lung	-12.3606
▁fool	-12.3606
EAS	-12.3607
▁DJ	-12.3607
ltruis	-12.3607
▁invade	-12.3607
▁sang	-12.3607
▁mock	-12.3607
▁comedian	-12.3608
▁Vivi	-12.3608
▁reviv	-12.3609
▁Sim	-12.3609
▁Kenne	-12.3609
▁ecologist	-12.361
▁shuttle	-12.3611
▁socio	-12.3612
▁syst	-12.3612
kyo	-12.3612
strain	-12.3613
▁thorn	-12.3614
▁punch	-12.3615
▁tolerate	-12.3616
▁leaf	-12.3616
iques	-12.3616
▁posture	-12.3616
▁bang	-12.3617
▁terrific	-12.3619
scape	-12.362
▁catholi	-12.3621
▁comprehensi	-12.3621
▁inspector	-12.3623
▁racial	-12.3623
▁Wood	-12.3623
▁Up	-12.3626
▁Glo	-12.3628
SL	-12.3636
annon	-12.3639
constitution	-12.3641
▁calculat	-12.3644
▁Valle	-12.3645
▁pave	-12.3646
▁Alma	-12.3653
pstick	-12.3654
oration	-12.3654
▁microscope	-12.3654
▁reflection	-12.3655
▁5-	-12.3655
gita	-12.3655
▁Run	-12.3657
▁logistical	-12.3661
▁wicke	-12.3661
▁450	-12.3666
▁slice	-12.3666
▁quer	-12.3668
▁Wu	-12.3671
▁insulin	-12.3673
:'	-12.3687
▁eag	-12.369
▁paradi	-12.3695
▁alternat	-12.3696
▁formation	-12.3699
▁secretar	-12.3715
immer	-12.3725
vata	-12.3726
ewspaper	-12.3731
▁rob	-12.3737
pay	-12.3744
▁Gum	-12.3756
effi	-12.3775
▁Nik	-12.382
▁Cristi	-12.3835
ieve	-12.3844
▁Jud	-12.3852
▁significan	-12.3857
liz	-12.3868
▁Alta	-12.3873
fare	-12.3915
abri	-12.393
avel	-12.3955
hol	-12.3965
runk	-12.3987
▁Vil	-12.3991
▁gasp	-12.3995
▁Kra	-12.4015
▁400	-12.4024
▁analys	-12.4031
LE	-12.4087
rticle	-12.4097
▁Reg	-12.4122
agi	-12.4142
ENG	-12.4146
lush	-12.4173
weekdays	-12.4178
abay	-12.4194
▁kingdo	-12.4199
▁Lou	-12.4206
▁Exc	-12.4282
▁cautio	-12.4284
NAL	-12.4286
▁Belg	-12.4289
lau	-12.4293
▁Medic	-12.4319
lient	-12.4323
▁Norw	-12.4355
interpretation	-12.4357
PM	-12.437
▁liter	-12.4373
200	-12.4383
rough	-12.4403
▁vei	-12.4437
▁Tang	-12.444
pur	-12.4455
▁Reduc	-12.45
-3	-12.4506
recipi	-12.451
uttle	-12.4521
▁Classic	-12.4522
▁jok	-12.4527
iochemi	-12.4536
xcept	-12.4541
heck	-12.4551
abu	-12.456
▁interven	-12.4562
▁blu	-12.4565
LD	-12.459
CAN	-12.4632
ampi	-12.4657
efficienc	-12.4691
▁thr	-12.4702
▁saf	-12.4706
bour	-12.471
istern	-12.471
▁undertak	-12.4756
otte	-12.477
onora	-12.4805
rah	-12.4856
▁foc	-12.4884
90	-12.489
▁enhanc	-12.4909
▁Recommendation	-12.4917
▁muscle	-12.4919
▁shoe	-12.4922
odu	-12.4923
▁Dome	-12.4928
22	-12.4979
raq	-12.4993
morrow	-12.5015
▁arche	-12.5022
SO	-12.504
▁exclud	-12.5058
▁unbea	-12.5063
15	-12.5071
56	-12.5081
rup	-12.5096
▁antiqu	-12.5102
▁relian	-12.5105
arcelo	-12.5119
irplane	-12.5124
▁horr	-12.5124
▁Market	-12.5133
born	-12.5144
imagin	-12.5146
▁precisi	-12.5152
ozen	-12.5156
park	-12.5158
unning	-12.5158
bound	-12.5164
storm	-12.5165
acceptable	-12.5166
mono	-12.5167
respective	-12.5167
confiden	-12.5168
attractive	-12.5169
efficient	-12.5169
glass	-12.5169
complete	-12.5169
What	-12.5169
style	-12.5169
shop	-12.517
path	-12.517
diving	-12.5173
▁territor	-12.5174
mouth	-12.5175
enjoy	-12.5182
touris	-12.5183
brows	-12.5184
box	-12.5184
Oh	-12.5185
voli	-12.5186
▁idio	-12.5198
base	-12.5199
change	-12.5201
▁Rob	-12.5208
▁excellen	-12.5208
▁gla	-12.5229
orsemen	-12.5231
▁audit	-12.5233
▁hack	-12.5235
▁recip	-12.5235
▁rela	-12.5242
shine	-12.5245
▁Roma	-12.525
▁rumo	-12.525
▁zo	-12.525
scient	-12.5251
ibil	-12.5252
▁mechanic	-12.5253
▁Trans	-12.5255
merican	-12.5255
▁Palerm	-12.5258
uspect	-12.5258
▁numb	-12.526
▁elect	-12.5261
▁administrat	-12.5263
▁compensat	-12.5263
▁recreat	-12.5263
▁Summ	-12.5263
▁extinct	-12.5263
▁contradict	-12.5263
▁Champ	-12.5264
▁opini	-12.5265
▁Scient	-12.5265
▁narrat	-12.5266
nnovati	-12.5267
▁flour	-12.5267
▁Colomb	-12.5267
ridge	-12.5267
USE	-12.5268
ommittee	-12.5268
ffective	-12.5268
lectric	-12.5268
acilities	-12.5268
astronom	-12.5268
ardini	-12.5268
etective	-12.5268
▁frame	-12.5268
vourite	-12.5269
▁dialog	-12.5269
riginal	-12.5269
decipher	-12.5269
▁Aqua	-12.5269
▁Circu	-12.5269
▁Principal	-12.5269
▁STUD	-12.5269
▁custod	-12.5269
▁geometr	-12.5269
▁hypothetical	-12.5269
▁indifferent	-12.5269
▁interrogat	-12.5269
▁premature	-12.5269
▁rigorous	-12.5269
▁vigorous	-12.5269
SHIP	-12.5269
TIC	-12.5269
assim	-12.5269
▁Approach	-12.5269
▁Arthur	-12.5269
▁Benefit	-12.5269
▁DVD	-12.5269
▁ENVIRONMENT	-12.5269
▁FACILITIES	-12.5269
▁Ferreira	-12.5269
▁Focus	-12.5269
▁Friberga	-12.5269
▁Hogwarts	-12.5269
▁Implement	-12.5269
▁Kitchen	-12.5269
▁Kuwait	-12.5269
▁Natalia	-12.5269
▁Norouz	-12.5269
▁OMG	-12.5269
▁REPORT	-12.5269
▁Reference	-12.5269
▁Respect	-12.5269
▁Rubia	-12.5269
▁Serena	-12.5269
▁Strategy	-12.5269
▁Success	-12.5269
▁Suzanne	-12.5269
▁TRA	-12.5269
▁WITH	-12.5269
▁accelerate	-12.5269
▁acquisiti	-12.5269
▁boycott	-12.5269
▁brewer	-12.5269
▁citadel	-12.5269
▁colony	-12.5269
▁econometric	-12.5269
▁embodie	-12.5269
▁enlarge	-12.5269
▁flirt	-12.5269
▁galax	-12.5269
▁incompetent	-12.5269
▁mislead	-12.5269
▁papparaz	-12.5269
▁persuasi	-12.5269
▁photocopie	-12.5269
▁predator	-12.5269
▁psychiatri	-12.5269
▁puplic	-12.5269
▁redundan	-12.5269
▁refute	-12.5269
▁republic	-12.5269
▁sketch	-12.5269
▁sorrow	-12.5269
▁spruce	-12.5269
▁surrender	-12.5269
▁treadmill	-12.5269
▁valori	-12.5269
(3:2:1	-12.5269
NFOR	-12.5269
ohemia	-12.5269
▁Belarus	-12.5269
▁COUNTR	-12.5269
▁Discuss	-12.5269
▁Efficien	-12.5269
▁Piotr	-12.5269
▁Prison	-12.5269
▁Serbia	-12.5269
▁Silvi	-12.5269
▁Skill	-12.5269
▁THAN	-12.5269
▁anemia	-12.5269
▁blossom	-12.5269
▁discard	-12.5269
▁emigrat	-12.5269
▁iPad	-12.5269
▁imprison	-12.5269
▁instantaneous	-12.5269
▁landfill	-12.5269
▁linguist	-12.5269
▁medication	-12.5269
▁navigat	-12.5269
▁paradigm	-12.5269
▁parcel	-12.5269
▁poeple	-12.5269
▁postcard	-12.5269
▁procrastinat	-12.5269
▁rectang	-12.5269
▁signature	-12.5269
▁stroll	-12.5269
▁ventilat	-12.5269
sapear	-12.5269
▁Affair	-12.5269
▁Dragon	-12.5269
▁Varela	-12.5269
▁blister	-12.5269
▁distort	-12.5269
▁gesture	-12.5269
▁reagent	-12.5269
gregat	-12.5269
▁incorrect	-12.5269
▁legislat	-12.5269
▁suicid	-12.5269
▁Silesia	-12.5269
▁detox	-12.5269
▁anonym	-12.5269
▁Andreia	-12.5269
▁Tourist	-12.5269
▁UNDER	-12.5269
▁waterfall	-12.5269
▁Ambas	-12.5269
▁Nichol	-12.5269
▁compulsi	-12.5269
▁crystal	-12.5269
▁inhuman	-12.5269
▁gyps	-12.5269
blan	-12.5269
agua	-12.5269
▁coloni	-12.5269
▁sensor	-12.5269
▁Popular	-12.5269
:15	-12.5269
▁Guadal	-12.5269
▁Jump	-12.5269
▁detach	-12.5269
hocolat	-12.5269
▁wrongdoing	-12.5269
▁Jesus	-12.5269
▁fertilizer	-12.5269
▁refine	-12.5269
▁rope	-12.5269
5500	-12.5269
▁mosque	-12.5269
valid	-12.5269
▁Prior	-12.5269
▁Stela	-12.5269
▁scold	-12.5269
▁Motor	-12.5269
▁seduc	-12.5269
▁Sustain	-12.5269
▁biograph	-12.5269
▁Attach	-12.5269
▁Desser	-12.5269
TTT	-12.5269
▁Islam	-12.5269
▁systematic	-12.5269
▁newcomer	-12.5269
uggl	-12.5269
▁Philip	-12.5269
▁superstar	-12.5269
uzz	-12.5269
▁WHO	-12.5269
▁LOOK	-12.5269
▁deteri	-12.5269
▁unstable	-12.5269
ENTS	-12.5269
▁draft	-12.5269
:"	-12.5269
▁freak	-12.5269
▁protein	-12.5269
▁resent	-12.5269
▁statistic	-12.5269
▁palm	-12.5269
rizio	-12.527
▁Sense	-12.527
RITE	-12.527
▁haunt	-12.527
▁chall	-12.527
▁UNE	-12.527
▁trashcan	-12.527
▁activat	-12.527
▁convention	-12.527
▁honey	-12.527
▁Purpose	-12.527
▁bushfire	-12.527
▁snatch	-12.527
▁hyper	-12.527
▁nause	-12.527
▁parame	-12.527
ANO	-12.527
'(2:2:2	-12.527
▁prophe	-12.527
▁restrain	-12.527
▁cease	-12.527
ajo	-12.527
▁Beyaz	-12.527
▁Half	-12.527
▁drain	-12.527
▁loop	-12.5271
▁Organiz	-12.5271
ermat	-12.5271
▁civilisation	-12.5271
▁roleplay	-12.5271
▁Marcelo	-12.5272
▁Alexandra	-12.5272
▁export	-12.5272
CK	-12.5272
IKE	-12.5272
▁disgust	-12.5272
UG	-12.5272
▁Make	-12.5272
▁executive	-12.5272
▁worship	-12.5272
▁pony	-12.5272
▁Trevi	-12.5272
▁PRO	-12.5272
▁Mountain	-12.5272
▁Monterr	-12.5272
▁Scientist	-12.5272
▁Drink	-12.5273
▁Sula	-12.5273
▁expir	-12.5273
▁poach	-12.5273
ometer	-12.5273
▁horrifi	-12.5273
hara	-12.5273
▁Geolog	-12.5273
▁Email	-12.5273
▁steer	-12.5274
▁moped	-12.5274
▁Chair	-12.5274
▁Andalusia	-12.5274
▁Stop	-12.5274
▁humankind	-12.5274
▁Rafa	-12.5274
▁Francois	-12.5275
▁Rap	-12.5275
▁mortal	-12.5275
quiring	-12.5275
▁Lect	-12.5275
lection	-12.5276
▁Alva	-12.5276
erior	-12.5276
ASS	-12.5276
▁neat	-12.5276
▁Light	-12.5276
ilence	-12.5276
▁Paulina	-12.5277
▁Holland	-12.5277
▁Keir	-12.5277
IK	-12.5278
▁proto	-12.5278
igure	-12.5278
▁12:00	-12.5278
housand	-12.5278
▁friday	-12.5278
▁packet	-12.5279
guez	-12.5279
51	-12.5279
▁pip	-12.5279
▁Palerma	-12.5279
▁blast	-12.528
▁liar	-12.528
▁Chain	-12.5281
▁Initia	-12.5281
▁midday	-12.5282
▁10,000	-12.5282
▁premise	-12.5282
▁quarrel	-12.5283
▁discharg	-12.5283
▁synagogue	-12.5284
▁......	-12.5284
▁Vita	-12.5284
▁Rick	-12.5285
▁CON	-12.5285
▁drumm	-12.5285
erven	-12.5285
▁empir	-12.5285
▁ego	-12.5286
▁purifie	-12.5286
▁judgement	-12.5288
▁Surf	-12.5289
quaint	-12.5289
lfield	-12.5289
▁Gha	-12.5289
▁simplif	-12.5289
▁memorize	-12.529
▁Luis	-12.529
ociety	-12.5291
▁guideline	-12.5291
otmail	-12.5291
▁upload	-12.5291
▁Doub	-12.5292
▁Roche	-12.5292
▁Maxi	-12.5292
▁Montse	-12.5292
▁allocate	-12.5293
▁250	-12.5294
nius	-12.5295
▁attachment	-12.5295
litz	-12.5295
53	-12.5295
▁Luka	-12.5296
▁exha	-12.5297
▁governor	-12.5299
▁coverage	-12.5299
▁12-	-12.5299
▁frustration	-12.53
▁Sau	-12.53
▁Job	-12.5301
▁dash	-12.5302
▁Gate	-12.5303
▁rotat	-12.5303
IG	-12.5304
▁Moral	-12.5304
▁Robot	-12.5305
▁displac	-12.5306
▁rasp	-12.5307
▁chic	-12.5308
▁resona	-12.5308
▁Iran	-12.5309
▁tease	-12.5311
▁Member	-12.5311
rinkl	-12.5311
▁Traditional	-12.5312
AE	-12.5312
▁hamm	-12.5312
▁entit	-12.5313
▁Tomb	-12.5315
▁mentor	-12.5317
orci	-12.5317
▁Kris	-12.5318
gian	-12.5318
).	-12.5319
▁Fol	-12.5319
NT	-12.5321
▁Marta	-12.5321
▁Hop	-12.5324
▁eternal	-12.5325
▁Rena	-12.5326
▁Gradua	-12.5326
▁wage	-12.5326
▁Book	-12.5328
▁flatter	-12.5333
▁madam	-12.5334
▁allowance	-12.5334
▁Alc	-12.5334
▁Benz	-12.5337
▁tui	-12.5337
▁ubi	-12.5344
▁Cau	-12.5344
biolog	-12.5351
▁Movi	-12.5353
▁convers	-12.5354
▁Gil	-12.5355
inder	-12.5356
▁Nadi	-12.5361
▁educator	-12.5374
zard	-12.5383
▁structur	-12.5389
lvani	-12.539
quo	-12.5405
▁personalise	-12.5406
ribbl	-12.5407
▁Barb	-12.5425
▁Elli	-12.5432
▁esc	-12.5437
▁Acc	-12.5444
▁Cheer	-12.5456
▁remo	-12.546
▁Valeri	-12.5461
▁Salo	-12.5467
IVE	-12.5469
▁shipp	-12.5484
troph	-12.5485
▁Gir	-12.55
▁Hungar	-12.5519
▁reci	-12.5549
,500	-12.5554
▁minu	-12.5568
ackin	-12.5573
▁authoriz	-12.5575
▁colli	-12.5584
No	-12.5589
▁Kh	-12.5589
OPE	-12.5601
92	-12.561
▁baker	-12.5615
----------------	-12.5625
▁steadi	-12.5628
▁autop	-12.5634
omestic	-12.5635
▁mul	-12.5653
▁Advent	-12.5655
patio	-12.5669
▁Managem	-12.5677
▁Oz	-12.573
▁Luk	-12.5733
▁improvis	-12.5752
▁nec	-12.577
▁Mig	-12.578
PO	-12.5839
indu	-12.5861
imp	-12.5885
revi	-12.5897
big	-12.5917
jections	-12.5919
inera	-12.592
41	-12.5931
OIN	-12.595
▁Romania	-12.5996
4-	-12.602
▁Dei	-12.6025
66	-12.6034
▁coma	-12.6058
huttle	-12.6073
▁tripp	-12.6128
▁vibrati	-12.6158
▁fili	-12.6181
odging	-12.6195
bling	-12.6281
▁FINA	-12.636
caution	-12.6384
▁pati	-12.6409
▁Kater	-12.6437
▁Face	-12.6485
FO	-12.6509
▁Nap	-12.6576
▁cleanl	-12.6593
▁Nase	-12.6669
phobia	-12.6693
▁Chiar	-12.6697
▁logic	-12.6715
ARD	-12.6754
▁Batt	-12.6765
GU	-12.6774
▁physi	-12.6795
inancial	-12.6805
▁Priva	-12.6845
▁tastie	-12.6867
chipo	-12.6874
asque	-12.6895
▁accumulat	-12.6903
▁lip	-12.693
augh	-12.6957
▁baza	-12.6963
▁exchang	-12.6967
▁spec	-12.703
▁strik	-12.7078
▁rescu	-12.7081
MS	-12.7104
▁vegeta	-12.7118
▁Surpris	-12.7132
awns	-12.7133
▁Ecolog	-12.7135
▁ignoran	-12.7143
▁justifi	-12.7162
bank	-12.7162
▁Bibl	-12.7165
▁parad	-12.7165
organic	-12.7167
▁archi	-12.7168
visual	-12.7168
common	-12.7169
stopp	-12.7169
Michael	-12.717
reign	-12.7173
▁atmospher	-12.7182
master	-12.7183
▁Chang	-12.719
hero	-12.719
46	-12.7191
▁conclu	-12.7198
▁terroris	-12.7209
ernal	-12.7216
derland	-12.7231
arrow	-12.7242
▁unknow	-12.7245
AME	-12.7252
ndi	-12.7252
▁ji	-12.7258
cientific	-12.7259
talk	-12.7259
▁drum	-12.726
▁experi	-12.726
trike	-12.7263
amboo	-12.7265
ranslation	-12.7265
nspection	-12.7265
▁modif	-12.7265
▁impossib	-12.7266
▁langu	-12.7268
ustomer	-12.7268
stablish	-12.7268
elebrit	-12.7268
imber	-12.7268
▁envirom	-12.7268
▁impro	-12.7268
olunteer	-12.7269
▁Enclos	-12.7269
▁subconscious	-12.7269
TAKE	-12.7269
elsius	-12.7269
▁Abbey	-12.7269
▁Bangkok	-12.7269
▁Building	-12.7269
▁Channel	-12.7269
▁Debate	-12.7269
▁Entertainment	-12.7269
▁brazillian	-12.7269
▁compound	-12.7269
▁disrespect	-12.7269
▁exaggerat	-12.7269
▁handicraft	-12.7269
▁panorama	-12.7269
▁pedagog	-12.7269
▁persecut	-12.7269
▁prompt	-12.7269
▁qualitative	-12.7269
▁rehearsal	-12.7269
▁scrap	-12.7269
▁vaccine	-12.7269
▁Provid	-12.7269
▁colossal	-12.7269
▁expedition	-12.7269
▁neglig	-12.7269
▁omelet	-12.7269
▁patron	-12.7269
▁reminisce	-12.7269
▁Problem	-12.7269
▁Reason	-12.7269
▁anticipat	-12.7269
▁sanct	-12.7269
▁evade	-12.7269
▁identifie	-12.7269
▁molest	-12.7269
▁Cumings	-12.7269
Columb	-12.7269
▁freelance	-12.7269
▁goverment	-12.7269
OTHER	-12.7269
▁bulid	-12.7269
▁complian	-12.7269
▁Subway	-12.7269
▁Importan	-12.7269
▁sarah	-12.7269
▁Nazis	-12.7269
▁subscribe	-12.7269
▁Cycl	-12.7269
▁Industrial	-12.7269
DAY	-12.7269
▁Pizza	-12.7269
▁hairstyle	-12.7269
▁pharmac	-12.7269
▁Superma	-12.7269
▁Theatre	-12.7269
▁ambience	-12.7269
▁Carib	-12.7269
nderground	-12.7269
▁interchange	-12.727
▁devise	-12.727
",	-12.727
▁brainstorm	-12.727
▁Leav	-12.727
▁hoop	-12.727
▁insistent	-12.727
xcellent	-12.727
▁aliment	-12.727
▁inclin	-12.727
▁neuro	-12.727
▁Goodbye	-12.7271
▁Championship	-12.7271
▁collaborative	-12.7271
▁Hagi	-12.7271
▁Garden	-12.7272
▁pollutant	-12.7272
▁provision	-12.7272
▁recur	-12.7273
▁Heights	-12.7273
▁Tec	-12.7273
▁speculation	-12.7274
gnin	-12.7274
▁Limit	-12.7274
▁distinctive	-12.7274
▁counsel	-12.7274
▁disturbance	-12.7276
▁compensation	-12.7276
▁recreation	-12.7276
▁Alps	-12.7277
▁prude	-12.7277
▁2500	-12.7278
urkey	-12.7278
onument	-12.728
▁deficien	-12.7281
posibil	-12.7281
▁Viet	-12.7282
▁banish	-12.7283
▁disappointment	-12.7283
▁Six	-12.7283
urname	-12.7284
▁dragon	-12.7284
NSI	-12.7284
eutic	-12.7285
▁Fourth	-12.7286
▁gig	-12.7289
▁humbl	-12.729
▁REV	-12.7294
▁spree	-12.7298
▁Clim	-12.73
▁foresee	-12.7306
▁Letter	-12.7307
laj	-12.7308
▁cele	-12.731
▁cancell	-12.7326
potent	-12.7327
▁capitalis	-12.7349
EE	-12.7374
rugg	-12.738
▁cultivat	-12.7417
▁Pep	-12.7443
ilitar	-12.7463
▁grav	-12.7465
▁bullie	-12.7477
▁arouse	-12.7478
▁surp	-12.7502
▁worthie	-12.7537
▁Basilic	-12.7552
ranspor	-12.756
▁condo	-12.7588
believable	-12.7645
foo	-12.7713
▁adventur	-12.7748
ppor	-12.7806
stead	-12.7976
ollution	-12.7995
blic	-12.8025
ALL	-12.8108
erenc	-12.8118
UR	-12.8149
▁Ahm	-12.8168
▁Yea	-12.8185
MAS	-12.8232
arrel	-12.8257
witch	-12.8453
ETH	-12.8465
▁slid	-12.8511
hemical	-12.8543
ranz	-12.8568
▁choi	-12.8587
▁Adel	-12.8614
acit	-12.8716
▁Financ	-12.8719
versity	-12.8776
▁RECOMMENDAT	-12.8846
▁schedul	-12.8876
▁conscien	-12.8987
hearted	-12.8992
IET	-12.9002
ample	-12.9015
xample	-12.9051
▁imitat	-12.9117
ocrat	-12.9156
MIR	-12.9174
venture	-12.9194
Vinc	-12.9262
▁9:	-12.9262
ubio	-12.9287
▁possibil	-12.9357
paper	-12.9383
▁minist	-12.939
▁prince	-12.9408
clusive	-12.9428
▁Divi	-12.9436
▁Chemi	-12.9441
PLE	-12.9459
DC	-12.9462
▁revolv	-12.9465
▁industrialis	-12.9504
esthetic	-12.954
▁automobil	-12.9573
utomobile	-12.9578
pplication	-12.9582
rgu	-12.9585
▁Adri	-12.9588
you	-12.9589
lubb	-12.9604
▁conferenc	-12.9605
▁tabl	-12.9609
dresses	-12.9617
▁identi	-12.9622
▁attitud	-12.9629
▁rug	-12.9633
joy	-12.9647
▁hydro	-12.9652
corporation	-12.9665
english	-12.9666
point	-12.9667
adequate	-12.9667
degrad	-12.9667
equal	-12.9667
official	-12.9668
determine	-12.9668
2015	-12.9668
complicate	-12.9668
sweet	-12.9669
appropriate	-12.9669
doctor	-12.9669
video	-12.9669
economic	-12.9669
current	-12.9669
guide	-12.9669
natural	-12.9669
consider	-12.9669
attend	-12.967
section	-12.967
memor	-12.967
sheets	-12.967
group	-12.967
▁instinct	-12.9671
But	-12.9672
relat	-12.9673
How	-12.9675
social	-12.968
TR	-12.9681
▁suitabl	-12.9687
▁propaga	-12.9693
flag	-12.9694
▁Tradition	-12.9701
▁explo	-12.9702
chroni	-12.9705
▁arrogan	-12.9705
▁babysit	-12.9706
inister	-12.9724
nounce	-12.9742
▁pizz	-12.9752
▁Supp	-12.9753
martphone	-12.9759
oftware	-12.9759
▁Raf	-12.9759
ightsee	-12.9759
upporter	-12.976
▁mort	-12.9761
ADE	-12.9761
hriller	-12.9762
▁speculat	-12.9763
▁exhibit	-12.9763
mpress	-12.9764
NFL	-12.9764
▁Olymp	-12.9764
▁disgu	-12.9764
▁advent	-12.9765
▁ficti	-12.9765
▁Antoni	-12.9765
orrect	-12.9765
nvestigation	-12.9765
▁Recommend	-12.9766
nternship	-12.9766
▁hospita	-12.9766
▁Econom	-12.9766
ggin	-12.9766
▁aggressi	-12.9767
GRO	-12.9767
▁stylis	-12.9767
ickpocket	-12.9767
▁Colosse	-12.9767
sburg	-12.9767
rejudice	-12.9767
rofessional	-12.9767
rogress	-12.9767
NN	-12.9768
roposal	-12.9768
▁empha	-12.9768
▁occupa	-12.9768
▁Cacharrer	-12.9768
IDE	-12.9768
ongratulation	-12.9768
▁pira	-12.9768
aptain	-12.9768
andidate	-12.9768
▁scholar	-12.9768
ault	-12.9768
tinguish	-12.9768
▁Excel	-12.9768
▁negati	-12.9768
onference	-12.9768
istribution	-12.9768
▁Industr	-12.9768
epresentative	-12.9768
▁remem	-12.9768
▁FAVO	-12.9769
▁pupp	-12.9769
imension	-12.9769
LOM	-12.9769
percepti	-12.9769
------	-12.9769
▁Alternative	-12.9769
▁Consultan	-12.9769
▁Grammar	-12.9769
▁INTEREST	-12.9769
▁Monfrag	-12.9769
▁aparat	-12.9769
▁astound	-12.9769
▁diagnos	-12.9769
▁disorgani	-12.9769
▁encyclop	-12.9769
▁impulsive	-12.9769
▁introvert	-12.9769
▁lavish	-12.9769
▁overshadow	-12.9769
▁unrival	-12.9769
'(2:1:10	-12.9769
'(4:	-12.9769
..........	-12.9769
ARIO	-12.9769
ERNE	-12.9769
OST	-12.9769
UND	-12.9769
VEMENTS	-12.9769
cebreakers	-12.9769
izdehbedar	-12.9769
rquez	-12.9769
uidweg	-12.9769
▁6:20	-12.9769
▁ADV	-12.9769
▁Alaska	-12.9769
▁Audience	-12.9769
▁BLOG	-12.9769
▁BROTHER	-12.9769
▁Bartolo	-12.9769
▁CHANGE	-12.9769
▁COURSE	-12.9769
▁Commercial	-12.9769
▁Continu	-12.9769
▁Corporat	-12.9769
▁DEVELOP	-12.9769
▁Dimitri	-12.9769
▁Echevarria	-12.9769
▁Elvira	-12.9769
▁Ettore	-12.9769
▁Evgeni	-12.9769
▁FUTUR	-12.9769
▁Fabio	-12.9769
▁Felipe	-12.9769
▁Fennstermacher	-12.9769
▁Gabriel	-12.9769
▁Integrat	-12.9769
▁Javier	-12.9769
▁Katherine	-12.9769
▁LIFE	-12.9769
▁Lambs	-12.9769
▁MEDIC	-12.9769
▁Maciej	-12.9769
▁Mechanic	-12.9769
▁Meeuws	-12.9769
▁Melbourn	-12.9769
▁Melissa	-12.9769
▁Monika	-12.9769
▁OCPM	-12.9769
▁PROGRAMMES	-12.9769
▁Paparazz	-12.9769
▁Priscil	-12.9769
▁Protection	-12.9769
▁SPAIN	-12.9769
▁SPECIAL	-12.9769
▁Scholar	-12.9769
▁Senegal	-12.9769
▁Sokolov	-12.9769
▁Souvenirs	-12.9769
▁TENNIS	-12.9769
▁TOURIST	-12.9769
▁TREATMENT	-12.9769
▁Tejada	-12.9769
▁Trentino	-12.9769
▁Tribun	-12.9769
▁WEEK	-12.9769
▁WONGWATJANAK	-12.9769
▁WWI	-12.9769
▁abbreviat	-12.9769
▁aggressor	-12.9769
▁anorexi	-12.9769
▁artifact	-12.9769
▁assimilat	-12.9769
▁assumption	-12.9769
▁banknote	-12.9769
▁barbacue	-12.9769
▁bounce	-12.9769
▁breakthrough	-12.9769
▁captivat	-12.9769
▁ceramic	-12.9769
▁chuckle	-12.9769
▁circus	-12.9769
▁clause	-12.9769
▁cocktail	-12.9769
▁competitior	-12.9769
▁confederation	-12.9769
▁confidan	-12.9769
▁consecrat	-12.9769
▁constitute	-12.9769
▁constraint	-12.9769
▁crocodile	-12.9769
▁culprit	-12.9769
▁deficit	-12.9769
▁dictionar	-12.9769
▁diferent	-12.9769
▁discontinue	-12.9769
▁dishwasher	-12.9769
▁disregard	-12.9769
▁divine	-12.9769
▁efficac	-12.9769
